<unk>	0
<s>	0
</s>	0
is	-0
de	-1
vi	-2
▁vi	-3
deo	-4
▁video	-5
his	-6
in	-7
▁a	-8
▁T	-9
on	-10
▁c	-11
▁t	-12
▁is	-13
▁This	-14
ta	-15
ins	-16
▁con	-17
▁conta	-18
▁this	-19
▁contains	-20
er	-21
ing	-22
▁s	-23
an	-24
re	-25
al	-26
or	-27
▁b	-28
ar	-29
le	-30
▁p	-31
▁f	-32
es	-33
ic	-34
at	-35
▁S	-36
en	-37
▁C	-38
▁m	-39
as	-40
▁h	-41
ow	-42
it	-43
oo	-44
ra	-45
ou	-46
▁B	-47
il	-48
▁(	-49
),	-50
▁w	-51
▁d	-52
▁M	-53
▁P	-54
el	-55
ch	-56
ro	-57
▁F	-58
▁g	-59
ion	-60
▁A	-61
ol	-62
us	-63
▁D	-64
am	-65
▁H	-66
un	-67
et	-68
om	-69
▁l	-70
ut	-71
ck	-72
▁G	-73
ir	-74
ed	-75
ig	-76
▁R	-77
ip	-78
um	-79
▁L	-80
▁e	-81
la	-82
▁to	-83
ur	-84
▁k	-85
ce	-86
ge	-87
▁W	-88
ap	-89
ct	-90
all	-91
▁n	-92
ter	-93
ak	-94
ot	-95
ad	-96
im	-97
and	-98
he	-99
▁E	-100
ent	-101
▁re	-102
id	-103
os	-104
▁j	-105
▁st	-106
nd	-107
▁how	-108
ve	-109
▁I	-110
ort	-111
▁N	-112
ub	-113
ine	-114
▁de	-115
▁J	-116
ick	-117
og	-118
ry	-119
▁sh	-120
▁K	-121
ab	-122
st	-123
ri	-124
op	-125
est	-126
▁ch	-127
ood	-128
ers	-129
ay	-130
th	-131
▁O	-132
ard	-133
ting	-134
igh	-135
ul	-136
ation	-137
ass	-138
▁2	-139
ob	-140
ew	-141
if	-142
ng	-143
▁V	-144
qu	-145
ia	-146
ie	-147
01	-148
ure	-149
port	-150
ess	-151
ag	-152
up	-153
ss	-154
ook	-155
ish	-156
ial	-157
▁in	-158
ill	-159
ny	-160
ach	-161
eb	-162
▁y	-163
▁o	-164
air	-165
▁Ch	-166
▁Y	-167
▁be	-168
ake	-169
ts	-170
ack	-171
der	-172
▁r	-173
▁le	-174
te	-175
ver	-176
ly	-177
usic	-178
▁ar	-179
ork	-180
▁1	-181
ile	-182
our	-183
▁fun	-184
ool	-185
ance	-186
ian	-187
00	-188
ist	-189
one	-190
ke	-191
ling	-192
age	-193
ain	-194
out	-195
ping	-196
ast	-197
▁tra	-198
art	-199
od	-200
ug	-201
▁ro	-202
lay	-203
▁v	-204
ight	-205
se	-206
ity	-207
▁sp	-208
▁St	-209
ate	-210
nt	-211
ving	-212
ong	-213
oc	-214
ust	-215
ball	-216
▁sk	-217
ail	-218
ff	-219
ash	-220
ac	-221
ire	-222
row	-223
▁fl	-224
▁201	-225
em	-226
▁Sh	-227
are	-228
ide	-229
ep	-230
▁U	-231
ock	-232
ding	-233
▁the	-234
ube	-235
▁com	-236
orial	-237
ater	-238
ru	-239
▁cl	-240
bo	-241
ive	-242
utorial	-243
ment	-244
mer	-245
ore	-246
▁funny	-247
tal	-248
ump	-249
▁Ar	-250
▁te	-251
ction	-252
to	-253
ne	-254
les	-255
▁ex	-256
aby	-257
ph	-258
ining	-259
ec	-260
▁How	-261
ang	-262
0,	-263
▁and	-264
ice	-265
▁for	-266
anc	-267
▁tr	-268
▁car	-269
obile	-270
▁th	-271
iv	-272
tar	-273
▁he	-274
▁#	-275
▁You	-276
▁sc	-277
▁hair	-278
ell	-279
now	-280
sh	-281
ark	-282
ture	-283
Sport	-284
pe	-285
ath	-286
ies	-287
▁Be	-288
rum	-289
2,	-290
erc	-291
iz	-292
ree	-293
ness	-294
▁In	-295
ips	-296
ush	-297
▁pro	-298
▁rec	-299
ome	-300
lean	-301
az	-302
ute	-303
ics	-304
aw	-305
ning	-306
ud	-307
ade	-308
oor	-309
▁tutorial	-310
ming	-311
▁ra	-312
▁Tra	-313
▁bl	-314
ect	-315
ower	-316
own	-317
▁sw	-318
ise	-319
ord	-320
▁mobile	-321
ooking	-322
ah	-323
ite	-324
Tube	-325
ble	-326
▁YouTube	-327
yle	-328
3,	-329
ind	-330
▁make	-331
▁bas	-332
oot	-333
ym	-334
1,	-335
ys	-336
io	-337
old	-338
▁Cl	-339
▁of	-340
▁pain	-341
lan	-342
per	-343
▁kn	-344
ith	-345
4,	-346
ue	-347
av	-348
itch	-349
ft	-350
▁me	-351
ik	-352
ber	-353
▁on	-354
▁art	-355
▁cra	-356
assage	-357
ids	-358
ee	-359
▁Cap	-360
▁bo	-361
land	-362
▁Fun	-363
▁di	-364
ipe	-365
ear	-366
▁gr	-367
▁work	-368
ax	-369
amp	-370
ory	-371
ok	-372
▁play	-373
ife	-374
ating	-375
5,	-376
▁Fl	-377
usical	-378
itness	-379
ey	-380
man	-381
ike	-382
▁baby	-383
ll	-384
▁Sk	-385
ical	-386
ple	-387
aking	-388
yc	-389
du	-390
ount	-391
iel	-392
▁se	-393
▁new	-394
▁en	-395
▁an	-396
gan	-397
irl	-398
▁hand	-399
▁Gen	-400
ports	-401
▁ins	-402
▁br	-403
ov	-404
ton	-405
ai	-406
ame	-407
▁un	-408
olf	-409
▁music	-410
ond	-411
ild	-412
urf	-413
ina	-414
▁clean	-415
6,	-416
ound	-417
▁food	-418
▁Capture	-419
ress	-420
ishing	-421
Musical	-422
gg	-423
tle	-424
▁col	-425
▁0	-426
inn	-427
vent	-428
▁Th	-429
ld	-430
9,	-431
▁Genre	-432
ich	-433
▁ball	-434
end	-435
ition	-436
▁we	-437
chool	-438
ace	-439
▁The	-440
▁Te	-441
▁gu	-442
iss	-443
iqu	-444
ran	-445
aut	-446
ody	-447
tat	-448
▁3	-449
ons	-450
▁Sp	-451
ject	-452
▁wood	-453
▁dance	-454
▁snow	-455
▁Com	-456
7,	-457
co	-458
let	-459
▁ey	-460
alth	-461
ime	-462
als	-463
▁massage	-464
eed	-465
tain	-466
▁co	-467
mp	-468
▁New	-469
▁sm	-470
ant	-471
ren	-472
▁Vi	-473
8,	-474
▁water	-475
ens	-476
ica	-477
aper	-478
▁training	-479
Pro	-480
▁dog	-481
arp	-482
▁Re	-483
ix	-484
▁Pro	-485
▁or	-486
▁dr	-487
rist	-488
me	-489
ink	-490
▁ad	-491
▁Sc	-492
orm	-493
lack	-494
▁back	-495
board	-496
by	-497
den	-498
asy	-499
▁sl	-500
icks	-501
▁par	-502
▁Art	-503
ket	-504
▁Sw	-505
▁al	-506
▁bre	-507
▁stre	-508
cc	-509
oun	-510
ercise	-511
oe	-512
ous	-513
ary	-514
ield	-515
▁i	-516
▁Ex	-517
ndust	-518
▁mo	-519
chn	-520
▁che	-521
IN	-522
▁with	-523
ilm	-524
▁ap	-525
ler	-526
▁cooking	-527
ndustry	-528
▁He	-529
ger	-530
▁Le	-531
▁z	-532
alk	-533
cer	-534
▁best	-535
▁Funny	-536
ors	-537
▁Con	-538
.,	-539
af	-540
▁tips	-541
atch	-542
raph	-543
itar	-544
▁kids	-545
ron	-546
achine	-547
ale	-548
ountry	-549
ese	-550
▁girl	-551
▁ph	-552
▁Un	-553
ugh	-554
aster	-555
orld	-556
▁bu	-557
Industry	-558
illa	-559
TV	-560
▁la	-561
ugg	-562
▁at	-563
ull	-564
arn	-565
oom	-566
ats	-567
ign	-568
▁man	-569
ancing	-570
ipes	-571
ycle	-572
▁Tr	-573
▁as	-574
▁mot	-575
▁up	-576
ty	-577
▁Me	-578
ross	-579
ley	-580
▁Video	-581
ave	-582
▁do	-583
ills	-584
ateg	-585
ootball	-586
▁4	-587
vel	-588
▁qu	-589
▁wh	-590
▁mar	-591
▁Z	-592
red	-593
ruction	-594
erf	-595
▁cut	-596
log	-597
▁An	-598
view	-599
In	-600
com	-601
▁easy	-602
▁Al	-603
auty	-604
▁De	-605
au	-606
▁sta	-607
eball	-608
ames	-609
▁po	-610
arm	-611
ram	-612
ans	-613
▁pre	-614
▁home	-615
orn	-616
▁Dance	-617
ategory	-618
oh	-619
oy	-620
len	-621
▁Category	-622
ric	-623
▁fitness	-624
▁Mar	-625
▁Food	-626
▁Car	-627
tation	-628
ib	-629
▁gl	-630
umb	-631
▁Sub	-632
imming	-633
oga	-634
▁Play	-635
sc	-636
son	-637
imb	-638
mas	-639
ER	-640
▁sports	-641
▁Music	-642
▁sal	-643
led	-644
work	-645
outh	-646
▁ri	-647
▁Gr	-648
▁pe	-649
ann	-650
▁recipe	-651
▁Br	-652
line	-653
▁Ph	-654
mo	-655
ral	-656
iner	-657
ather	-658
▁workout	-659
▁am	-660
heel	-661
ier	-662
ult	-663
uk	-664
att	-665
▁Inst	-666
▁comp	-667
elf	-668
▁Rec	-669
iving	-670
ara	-671
▁machine	-672
▁jump	-673
ession	-674
uck	-675
ris	-676
▁fire	-677
int	-678
tan	-679
▁head	-680
▁bar	-681
uff	-682
able	-683
oon	-684
▁ed	-685
AN	-686
ino	-687
▁pol	-688
inter	-689
▁ind	-690
ets	-691
illage	-692
ctor	-693
▁health	-694
uc	-695
▁out	-696
▁Col	-697
▁videos	-698
▁Bl	-699
▁Subject	-700
▁egg	-701
▁des	-702
itchen	-703
▁Of	-704
vie	-705
zy	-706
enn	-707
ily	-708
gh	-709
▁inst	-710
reat	-711
icken	-712
▁paint	-713
▁golf	-714
▁00	-715
▁Baby	-716
raphy	-717
Qu	-718
ID	-719
▁diy	-720
▁Snow	-721
ove	-722
ique	-723
iding	-724
ural	-725
isc	-726
ketball	-727
rap	-728
urn	-729
City	-730
oss	-731
aving	-732
▁plan	-733
ring	-734
tern	-735
obby	-736
Town	-737
ature	-738
▁techn	-739
Village	-740
▁To	-741
▁high	-742
tre	-743
▁Bas	-744
ari	-745
rument	-746
ristmas	-747
▁body	-748
olog	-749
za	-750
xing	-751
▁ski	-752
▁your	-753
oard	-754
py	-755
ivers	-756
umping	-757
▁Sta	-758
▁Hair	-759
▁paper	-760
▁ve	-761
raw	-762
▁Se	-763
duct	-764
▁Training	-765
ps	-766
▁less	-767
▁Gu	-768
rgan	-769
▁makeup	-770
▁cute	-771
▁cur	-772
▁throw	-773
mb	-774
▁MO	-775
ma	-776
▁tie	-777
▁5	-778
ana	-779
fession	-780
VI	-781
▁cleaning	-782
▁exercise	-783
ange	-784
▁cam	-785
ye	-786
ouse	-787
ung	-788
▁fishing	-789
ence	-790
▁Co	-791
ray	-792
urfing	-793
lic	-794
my	-795
vil	-796
itting	-797
edy	-798
▁cr	-799
▁gar	-800
day	-801
▁Go	-802
▁ice	-803
ilding	-804
▁Pain	-805
▁cook	-806
AR	-807
▁We	-808
unk	-809
lif	-810
▁news	-811
▁dri	-812
ada	-813
▁baseball	-814
▁ab	-815
ка	-816
ual	-817
azing	-818
pic	-819
▁ne	-820
ism	-821
▁guitar	-822
▁DI	-823
▁nail	-824
lex	-825
oth	-826
ginn	-827
ards	-828
▁free	-829
▁Cooking	-830
ita	-831
ose	-832
▁Bre	-833
way	-834
▁leg	-835
uggling	-836
reen	-837
terest	-838
▁floor	-839
▁200	-840
asting	-841
▁sand	-842
▁go	-843
▁school	-844
ase	-845
▁ac	-846
occer	-847
imal	-848
eet	-849
ebrow	-850
ilk	-851
ational	-852
ockey	-853
▁Stre	-854
▁sn	-855
▁Water	-856
utter	-857
agic	-858
ican	-859
▁bra	-860
hone	-861
ES	-862
rop	-863
ost	-864
▁Ad	-865
atural	-866
ohn	-867
▁can	-868
yd	-869
▁Che	-870
▁Dog	-871
onal	-872
▁MVI	-873
▁Fitness	-874
▁Instrument	-875
ami	-876
▁painting	-877
orse	-878
era	-879
▁drum	-880
▁La	-881
Interest	-882
▁Kn	-883
kin	-884
eth	-885
01,	-886
▁cont	-887
▁fly	-888
ery	-889
▁Class	-890
▁dec	-891
amily	-892
▁Jump	-893
elly	-894
mr	-895
tch	-896
▁pr	-897
ole	-898
ão	-899
▁fre	-900
be	-901
▁tw	-902
oup	-903
avi	-904
edia	-905
br	-906
▁Tutorial	-907
▁op	-908
▁kit	-909
▁black	-910
arpen	-911
▁fail	-912
ream	-913
Country	-914
enc	-915
imp	-916
▁Ball	-917
ING	-918
▁ste	-919
▁pl	-920
▁hot	-921
▁Work	-922
▁DIY	-923
▁mon	-924
inning	-925
▁Par	-926
ero	-927
imbing	-928
▁Cra	-929
▁recipes	-930
▁show	-931
▁VID	-932
▁High	-933
▁wax	-934
ney	-935
AL	-936
▁yoga	-937
AS	-938
▁Ice	-939
▁part	-940
olo	-941
eboard	-942
▁making	-943
ashing	-944
▁class	-945
▁us	-946
met	-947
▁weight	-948
ira	-949
less	-950
▁ser	-951
ini	-952
▁rock	-953
ountain	-954
▁perf	-955
▁es	-956
▁And	-957
▁Ste	-958
irc	-959
wood	-960
ology	-961
▁rep	-962
orc	-963
▁bike	-964
00,	-965
ones	-966
▁x	-967
ha	-968
ane	-969
▁Game	-970
mon	-971
sta	-972
ings	-973
▁bow	-974
lect	-975
Organ	-976
▁Pre	-977
Hobby	-978
▁wind	-979
▁beginn	-980
orth	-981
uss	-982
▁so	-983
usc	-984
▁beer	-985
ado	-986
▁vlog	-987
ae	-988
ough	-989
▁tricks	-990
▁long	-991
its	-992
ank	-993
ON	-994
▁app	-995
▁MOV	-996
ze	-997
▁kick	-998
ngth	-999
ying	-1000
▁playing	-1001
▁bal	-1002
riend	-1003
treme	-1004
fl	-1005
▁beauty	-1006
ovie	-1007
ract	-1008
▁Ed	-1009
▁cal	-1010
▁tool	-1011
tage	-1012
▁dancing	-1013
door	-1014
▁world	-1015
▁Bar	-1016
▁Sports	-1017
▁learn	-1018
▁sup	-1019
cam	-1020
ird	-1021
oes	-1022
ours	-1023
▁web	-1024
ony	-1025
ines	-1026
▁instruction	-1027
▁Ind	-1028
▁School	-1029
lo	-1030
act	-1031
▁Can	-1032
▁power	-1033
icycle	-1034
na	-1035
▁asmr	-1036
▁6	-1037
▁review	-1038
estyle	-1039
ots	-1040
▁face	-1041
▁laugh	-1042
▁Clean	-1043
▁Bo	-1044
▁by	-1045
rest	-1046
wes	-1047
irst	-1048
▁tap	-1049
▁cat	-1050
unch	-1051
▁style	-1052
iday	-1053
▁bur	-1054
▁wheel	-1055
▁air	-1056
▁time	-1057
ida	-1058
▁acc	-1059
▁game	-1060
▁Am	-1061
▁Sm	-1062
lege	-1063
▁Comp	-1064
artial	-1065
ura	-1066
ading	-1067
ift	-1068
OR	-1069
ason	-1070
▁ir	-1071
aj	-1072
ott	-1073
iversity	-1074
▁my	-1075
sp	-1076
Food	-1077
▁fast	-1078
ipping	-1079
▁gra	-1080
▁knife	-1081
▁Golf	-1082
▁п	-1083
uz	-1084
▁sport	-1085
▁Dr	-1086
site	-1087
▁no	-1088
▁color	-1089
ging	-1090
quip	-1091
▁Hand	-1092
amb	-1093
oul	-1094
▁Or	-1095
▁pack	-1096
oney	-1097
▁Ap	-1098
▁eyebrow	-1099
ustral	-1100
ooming	-1101
▁child	-1102
▁chicken	-1103
▁cross	-1104
rian	-1105
ern	-1106
AT	-1107
outube	-1108
ters	-1109
wesome	-1110
▁Wood	-1111
iter	-1112
▁tree	-1113
ailing	-1114
ico	-1115
▁Man	-1116
iness	-1117
MG	-1118
ka	-1119
▁ben	-1120
▁tre	-1121
▁eating	-1122
ope	-1123
▁old	-1124
▁step	-1125
▁oil	-1126
▁Drum	-1127
▁hol	-1128
ebsite	-1129
rew	-1130
ampion	-1131
▁Park	-1132
tas	-1133
iting	-1134
ator	-1135
quipment	-1136
rank	-1137
ule	-1138
iano	-1139
▁Mot	-1140
▁bat	-1141
▁football	-1142
▁break	-1143
▁design	-1144
car	-1145
▁wom	-1146
▁wine	-1147
▁pan	-1148
▁basketball	-1149
▁gym	-1150
▁sex	-1151
▁fish	-1152
▁fall	-1153
room	-1154
omp	-1155
▁kitchen	-1156
alking	-1157
lifting	-1158
ises	-1159
▁pet	-1160
▁red	-1161
ten	-1162
▁Ski	-1163
▁you	-1164
▁Throw	-1165
ummer	-1166
bu	-1167
▁park	-1168
merican	-1169
▁she	-1170
apan	-1171
▁decor	-1172
aul	-1173
▁Fire	-1174
SC	-1175
inet	-1176
▁Cam	-1177
ki	-1178
edi	-1179
Website	-1180
IC	-1181
▁soccer	-1182
ateboard	-1183
10	-1184
fts	-1185
▁Sl	-1186
▁Qu	-1187
ights	-1188
▁song	-1189
▁Do	-1190
▁aut	-1191
inger	-1192
vice	-1193
Film	-1194
▁2012,	-1195
▁bag	-1196
▁Ser	-1197
vis	-1198
▁sharpen	-1199
▁off	-1200
▁swing	-1201
nam	-1202
iver	-1203
US	-1204
go	-1205
ashion	-1206
▁fol	-1207
ient	-1208
ho	-1209
pl	-1210
▁glass	-1211
▁&	-1212
▁cab	-1213
▁Health	-1214
owing	-1215
▁Res	-1216
▁it	-1217
ael	-1218
▁Sal	-1219
20	-1220
EN	-1221
▁hard	-1222
ert	-1223
ype	-1224
▁tire	-1225
inal	-1226
▁big	-1227
▁X	-1228
▁ol	-1229
elt	-1230
vention	-1231
▁Football	-1232
allen	-1233
Profession	-1234
ior	-1235
ization	-1236
izza	-1237
▁juggling	-1238
che	-1239
▁dis	-1240
▁el	-1241
aching	-1242
thlet	-1243
ula	-1244
mel	-1245
▁squ	-1246
ammer	-1247
▁En	-1248
ival	-1249
da	-1250
▁webcam	-1251
▁Best	-1252
aus	-1253
▁life	-1254
▁roll	-1255
▁с	-1256
oker	-1257
ders	-1258
▁street	-1259
▁cool	-1260
▁brush	-1261
geta	-1262
▁carving	-1263
▁World	-1264
venture	-1265
erap	-1266
icking	-1267
osh	-1268
▁eggs	-1269
ific	-1270
▁beach	-1271
ven	-1272
▁book	-1273
▁amazing	-1274
box	-1275
▁como	-1276
▁kid	-1277
▁day	-1278
usiness	-1279
▁Exercise	-1280
oke	-1281
▁natural	-1282
awn	-1283
▁hom	-1284
iff	-1285
tall	-1286
▁card	-1287
cking	-1288
allenge	-1289
▁Christmas	-1290
raft	-1291
tertain	-1292
irth	-1293
▁arm	-1294
▁healthy	-1295
ama	-1296
▁live	-1297
opping	-1298
▁speed	-1299
uis	-1300
opro	-1301
lap	-1302
rom	-1303
▁pat	-1304
;,	-1305
▁Gar	-1306
ewel	-1307
itor	-1308
ars	-1309
edding	-1310
ercises	-1311
▁cake	-1312
▁Make	-1313
ville	-1314
bur	-1315
azz	-1316
des	-1317
▁Cal	-1318
▁Mon	-1319
▁rope	-1320
apse	-1321
▁horse	-1322
▁Gl	-1323
▁san	-1324
▁open	-1325
▁games	-1326
▁winter	-1327
ople	-1328
ward	-1329
inner	-1330
▁El	-1331
ja	-1332
▁cap	-1333
▁crazy	-1334
▁metal	-1335
▁travel	-1336
osp	-1337
▁Is	-1338
Sh	-1339
▁diving	-1340
omb	-1341
▁Ro	-1342
imple	-1343
▁hel	-1344
▁arts	-1345
▁Flip	-1346
ility	-1347
rench	-1348
▁rem	-1349
▁Rock	-1350
oop	-1351
ersonal	-1352
ooth	-1353
lymp	-1354
▁star	-1355
▁Back	-1356
und	-1357
outs	-1358
del	-1359
▁craft	-1360
▁On	-1361
▁youtube	-1362
▁care	-1363
ewelry	-1364
▁Field	-1365
▁stretch	-1366
ен	-1367
▁State	-1368
▁trick	-1369
▁bass	-1370
▁7	-1371
ulp	-1372
ennis	-1373
▁pool	-1374
▁2011,	-1375
any	-1376
udio	-1377
▁swimming	-1378
▁в	-1379
yl	-1380
▁Ve	-1381
▁Aut	-1382
▁draw	-1383
ormance	-1384
inc	-1385
▁Wh	-1386
▁wall	-1387
ipp	-1388
▁party	-1389
ship	-1390
▁Power	-1391
ffee	-1392
idge	-1393
▁comedy	-1394
▁Ne	-1395
▁press	-1396
▁tv	-1397
▁San	-1398
▁News	-1399
▁family	-1400
▁Dri	-1401
▁outdoor	-1402
rol	-1403
ography	-1404
▁rela	-1405
Product	-1406
▁phot	-1407
▁Fly	-1408
▁cas	-1409
▁magic	-1410
▁Dancing	-1411
ams	-1412
▁cor	-1413
ustin	-1414
▁need	-1415
▁John	-1416
▁Hol	-1417
▁Beauty	-1418
ions	-1419
irthday	-1420
ан	-1421
ene	-1422
▁Fre	-1423
▁Out	-1424
▁Kids	-1425
ere	-1426
▁Ac	-1427
style	-1428
▁jumping	-1429
erry	-1430
mbro	-1431
tertainment	-1432
▁IMG	-1433
avid	-1434
iques	-1435
▁grooming	-1436
▁lesson	-1437
▁repair	-1438
▁band	-1439
▁neck	-1440
ident	-1441
ota	-1442
ata	-1443
▁imp	-1444
uscle	-1445
▁drills	-1446
▁+	-1447
▁2,	-1448
201	-1449
ett	-1450
illy	-1451
alsa	-1452
orcycle	-1453
▁Cute	-1454
▁spray	-1455
▁stitch	-1456
een	-1457
▁19	-1458
▁cell	-1459
▁Guitar	-1460
▁lessons	-1461
▁Bra	-1462
IL	-1463
▁10	-1464
irt	-1465
dy	-1466
▁beginners	-1467
▁Artist	-1468
▁top	-1469
▁Egg	-1470
restling	-1471
▁online	-1472
▁cutting	-1473
ives	-1474
▁str	-1475
▁tour	-1476
AC	-1477
appy	-1478
allow	-1479
AM	-1480
ited	-1481
▁Body	-1482
▁awesome	-1483
▁put	-1484
▁down	-1485
▁iM	-1486
igami	-1487
ottle	-1488
tt	-1489
aser	-1490
OL	-1491
oll	-1492
ruck	-1493
vin	-1494
▁AS	-1495
gram	-1496
▁Head	-1497
que	-1498
▁slow	-1499
▁howto	-1500
▁Massage	-1501
▁Mo	-1502
▁Pe	-1503
▁gopro	-1504
▁It	-1505
erman	-1506
▁eng	-1507
▁arch	-1508
ра	-1509
▁iMovie	-1510
Organization	-1511
▁Style	-1512
ces	-1513
▁ide	-1514
▁girls	-1515
mbroide	-1516
bs	-1517
ents	-1518
▁brow	-1519
IT	-1520
▁christmas	-1521
▁Sand	-1522
▁field	-1523
▁Cook	-1524
▁tools	-1525
▁hum	-1526
▁stone	-1527
unt	-1528
▁Des	-1529
▁Weight	-1530
▁Part	-1531
▁iron	-1532
erapy	-1533
uisine	-1534
estival	-1535
fit	-1536
▁tim	-1537
▁bro	-1538
▁mas	-1539
▁run	-1540
▁shoes	-1541
▁Beer	-1542
▁lock	-1543
Sports	-1544
▁sound	-1545
ivi	-1546
ston	-1547
▁Pol	-1548
▁Band	-1549
▁exercises	-1550
▁DSC	-1551
▁sur	-1552
yn	-1553
lace	-1554
▁ass	-1555
▁Paint	-1556
▁Mich	-1557
▁jack	-1558
▁Olymp	-1559
otation	-1560
▁salad	-1561
oof	-1562
uba	-1563
▁circ	-1564
boxing	-1565
▁wrap	-1566
▁Swimming	-1567
▁call	-1568
▁film	-1569
osmet	-1570
plan	-1571
▁educ	-1572
▁Diving	-1573
▁Ben	-1574
owers	-1575
▁ip	-1576
ular	-1577
mbroidery	-1578
▁fight	-1579
▁tile	-1580
▁hockey	-1581
erg	-1582
ude	-1583
▁climbing	-1584
Comp	-1585
▁skiing	-1586
fin	-1587
▁char	-1588
osition	-1589
▁Kitchen	-1590
▁Playing	-1591
ко	-1592
ele	-1593
▁nap	-1594
▁made	-1595
boarding	-1596
▁Wind	-1597
pt	-1598
▁gold	-1599
▁8	-1600
▁camp	-1601
ox	-1602
EL	-1603
ustralia	-1604
▁Cr	-1605
▁Gra	-1606
▁vin	-1607
▁9	-1608
val	-1609
gr	-1610
ental	-1611
▁land	-1612
▁surf	-1613
▁year	-1614
▁2010,	-1615
An	-1616
▁Cut	-1617
▁Cross	-1618
▁house	-1619
▁throwing	-1620
ote	-1621
▁Tips	-1622
xas	-1623
▁ge	-1624
▁Day	-1625
▁green	-1626
▁Laugh	-1627
▁crafts	-1628
Quotation	-1629
▁ma	-1630
arious	-1631
▁Sn	-1632
apple	-1633
ront	-1634
iforn	-1635
▁sing	-1636
▁Bal	-1637
roke	-1638
▁sexy	-1639
ittle	-1640
uffle	-1641
ona	-1642
▁em	-1643
ette	-1644
ouch	-1645
▁Recipe	-1646
we	-1647
▁white	-1648
dle	-1649
▁boy	-1650
▁all	-1651
Liter	-1652
orida	-1653
▁love	-1654
▁Ey	-1655
▁pizza	-1656
tery	-1657
▁milk	-1658
▁GoPro	-1659
bles	-1660
enta	-1661
eek	-1662
ga	-1663
▁carp	-1664
struction	-1665
melon	-1666
attoo	-1667
uro	-1668
uzz	-1669
aker	-1670
enter	-1671
!,	-1672
over	-1673
▁pop	-1674
▁eye	-1675
inese	-1676
▁one	-1677
▁Black	-1678
duction	-1679
ifornia	-1680
▁extreme	-1681
▁fr	-1682
nast	-1683
▁har	-1684
ried	-1685
▁foot	-1686
▁Beach	-1687
▁elect	-1688
ates	-1689
▁chi	-1690
ience	-1691
ineapple	-1692
ando	-1693
▁build	-1694
SA	-1695
aha	-1696
ital	-1697
fer	-1698
olin	-1699
▁As	-1700
ysical	-1701
▁track	-1702
▁balloon	-1703
yst	-1704
▁anim	-1705
▁uk	-1706
000	-1707
▁cro	-1708
ondon	-1709
▁Perf	-1710
▁summer	-1711
▁Workout	-1712
▁Bow	-1713
phone	-1714
▁Fishing	-1715
▁strength	-1716
cre	-1717
▁Track	-1718
▁Pet	-1719
▁pot	-1720
bl	-1721
▁af	-1722
Invention	-1723
Media	-1724
▁children	-1725
▁Tour	-1726
▁table	-1727
ruit	-1728
▁Leg	-1729
▁Rob	-1730
▁Disc	-1731
▁technique	-1732
ет	-1733
▁short	-1734
eling	-1735
▁Team	-1736
dd	-1737
▁dan	-1738
▁TV	-1739
ape	-1740
▁Pl	-1741
aring	-1742
▁Home	-1743
urant	-1744
▁She	-1745
▁shot	-1746
gon	-1747
ora	-1748
orses	-1749
ouble	-1750
chet	-1751
▁Jumping	-1752
iture	-1753
▁Cont	-1754
▁quick	-1755
▁Har	-1756
▁belly	-1757
IS	-1758
▁Gym	-1759
▁Winter	-1760
dition	-1761
▁vac	-1762
▁fashion	-1763
oundation	-1764
▁inter	-1765
▁2013,	-1766
bb	-1767
pen	-1768
usk	-1769
oking	-1770
ilarious	-1771
ushi	-1772
▁act	-1773
▁Jack	-1774
riends	-1775
▁Char	-1776
ounty	-1777
cing	-1778
do	-1779
▁My	-1780
▁jewelry	-1781
range	-1782
▁motion	-1783
▁University	-1784
ads	-1785
lin	-1786
▁Ge	-1787
▁indian	-1788
▁organ	-1789
ato	-1790
ourself	-1791
ки	-1792
▁way	-1793
▁people	-1794
thletics	-1795
uter	-1796
▁needle	-1797
▁disc	-1798
▁building	-1799
▁Equipment	-1800
cial	-1801
▁South	-1802
▁crash	-1803
12	-1804
▁Pr	-1805
ст	-1806
▁lif	-1807
▁men	-1808
inding	-1809
RO	-1810
ict	-1811
vers	-1812
urniture	-1813
▁ver	-1814
iling	-1815
▁change	-1816
▁artist	-1817
RE	-1818
ows	-1819
▁Long	-1820
▁nails	-1821
ca	-1822
icro	-1823
iger	-1824
water	-1825
▁1,	-1826
encil	-1827
▁flower	-1828
osmetics	-1829
ification	-1830
▁simple	-1831
▁Dis	-1832
▁Red	-1833
▁Techn	-1834
▁riding	-1835
▁u	-1836
gle	-1837
▁lol	-1838
▁knot	-1839
apping	-1840
ner	-1841
▁med	-1842
▁Chicken	-1843
▁folding	-1844
illi	-1845
▁drink	-1846
ated	-1847
▁beat	-1848
min	-1849
▁bee	-1850
▁mal	-1851
▁hack	-1852
iber	-1853
▁deck	-1854
▁2014,	-1855
igraphy	-1856
ção	-1857
▁soft	-1858
unge	-1859
▁Eng	-1860
annel	-1861
iking	-1862
isual	-1863
alent	-1864
ewing	-1865
arten	-1866
hist	-1867
▁Girl	-1868
▁apple	-1869
ety	-1870
aves	-1871
RA	-1872
▁good	-1873
▁push	-1874
▁del	-1875
▁ideas	-1876
▁eyebrows	-1877
▁shed	-1878
▁Kit	-1879
ible	-1880
▁pump	-1881
▁techniques	-1882
cast	-1883
▁Card	-1884
▁Eating	-1885
yles	-1886
▁Cur	-1887
raight	-1888
rab	-1889
ocol	-1890
▁pap	-1891
▁Squ	-1892
▁garden	-1893
▁ob	-1894
▁spinning	-1895
▁sled	-1896
▁Dan	-1897
▁Sup	-1898
▁set	-1899
ulele	-1900
ystem	-1901
ative	-1902
ching	-1903
▁skills	-1904
▁Basketball	-1905
▁get	-1906
▁under	-1907
etition	-1908
▁Hockey	-1909
▁board	-1910
▁club	-1911
▁first	-1912
▁washing	-1913
ango	-1914
▁Bur	-1915
ulture	-1916
ious	-1917
Share	-1918
▁min	-1919
▁real	-1920
▁vegeta	-1921
▁eyel	-1922
aste	-1923
▁cup	-1924
▁Air	-1925
▁Time	-1926
▁Arts	-1927
▁Group	-1928
▁Yourself	-1929
bal	-1930
▁2016,	-1931
▁cover	-1932
▁Tw	-1933
ster	-1934
▁FlipShare	-1935
▁mom	-1936
ations	-1937
ault	-1938
▁lat	-1939
▁pin	-1940
50	-1941
ET	-1942
▁sol	-1943
▁Lake	-1944
ops	-1945
use	-1946
▁Bro	-1947
▁shoe	-1948
▁box	-1949
▁fla	-1950
udy	-1951
▁Hum	-1952
▁Street	-1953
▁For	-1954
▁Bu	-1955
▁fe	-1956
icep	-1957
▁coc	-1958
▁Editor	-1959
agl	-1960
▁mark	-1961
ractice	-1962
▁embroidery	-1963
atic	-1964
▁Bike	-1965
ausage	-1966
▁Comedy	-1967
ateboarding	-1968
▁Show	-1969
▁pres	-1970
▁ride	-1971
anging	-1972
▁sec	-1973
▁American	-1974
cut	-1975
ham	-1976
▁waxing	-1977
▁leather	-1978
bor	-1979
▁City	-1980
▁At	-1981
rying	-1982
▁super	-1983
▁Live	-1984
▁Song	-1985
▁dogs	-1986
gu	-1987
▁Fe	-1988
▁line	-1989
▁install	-1990
fessional	-1991
▁Amazing	-1992
avy	-1993
▁Makeup	-1994
▁knitting	-1995
▁Mountain	-1996
tra	-1997
▁fat	-1998
▁CO	-1999
▁All	-2000
▁sle	-2001
ancer	-2002
▁feet	-2003
iful	-2004
▁challenge	-2005
▁Spe	-2006
▁dye	-2007
building	-2008
▁ever	-2009
▁skin	-2010
▁Floor	-2011
▁project	-2012
illing	-2013
nastics	-2014
ED	-2015
light	-2016
▁Bass	-2017
▁from	-2018
oft	-2019
ware	-2020
ues	-2021
▁para	-2022
▁sculp	-2023
autiful	-2024
zer	-2025
▁North	-2026
ague	-2027
▁Arch	-2028
▁pass	-2029
▁skyd	-2030
redient	-2031
▁Cleaning	-2032
MR	-2033
▁test	-2034
dance	-2035
▁mag	-2036
▁bottle	-2037
▁mix	-2038
ophone	-2039
elebr	-2040
cean	-2041
▁Climbing	-2042
▁over	-2043
▁fin	-2044
va	-2045
▁Big	-2046
▁sun	-2047
ри	-2048
ро	-2049
ches	-2050
▁but	-2051
AD	-2052
▁Oper	-2053
▁Ass	-2054
video	-2055
▁12	-2056
ista	-2057
▁Yoga	-2058
ighting	-2059
▁Paper	-2060
merica	-2061
lie	-2062
crete	-2063
▁Sing	-2064
▁Q	-2065
ium	-2066
▁Mc	-2067
▁women	-2068
▁cloth	-2069
02	-2070
ij	-2071
▁д	-2072
ala	-2073
▁pen	-2074
ال	-2075
▁ear	-2076
▁Fish	-2077
▁Sport	-2078
▁origami	-2079
▁war	-2080
▁wel	-2081
Literature	-2082
▁-	-2083
▁01	-2084
▁Tree	-2085
akes	-2086
▁contact	-2087
ments	-2088
▁Star	-2089
▁flat	-2090
oci	-2091
chan	-2092
els	-2093
▁Cat	-2094
▁epic	-2095
▁cards	-2096
ympic	-2097
▁basket	-2098
UN	-2099
▁adventure	-2100
▁tur	-2101
▁Magic	-2102
OW	-2103
▁per	-2104
lection	-2105
▁Champion	-2106
ayak	-2107
mercial	-2108
▁ke	-2109
ocolate	-2110
▁wedding	-2111
ustom	-2112
iti	-2113
ideo	-2114
▁dra	-2115
▁blue	-2116
▁Di	-2117
▁loss	-2118
ering	-2119
uction	-2120
ages	-2121
▁bath	-2122
▁laughing	-2123
gas	-2124
▁Pat	-2125
ootage	-2126
▁mountain	-2127
ns	-2128
▁Fr	-2129
▁coffee	-2130
odge	-2131
awai	-2132
made	-2133
▁Plan	-2134
Visual	-2135
working	-2136
▁Po	-2137
roll	-2138
▁Tool	-2139
▁rece	-2140
of	-2141
fast	-2142
▁prank	-2143
▁personal	-2144
ago	-2145
elle	-2146
ecial	-2147
▁ASMR	-2148
▁Tricks	-2149
▁country	-2150
▁tapping	-2151
res	-2152
▁Review	-2153
rio	-2154
▁pal	-2155
▁Fail	-2156
▁lake	-2157
▁therapy	-2158
▁Chi	-2159
▁Hot	-2160
▁inf	-2161
▁Wine	-2162
▁blog	-2163
▁skate	-2164
ola	-2165
▁cream	-2166
LE	-2167
uit	-2168
▁res	-2169
xe	-2170
на	-2171
▁city	-2172
ded	-2173
ooting	-2174
▁wr	-2175
▁hur	-2176
▁Kick	-2177
▁carpet	-2178
ido	-2179
OS	-2180
bell	-2181
▁south	-2182
ds	-2183
uel	-2184
▁Up	-2185
▁poker	-2186
▁shred	-2187
craft	-2188
▁da	-2189
▁swim	-2190
alloween	-2191
▁piano	-2192
ios	-2193
aler	-2194
oline	-2195
upid	-2196
ful	-2197
emade	-2198
▁boat	-2199
elting	-2200
cl	-2201
▁cast	-2202
▁Bat	-2203
ua	-2204
iro	-2205
▁Cor	-2206
key	-2207
osplay	-2208
▁Classification	-2209
▁Bag	-2210
▁Rep	-2211
Video	-2212
▁catch	-2213
etwork	-2214
Composition	-2215
eeding	-2216
oulder	-2217
erk	-2218
▁todd	-2219
idoo	-2220
▁Painting	-2221
▁iP	-2222
ional	-2223
▁knit	-2224
▁Games	-2225
▁Operation	-2226
oval	-2227
▁vol	-2228
▁Japan	-2229
▁light	-2230
▁2009,	-2231
▁tying	-2232
ider	-2233
andom	-2234
▁Family	-2235
▁Machine	-2236
▁team	-2237
▁wild	-2238
carina	-2239
nee	-2240
str	-2241
▁100,	-2242
get	-2243
ocal	-2244
▁Easy	-2245
▁First	-2246
▁cheese	-2247
50,	-2248
ien	-2249
umba	-2250
ford	-2251
▁mich	-2252
▁furniture	-2253
16	-2254
▁bb	-2255
▁River	-2256
▁Swing	-2257
▁drill	-2258
▁Rope	-2259
uth	-2260
▁Skiing	-2261
▁tennis	-2262
Organism	-2263
▁Af	-2264
ramble	-2265
ano	-2266
bee	-2267
▁Club	-2268
▁champion	-2269
stick	-2270
▁rob	-2271
▁tom	-2272
▁Indian	-2273
▁straight	-2274
▁Hur	-2275
▁gift	-2276
uzzle	-2277
▁beard	-2278
▁river	-2279
▁Juggling	-2280
▁tor	-2281
▁Film	-2282
▁Type	-2283
▁fore	-2284
▁john	-2285
▁pup	-2286
▁rap	-2287
▁hands	-2288
▁packing	-2289
▁surfing	-2290
ao	-2291
ту	-2292
une	-2293
▁side	-2294
bum	-2295
urch	-2296
▁Strength	-2297
tv	-2298
▁Free	-2299
▁calligraphy	-2300
▁pineapple	-2301
Animal	-2302
▁tattoo	-2303
ento	-2304
▁ang	-2305
▁esp	-2306
▁Ride	-2307
▁core	-2308
▁skating	-2309
▁HD	-2310
▁port	-2311
▁2015,	-2312
▁Crazy	-2313
▁ant	-2314
▁walk	-2315
Business	-2316
▁Baseball	-2317
head	-2318
onut	-2319
▁Hard	-2320
▁relax	-2321
▁dry	-2322
▁chef	-2323
▁door	-2324
▁wash	-2325
▁Less	-2326
▁fac	-2327
▁Lear	-2328
ycling	-2329
tail	-2330
▁birthday	-2331
▁bad	-2332
▁prep	-2333
ords	-2334
▁window	-2335
▁poi	-2336
▁motorcycle	-2337
avel	-2338
ulin	-2339
field	-2340
▁vs	-2341
▁event	-2342
▁watermelon	-2343
rog	-2344
ally	-2345
back	-2346
▁mac	-2347
▁stock	-2348
▁perfect	-2349
azine	-2350
afe	-2351
inder	-2352
▁Tre	-2353
60,	-2354
▁happy	-2355
▁Pan	-2356
▁key	-2357
erson	-2358
▁College	-2359
▁napkin	-2360
▁driving	-2361
▁Ab	-2362
▁War	-2363
▁mor	-2364
▁flip	-2365
▁holiday	-2366
lish	-2367
▁trip	-2368
▁japan	-2369
▁Making	-2370
▁polish	-2371
Col	-2372
▁Med	-2373
▁entertainment	-2374
book	-2375
▁Hel	-2376
▁trans	-2377
▁bab	-2378
▁ban	-2379
▁tag	-2380
uum	-2381
▁Ke	-2382
▁Mark	-2383
omas	-2384
▁help	-2385
▁legs	-2386
▁Green	-2387
ngredient	-2388
▁education	-2389
▁Camp	-2390
▁beginner	-2391
ba	-2392
▁ag	-2393
▁jo	-2394
▁York	-2395
▁ww	-2396
▁rub	-2397
▁Physical	-2398
▁truck	-2399
▁fried	-2400
eping	-2401
idger	-2402
▁Break	-2403
▁Color	-2404
ер	-2405
ograph	-2406
▁sushi	-2407
unting	-2408
▁Wax	-2409
oogle	-2410
▁college	-2411
iller	-2412
10,	-2413
▁fil	-2414
▁kiss	-2415
ady	-2416
ores	-2417
▁10,	-2418
▁farm	-2419
▁pare	-2420
app	-2421
rove	-2422
▁fit	-2423
▁fold	-2424
▁meat	-2425
▁solo	-2426
▁Extreme	-2427
▁ty	-2428
▁Ins	-2429
▁cow	-2430
▁Life	-2431
▁Sch	-2432
▁aer	-2433
▁eyes	-2434
▁cer	-2435
ushroom	-2436
▁animals	-2437
flip	-2438
▁Fall	-2439
▁Acc	-2440
▁hip	-2441
lade	-2442
▁bub	-2443
▁not	-2444
▁Cool	-2445
xt	-2446
Dish	-2447
▁use	-2448
▁money	-2449
▁ال	-2450
ries	-2451
▁crack	-2452
▁trail	-2453
03	-2454
ducts	-2455
icket	-2456
▁mass	-2457
angu	-2458
▁guide	-2459
ux	-2460
▁3,	-2461
ks	-2462
ls	-2463
self	-2464
▁Design	-2465
MA	-2466
cert	-2467
anger	-2468
▁apply	-2469
▁crochet	-2470
▁Wheel	-2471
▁mil	-2472
edium	-2473
outine	-2474
▁Natural	-2475
▁м	-2476
▁Knife	-2477
Ingredient	-2478
ya	-2479
▁David	-2480
OT	-2481
alley	-2482
▁lip	-2483
▁movie	-2484
ublic	-2485
emale	-2486
paper	-2487
▁gutter	-2488
▁drums	-2489
ference	-2490
▁racing	-2491
arate	-2492
▁Study	-2493
ement	-2494
▁foundation	-2495
▁great	-2496
idgeridoo	-2497
▁pi	-2498
▁No	-2499
▁salsa	-2500
org	-2501
▁gam	-2502
▁hop	-2503
▁lawn	-2504
▁Apple	-2505
her	-2506
vision	-2507
rambled	-2508
▁performance	-2509
wich	-2510
▁United	-2511
ин	-2512
▁self	-2513
ilation	-2514
▁muscle	-2515
▁smoking	-2516
▁master	-2517
aging	-2518
awaii	-2519
▁Michael	-2520
▁accident	-2521
▁Australia	-2522
▁full	-2523
armon	-2524
▁cop	-2525
▁finger	-2526
▁pick	-2527
▁ST	-2528
▁www	-2529
▁Gold	-2530
ymp	-2531
cara	-2532
▁cart	-2533
▁shuffle	-2534
▁saw	-2535
ky	-2536
▁sewing	-2537
▁yourself	-2538
▁wrestling	-2539
▁Arm	-2540
▁dig	-2541
owder	-2542
▁County	-2543
▁battle	-2544
▁flowers	-2545
▁cre	-2546
▁hammer	-2547
▁Athletics	-2548
UT	-2549
vo	-2550
▁boo	-2551
▁pipe	-2552
▁Press	-2553
▁resta	-2554
▁Throwing	-2555
▁freestyle	-2556
po	-2557
▁harp	-2558
▁fruit	-2559
▁homemade	-2560
▁Rem	-2561
▁Glass	-2562
▁India	-2563
▁instructions	-2564
ла	-2565
obs	-2566
▁horses	-2567
CH	-2568
▁sch	-2569
▁Line	-2570
van	-2571
oration	-2572
aree	-2573
▁Mor	-2574
▁far	-2575
▁Book	-2576
▁woman	-2577
rier	-2578
▁flex	-2579
▁hitting	-2580
lywood	-2581
▁paintball	-2582
bec	-2583
▁tri	-2584
AA	-2585
▁na	-2586
▁Soccer	-2587
bat	-2588
con	-2589
▁Tie	-2590
▁cand	-2591
▁race	-2592
▁kites	-2593
▁Horse	-2594
▁West	-2595
▁Metal	-2596
IG	-2597
fly	-2598
ury	-2599
▁Movie	-2600
ello	-2601
stic	-2602
ooter	-2603
▁Per	-2604
▁Form	-2605
▁Land	-2606
fire	-2607
ison	-2608
▁young	-2609
agliding	-2610
zz	-2611
▁comm	-2612
▁baking	-2613
▁double	-2614
▁india	-2615
UR	-2616
Field	-2617
▁Canada	-2618
kins	-2619
▁tea	-2620
▁jazz	-2621
▁equipment	-2622
oud	-2623
ffic	-2624
▁night	-2625
▁Country	-2626
yr	-2627
▁im	-2628
▁sax	-2629
▁main	-2630
ailand	-2631
▁flute	-2632
▁dinner	-2633
▁pencil	-2634
но	-2635
▁kite	-2636
▁micro	-2637
▁Animal	-2638
▁camera	-2639
duc	-2640
▁yt	-2641
▁Face	-2642
▁paral	-2643
▁Circ	-2644
▁bicycle	-2645
▁по	-2646
▁walking	-2647
▁DE	-2648
tens	-2649
bow	-2650
ón	-2651
▁BB	-2652
ella	-2653
▁Washing	-2654
▁eyeliner	-2655
▁hilarious	-2656
▁Pal	-2657
mpoline	-2658
▁cabinet	-2659
▁weather	-2660
ense	-2661
▁abs	-2662
▁National	-2663
▁ref	-2664
▁felting	-2665
▁Je	-2666
▁drawing	-2667
▁beautiful	-2668
anguage	-2669
20,	-2670
▁fix	-2671
istan	-2672
▁shave	-2673
▁blow	-2674
levision	-2675
ие	-2676
11	-2677
▁scr	-2678
▁Speed	-2679
▁animal	-2680
▁mel	-2681
cy	-2682
ban	-2683
hol	-2684
urs	-2685
▁little	-2686
▁Martial	-2687
▁toddler	-2688
▁18	-2689
▁sub	-2690
▁Your	-2691
▁rice	-2692
▁Island	-2693
▁practice	-2694
gin	-2695
entary	-2696
ilder	-2697
▁sharpening	-2698
ру	-2699
romb	-2700
▁low	-2701
▁Trick	-2702
▁Sur	-2703
▁exper	-2704
▁Mal	-2705
▁Open	-2706
ena	-2707
▁ele	-2708
▁Elect	-2709
▁Project	-2710
▁electric	-2711
pr	-2712
aract	-2713
▁Phil	-2714
▁north	-2715
IR	-2716
dern	-2717
▁lay	-2718
▁train	-2719
ulinary	-2720
▁du	-2721
ondo	-2722
▁Top	-2723
▁let	-2724
ashes	-2725
▁Beat	-2726
kn	-2727
▁о	-2728
▁eat	-2729
▁hal	-2730
▁peel	-2731
risbee	-2732
ko	-2733
afety	-2734
icago	-2735
▁er	-2736
▁pic	-2737
imate	-2738
▁к	-2739
ito	-2740
ize	-2741
▁spl	-2742
cture	-2743
▁mini	-2744
▁laser	-2745
11,	-2746
ivil	-2747
▁Bee	-2748
▁Recipes	-2749
ilet	-2750
tato	-2751
▁fan	-2752
stand	-2753
vival	-2754
omobile	-2755
▁hook	-2756
▁slack	-2757
▁Tor	-2758
▁her	-2759
igan	-2760
▁own	-2761
▁Olympic	-2762
▁sailing	-2763
▁mad	-2764
ision	-2765
▁front	-2766
uge	-2767
▁Push	-2768
▁trainer	-2769
aily	-2770
ademy	-2771
▁Pool	-2772
▁Christ	-2773
OP	-2774
ima	-2775
ken	-2776
▁Alex	-2777
▁pull	-2778
▁drive	-2779
ras	-2780
oves	-2781
▁bird	-2782
▁hero	-2783
▁shaving	-2784
arning	-2785
boy	-2786
▁CH	-2787
▁id	-2788
▁Phot	-2789
▁smooth	-2790
',	-2791
Award	-2792
▁footage	-2793
ias	-2794
anch	-2795
olph	-2796
shop	-2797
ality	-2798
▁Organ	-2799
xico	-2800
ution	-2801
yon	-2802
▁Florida	-2803
▁concrete	-2804
▁exc	-2805
usion	-2806
▁construction	-2807
ih	-2808
uan	-2809
ves	-2810
aling	-2811
▁dead	-2812
▁Stat	-2813
elapse	-2814
▁roller	-2815
▁winds	-2816
▁custom	-2817
ffiti	-2818
▁player	-2819
arinet	-2820
jack	-2821
onto	-2822
▁Resta	-2823
▁ren	-2824
▁knives	-2825
▁american	-2826
▁coloring	-2827
▁Cas	-2828
aters	-2829
ourse	-2830
dening	-2831
▁flash	-2832
▁stand	-2833
▁action	-2834
▁professional	-2835
gl	-2836
▁ter	-2837
ilver	-2838
▁Cover	-2839
▁humor	-2840
UM	-2841
rica	-2842
▁Tai	-2843
iceps	-2844
ternational	-2845
30	-2846
▁Run	-2847
▁spring	-2848
▁Festival	-2849
▁sculpture	-2850
emb	-2851
▁py	-2852
▁tip	-2853
▁vegan	-2854
▁stupid	-2855
▁removal	-2856
▁sanding	-2857
60	-2858
▁т	-2859
reek	-2860
▁One	-2861
ilent	-2862
▁potato	-2863
life	-2864
▁Tom	-2865
▁Child	-2866
sw	-2867
form	-2868
▁road	-2869
▁sweet	-2870
ungee	-2871
▁Educ	-2872
talian	-2873
▁Texas	-2874
▁lapse	-2875
▁watch	-2876
orge	-2877
▁what	-2878
gers	-2879
rown	-2880
▁martial	-2881
..	-2882
ored	-2883
walk	-2884
▁plane	-2885
▁routine	-2886
rea	-2887
▁rest	-2888
▁Bicycle	-2889
ays	-2890
▁Dec	-2891
oeira	-2892
Cuisine	-2893
▁Great	-2894
oons	-2895
▁wool	-2896
▁dress	-2897
▁punch	-2898
▁barten	-2899
▁cleaner	-2900
▁Camera	-2901
▁picking	-2902
▁Dish	-2903
▁Event	-2904
▁youth	-2905
▁Performance	-2906
▁б	-2907
lor	-2908
anda	-2909
▁Str	-2910
40	-2911
▁Del	-2912
▁King	-2913
leston	-2914
▁smoke	-2915
aracter	-2916
▁living	-2917
▁'	-2918
▁ps	-2919
▁Ang	-2920
▁Mac	-2921
▁ups	-2922
cade	-2923
▁stick	-2924
onda	-2925
ocial	-2926
▁Sled	-2927
▁brick	-2928
rombone	-2929
▁Balloon	-2930
▁woodworking	-2931
jo	-2932
▁Dem	-2933
▁Tod	-2934
▁bel	-2935
▁friends	-2936
▁orange	-2937
ret	-2938
▁Program	-2939
rey	-2940
uch	-2941
▁Mad	-2942
ender	-2943
▁Milk	-2944
80	-2945
▁London	-2946
▁nature	-2947
▁pumpkin	-2948
aki	-2949
▁Sam	-2950
▁bed	-2951
▁Cent	-2952
▁gun	-2953
▁west	-2954
▁running	-2955
▁blowing	-2956
▁skydive	-2957
▁photography	-2958
gar	-2959
lete	-2960
▁sam	-2961
kiting	-2962
▁sword	-2963
Martial	-2964
▁Garden	-2965
▁learning	-2966
kw	-2967
▁Mel	-2968
ister	-2969
umpet	-2970
▁shop	-2971
ria	-2972
▁Inter	-2973
▁workouts	-2974
▁phone	-2975
ociation	-2976
▁Laughing	-2977
▁Cake	-2978
▁weaving	-2979
ustralian	-2980
▁Riding	-2981
▁butter	-2982
▁handmade	-2983
gy	-2984
zen	-2985
▁Wal	-2986
▁Port	-2987
▁America	-2988
▁California	-2989
yan	-2990
ordion	-2991
▁steel	-2992
je	-2993
Type	-2994
elda	-2995
▁plaster	-2996
ça	-2997
ALL	-2998
▁Nail	-2999
▁Travel	-3000
▁iphone	-3001
▁festival	-3002
▁competition	-3003
▁whis	-3004
▁drunk	-3005
▁sleep	-3006
▁cellphone	-3007
▁commercial	-3008
etch	-3009
▁DSCN	-3010
▁goal	-3011
▁contest	-3012
▁pig	-3013
order	-3014
▁ballet	-3015
▁Outdoor	-3016
ит	-3017
▁hd	-3018
gway	-3019
▁Series	-3020
▁channel	-3021
▁Tim	-3022
▁pong	-3023
▁Under	-3024
▁je	-3025
▁guy	-3026
▁demo	-3027
▁iPhone	-3028
ila	-3029
vert	-3030
aping	-3031
▁control	-3032
▁May	-3033
cting	-3034
ording	-3035
▁teach	-3036
▁camping	-3037
iso	-3038
▁IN	-3039
ordan	-3040
tenance	-3041
AP	-3042
itt	-3043
▁US	-3044
ener	-3045
▁dom	-3046
▁net	-3047
rylic	-3048
▁Chef	-3049
▁Ever	-3050
▁system	-3051
▁Rel	-3052
▁pad	-3053
▁stop	-3054
uf	-3055
han	-3056
pro	-3057
ther	-3058
▁bbq	-3059
▁like	-3060
▁Party	-3061
▁chest	-3062
▁tutorials	-3063
becue	-3064
▁Adventure	-3065
hi	-3066
▁ш	-3067
bour	-3068
▁Rac	-3069
▁Player	-3070
sm	-3071
▁Cup	-3072
▁Matt	-3073
▁kayak	-3074
▁Em	-3075
▁SH	-3076
yster	-3077
▁Epic	-3078
▁clip	-3079
▁remo	-3080
ination	-3081
▁Company	-3082
▁chinese	-3083
▁sausage	-3084
▁service	-3085
▁sea	-3086
▁tem	-3087
agazine	-3088
▁Ag	-3089
▁Ow	-3090
▁Sun	-3091
▁Board	-3092
▁Skating	-3093
▁bull	-3094
▁mach	-3095
▁pattern	-3096
auce	-3097
peze	-3098
▁wal	-3099
▁form	-3100
▁jugg	-3101
▁Lol	-3102
iami	-3103
ories	-3104
▁Jazz	-3105
▁Old	-3106
press	-3107
▁Stone	-3108
▁12,	-3109
achute	-3110
▁fresh	-3111
▁TO	-3112
▁tab	-3113
▁cars	-3114
▁Medium	-3115
▁boxing	-3116
IA	-3117
mot	-3118
lift	-3119
▁Cab	-3120
▁Salsa	-3121
▁headb	-3122
EO	-3123
oli	-3124
▁pie	-3125
ditional	-3126
▁clothes	-3127
001	-3128
ova	-3129
rie	-3130
ume	-3131
▁NY	-3132
fish	-3133
▁Put	-3134
stration	-3135
dom	-3136
▁Vol	-3137
armonica	-3138
Con	-3139
▁02	-3140
iden	-3141
▁2017,	-3142
▁wrapping	-3143
AY	-3144
▁chocolate	-3145
oku	-3146
uer	-3147
▁Min	-3148
▁Pres	-3149
▁snap	-3150
▁breakfast	-3151
▁г	-3152
esh	-3153
▁mid	-3154
▁saree	-3155
ocation	-3156
▁Network	-3157
▁shooting	-3158
▁compilation	-3159
де	-3160
ros	-3161
▁mc	-3162
▁violin	-3163
▁Personal	-3164
▁ca	-3165
▁Belly	-3166
▁Vegeta	-3167
fe	-3168
▁Bay	-3169
▁Oil	-3170
▁pressure	-3171
▁bodybuilding	-3172
▁Uk	-3173
utch	-3174
▁Meat	-3175
ль	-3176
▁Cosmetics	-3177
EST	-3178
eting	-3179
ighter	-3180
ST	-3181
ор	-3182
azer	-3183
▁USA	-3184
▁balls	-3185
aekw	-3186
▁Ele	-3187
▁dub	-3188
urope	-3189
▁Shot	-3190
▁League	-3191
▁ка	-3192
▁Wel	-3193
▁pas	-3194
▁pur	-3195
wards	-3196
bar	-3197
oma	-3198
▁su	-3199
▁bol	-3200
plane	-3201
unity	-3202
▁toys	-3203
▁Super	-3204
▁basic	-3205
▁pottery	-3206
▁california	-3207
Be	-3208
ocum	-3209
wing	-3210
▁look	-3211
▁york	-3212
▁Piano	-3213
▁bench	-3214
aeology	-3215
▁Birthday	-3216
▁Ma	-3217
ellow	-3218
▁Jul	-3219
▁toy	-3220
▁hist	-3221
▁Learn	-3222
▁papel	-3223
▁female	-3224
▁ukulele	-3225
▁two	-3226
verage	-3227
ympics	-3228
▁Drums	-3229
▁chirop	-3230
▁Chinese	-3231
gn	-3232
▁hy	-3233
▁nut	-3234
▁Slow	-3235
▁grand	-3236
▁google	-3237
ising	-3238
leyball	-3239
▁def	-3240
▁tai	-3241
▁motor	-3242
▁studio	-3243
▁outdoors	-3244
▁Entertainment	-3245
ji	-3246
▁Pin	-3247
▁pos	-3248
▁van	-3249
▁cent	-3250
ador	-3251
▁fab	-3252
▁flying	-3253
usta	-3254
▁Paul	-3255
▁gear	-3256
▁James	-3257
▁tractor	-3258
▁sheep	-3259
ны	-3260
ION	-3261
▁circus	-3262
pa	-3263
▁lo	-3264
▁Tire	-3265
▁drop	-3266
▁wear	-3267
▁Spray	-3268
▁asian	-3269
men	-3270
▁cru	-3271
▁energ	-3272
aint	-3273
iant	-3274
umbia	-3275
raf	-3276
▁Restaurant	-3277
ati	-3278
▁feeding	-3279
▁timelapse	-3280
во	-3281
▁MA	-3282
▁rain	-3283
▁bread	-3284
hand	-3285
▁hacks	-3286
▁relaxing	-3287
▁skateboarding	-3288
esta	-3289
▁Dub	-3290
▁lar	-3291
chair	-3292
ground	-3293
oustic	-3294
▁Summer	-3295
▁Freestyle	-3296
leg	-3297
▁Jo	-3298
illo	-3299
▁flor	-3300
stroke	-3301
▁babies	-3302
ms	-3303
▁cookies	-3304
ло	-3305
ache	-3306
▁Mer	-3307
▁House	-3308
▁demon	-3309
▁Videos	-3310
TS	-3311
read	-3312
▁Imp	-3313
▁pitch	-3314
Br	-3315
har	-3316
lla	-3317
▁11,	-3318
▁esc	-3319
▁sky	-3320
itary	-3321
itish	-3322
▁Draw	-3323
▁burn	-3324
▁sounds	-3325
▁Eyebrow	-3326
OM	-3327
amil	-3328
hill	-3329
▁bik	-3330
itive	-3331
ouver	-3332
▁Miss	-3333
cel	-3334
▁business	-3335
▁Kid	-3336
▁Pic	-3337
▁Tur	-3338
▁fry	-3339
▁cold	-3340
▁chair	-3341
▁Wrestling	-3342
12,	-3343
icle	-3344
mier	-3345
ersey	-3346
▁Blue	-3347
▁king	-3348
styles	-3349
thlete	-3350
▁cheap	-3351
ror	-3352
tie	-3353
king	-3354
ugar	-3355
▁felt	-3356
▁texas	-3357
▁installation	-3358
▁Rol	-3359
house	-3360
▁season	-3361
▁putting	-3362
iego	-3363
▁sale	-3364
iginal	-3365
phones	-3366
reative	-3367
▁florida	-3368
ants	-3369
▁yarn	-3370
▁Brush	-3371
▁mushroom	-3372
▁и	-3373
▁Mas	-3374
▁mer	-3375
phant	-3376
▁bul	-3377
itter	-3378
▁pole	-3379
▁prote	-3380
▁island	-3381
▁weightlifting	-3382
Gar	-3383
vol	-3384
▁por	-3385
▁Year	-3386
▁lifestyle	-3387
pack	-3388
▁Pen	-3389
▁cosplay	-3390
▁Challenge	-3391
▁record	-3392
ия	-3393
▁4,	-3394
etter	-3395
▁Grand	-3396
▁stat	-3397
▁small	-3398
▁auction	-3399
hop	-3400
▁log	-3401
▁Russ	-3402
▁Trail	-3403
stone	-3404
▁diet	-3405
▁trim	-3406
▁Sharpen	-3407
CE	-3408
rick	-3409
▁Ant	-3410
▁space	-3411
▁Olympics	-3412
▁computer	-3413
▁production	-3414
90	-3415
pes	-3416
▁cle	-3417
▁Paintball	-3418
IM	-3419
▁Far	-3420
umber	-3421
▁shark	-3422
▁smart	-3423
hio	-3424
inja	-3425
odys	-3426
ffect	-3427
▁Dogs	-3428
ilt	-3429
mar	-3430
▁Love	-3431
▁Neck	-3432
ingers	-3433
▁archery	-3434
▁Education	-3435
▁Motorcycle	-3436
▁dish	-3437
avelin	-3438
▁trees	-3439
▁Hammer	-3440
▁wire	-3441
▁plant	-3442
ancouver	-3443
▁Feature	-3444
▁Sailing	-3445
▁100	-3446
▁ult	-3447
nament	-3448
▁dough	-3449
▁Awesome	-3450
sa	-3451
rowd	-3452
amaha	-3453
▁Trip	-3454
▁base	-3455
▁phil	-3456
▁ocean	-3457
▁random	-3458
ooper	-3459
▁pour	-3460
athing	-3461
▁Chris	-3462
aekwondo	-3463
▁Surfing	-3464
illow	-3465
ni	-3466
ete	-3467
ueb	-3468
iles	-3469
▁son	-3470
▁Good	-3471
mobile	-3472
odgeball	-3473
▁shoulder	-3474
olk	-3475
▁slide	-3476
nic	-3477
oda	-3478
down	-3479
endo	-3480
▁Drink	-3481
▁mascara	-3482
▁scrambled	-3483
▁Dra	-3484
ships	-3485
▁bush	-3486
▁david	-3487
erle	-3488
▁gas	-3489
▁Fast	-3490
▁Spring	-3491
▁unboxing	-3492
eal	-3493
ande	-3494
▁pun	-3495
▁cats	-3496
▁White	-3497
▁strong	-3498
▁Eye	-3499
▁Tri	-3500
udoku	-3501
▁dunk	-3502
▁Craft	-3503
ión	-3504
angnam	-3505
▁london	-3506
▁vacuum	-3507
▁ju	-3508
aylor	-3509
▁center	-3510
▁talent	-3511
li	-3512
▁ur	-3513
burg	-3514
▁Farm	-3515
▁chris	-3516
ес	-3517
ali	-3518
▁15	-3519
▁ry	-3520
zil	-3521
▁ba	-3522
▁climb	-3523
▁science	-3524
igs	-3525
por	-3526
eter	-3527
▁Blog	-3528
▁move	-3529
▁powder	-3530
▁welding	-3531
ader	-3532
ismo	-3533
▁Todd	-3534
▁autom	-3535
▁Flying	-3536
▁AT	-3537
▁Ul	-3538
▁auto	-3539
ercing	-3540
▁Carving	-3541
▁restaurant	-3542
tty	-3543
ovel	-3544
▁spin	-3545
▁instructional	-3546
▁acro	-3547
has	-3548
acht	-3549
ydney	-3550
▁Down	-3551
Garment	-3552
utt	-3553
▁swe	-3554
▁Hero	-3555
iana	-3556
▁mess	-3557
elebrity	-3558
▁gong	-3559
▁michael	-3560
▁may	-3561
▁puppy	-3562
▁Hurling	-3563
▁03	-3564
▁Lat	-3565
19	-3566
riz	-3567
tact	-3568
▁engine	-3569
▁university	-3570
AND	-3571
▁don	-3572
▁week	-3573
bbling	-3574
di	-3575
▁13	-3576
▁Hop	-3577
▁Mil	-3578
▁Sound	-3579
▁Short	-3580
omen	-3581
▁Aer	-3582
▁Her	-3583
▁pit	-3584
▁Shoe	-3585
Location	-3586
▁curling	-3587
ancy	-3588
▁win	-3589
▁Bench	-3590
▁Fashion	-3591
cess	-3592
▁Need	-3593
▁puzzle	-3594
▁drumming	-3595
wa	-3596
wheel	-3597
ists	-3598
▁Off	-3599
iquid	-3600
▁Gong	-3601
▁deep	-3602
▁Album	-3603
BA	-3604
BC	-3605
OD	-3606
tro	-3607
▁TH	-3608
ente	-3609
pipes	-3610
▁hill	-3611
▁matt	-3612
▁Center	-3613
▁Stretch	-3614
ENT	-3615
dor	-3616
▁kr	-3617
bert	-3618
band	-3619
sk	-3620
ussion	-3621
▁honey	-3622
▁moving	-3623
▁Holiday	-3624
▁Association	-3625
ва	-3626
▁Iron	-3627
▁Pump	-3628
▁Salad	-3629
rography	-3630
▁acrylic	-3631
▁ocarina	-3632
itz	-3633
▁App	-3634
▁Men	-3635
ocaching	-3636
▁burning	-3637
▁australia	-3638
off	-3639
lock	-3640
Brand	-3641
▁classes	-3642
▁0000	-3643
▁miss	-3644
▁scrap	-3645
▁canada	-3646
▁beatbox	-3647
wear	-3648
▁Pot	-3649
▁Anim	-3650
ractic	-3651
▁model	-3652
berg	-3653
gent	-3654
▁clay	-3655
astic	-3656
▁shine	-3657
▁songs	-3658
ela	-3659
reg	-3660
▁robot	-3661
ippines	-3662
▁maintenance	-3663
awk	-3664
chi	-3665
die	-3666
hem	-3667
▁16	-3668
chor	-3669
▁Pack	-3670
▁vine	-3671
▁halloween	-3672
lab	-3673
pie	-3674
▁Key	-3675
udent	-3676
▁special	-3677
uts	-3678
▁boys	-3679
▁Ballet	-3680
▁sharpener	-3681
rys	-3682
ouis	-3683
▁Nap	-3684
regon	-3685
▁moon	-3686
▁Happy	-3687
▁scuba	-3688
▁shots	-3689
▁Tennis	-3690
▁Eggs	-3691
▁Scuba	-3692
▁hunting	-3693
▁snowboarding	-3694
aver	-3695
▁01,	-3696
▁los	-3697
▁rod	-3698
enact	-3699
ieber	-3700
▁Bull	-3701
▁DSCF	-3702
▁blower	-3703
▁safety	-3704
▁Marching	-3705
▁trimming	-3706
▁Gymnastics	-3707
rt	-3708
dog	-3709
una	-3710
cher	-3711
▁sab	-3712
lights	-3713
▁VIDEO	-3714
▁ceram	-3715
▁working	-3716
IP	-3717
ste	-3718
etti	-3719
inha	-3720
▁dad	-3721
▁didgeridoo	-3722
▁Surf	-3723
▁Muscle	-3724
▁police	-3725
▁arrange	-3726
▁Technique	-3727
ups	-3728
arts	-3729
▁Int	-3730
verse	-3731
vices	-3732
▁russ	-3733
▁brown	-3734
▁Driving	-3735
▁singing	-3736
alom	-3737
ites	-3738
onald	-3739
▁dive	-3740
bourne	-3741
▁skateboard	-3742
▁000	-3743
▁mat	-3744
▁tick	-3745
▁gymnastics	-3746
ais	-3747
▁Boy	-3748
▁Rub	-3749
▁Toy	-3750
athan	-3751
▁Scott	-3752
▁Master	-3753
▁backflip	-3754
▁classical	-3755
13	-3756
ymb	-3757
anks	-3758
▁Vac	-3759
▁ten	-3760
▁States	-3761
▁crossfit	-3762
▁cosmetics	-3763
col	-3764
amento	-3765
▁Ash	-3766
▁Hom	-3767
▁bott	-3768
minton	-3769
▁coach	-3770
Game	-3771
▁stir	-3772
▁Contact	-3773
13,	-3774
▁hat	-3775
▁tar	-3776
olina	-3777
▁Front	-3778
ooden	-3779
▁boun	-3780
▁daily	-3781
▁silly	-3782
▁Coffee	-3783
▁With	-3784
▁mens	-3785
▁tight	-3786
▁Ukulele	-3787
▁Tap	-3788
▁dete	-3789
atre	-3790
uning	-3791
▁corn	-3792
▁2008,	-3793
EC	-3794
amm	-3795
hew	-3796
ied	-3797
▁Ty	-3798
mill	-3799
orea	-3800
stre	-3801
▁Vlog	-3802
icine	-3803
inets	-3804
▁Tran	-3805
▁desen	-3806
ructure	-3807
quet	-3808
▁BBQ	-3809
▁Fla	-3810
overs	-3811
▁alex	-3812
▁bowling	-3813
agh	-3814
play	-3815
▁Bel	-3816
thers	-3817
▁Hist	-3818
▁paul	-3819
roller	-3820
▁Fight	-3821
▁fails	-3822
▁Instruction	-3823
▁gh	-3824
artin	-3825
▁Battle	-3826
▁Little	-3827
▁burger	-3828
▁demonstration	-3829
andy	-3830
▁Poker	-3831
▁wrench	-3832
▁stretching	-3833
▁Cheese	-3834
asailing	-3835
cha	-3836
▁Boat	-3837
▁Care	-3838
otland	-3839
▁mower	-3840
Hol	-3841
▁sa	-3842
▁mult	-3843
▁slap	-3844
taly	-3845
inery	-3846
▁Table	-3847
▁disco	-3848
▁Healthy	-3849
ril	-3850
ency	-3851
▁Mid	-3852
▁Mike	-3853
hy	-3854
▁Gal	-3855
▁Carp	-3856
▁Wall	-3857
▁curl	-3858
▁mechan	-3859
▁milking	-3860
uke	-3861
▁fa	-3862
umin	-3863
▁Ear	-3864
▁dep	-3865
▁remote	-3866
▁Wedding	-3867
▁instrument	-3868
ugs	-3869
core	-3870
amond	-3871
▁Lock	-3872
▁vines	-3873
iet	-3874
uta	-3875
▁14	-3876
▁Fin	-3877
▁Harp	-3878
▁landsc	-3879
▁softball	-3880
tic	-3881
piso	-3882
ivity	-3883
▁Rich	-3884
▁braid	-3885
▁Motion	-3886
▁indust	-3887
▁Friends	-3888
▁lipstick	-3889
▁products	-3890
▁paralympic	-3891
▁technology	-3892
lah	-3893
▁Ob	-3894
orkeling	-3895
▁Look	-3896
Ge	-3897
▁Bad	-3898
▁bay	-3899
▁wet	-3900
ethod	-3901
▁Racing	-3902
reatment	-3903
ре	-3904
Aut	-3905
cohol	-3906
▁expl	-3907
ealand	-3908
reland	-3909
umbling	-3910
▁Shuffle	-3911
▁breaking	-3912
▁Skateboarding	-3913
oman	-3914
▁Dom	-3915
ymbal	-3916
▁boot	-3917
▁comb	-3918
▁Powerlifting	-3919
mark	-3920
tario	-3921
▁past	-3922
▁Butter	-3923
▁Lesson	-3924
▁brushing	-3925
Ch	-3926
onom	-3927
▁las	-3928
▁Comm	-3929
▁Fore	-3930
▁teen	-3931
▁month	-3932
Holiday	-3933
▁course	-3934
▁falling	-3935
▁olympic	-3936
▁japanese	-3937
▁Classical	-3938
▁flashlight	-3939
elo	-3940
load	-3941
▁hoo	-3942
▁arms	-3943
▁Pizza	-3944
▁Skate	-3945
▁Ol	-3946
▁os	-3947
▁raz	-3948
▁Action	-3949
▁concert	-3950
show	-3951
▁hit	-3952
▁sep	-3953
▁tob	-3954
ractor	-3955
ondition	-3956
editation	-3957
▁survival	-3958
200	-3959
izz	-3960
▁Don	-3961
▁Lif	-3962
▁Pup	-3963
▁jam	-3964
shire	-3965
▁Help	-3966
▁Premier	-3967
for	-3968
▁Act	-3969
▁six	-3970
▁Soft	-3971
▁bang	-3972
▁christ	-3973
just	-3974
▁Own	-3975
▁sem	-3976
▁block	-3977
▁carry	-3978
▁Easter	-3979
▁toilet	-3980
▁hairstyles	-3981
erd	-3982
▁SP	-3983
▁steam	-3984
15,	-3985
bon	-3986
isco	-3987
▁taste	-3988
▁french	-3989
▁Championship	-3990
St	-3991
yard	-3992
▁Saw	-3993
▁Sec	-3994
▁dirt	-3995
▁hoop	-3996
▁cracking	-3997
no	-3998
film	-3999
▁turn	-4000
▁cliff	-4001
▁Skills	-4002
ographical	-4003
osa	-4004
▁Bub	-4005
▁sit	-4006
lease	-4007
▁chess	-4008
▁Disney	-4009
▁designs	-4010
ercussion	-4011
▁gardening	-4012
▁trampoline	-4013
sen	-4014
▁Cow	-4015
▁Vir	-4016
▁Hilarious	-4017
iva	-4018
etic	-4019
▁Cro	-4020
▁rad	-4021
quest	-4022
▁grass	-4023
▁roast	-4024
▁Thailand	-4025
vas	-4026
ourn	-4027
rition	-4028
wan	-4029
▁Cy	-4030
road	-4031
roid	-4032
temp	-4033
▁est	-4034
▁Catch	-4035
▁Ocean	-4036
keeping	-4037
▁flooring	-4038
Geographical	-4039
▁International	-4040
isa	-4041
▁Nor	-4042
rican	-4043
▁prim	-4044
unts	-4045
▁Mix	-4046
▁Sle	-4047
▁busk	-4048
▁Thomas	-4049
▁improve	-4050
▁fra	-4051
▁pla	-4052
▁Sheep	-4053
▁stain	-4054
▁lifting	-4055
▁Language	-4056
▁drinking	-4057
▁sandwich	-4058
▁Sol	-4059
▁Ter	-4060
apore	-4061
▁dumb	-4062
▁Winds	-4063
▁Repair	-4064
▁hookah	-4065
▁Grooming	-4066
IV	-4067
30,	-4068
▁Dig	-4069
▁lens	-4070
▁square	-4071
uto	-4072
imon	-4073
▁Tag	-4074
▁lad	-4075
▁Side	-4076
▁plays	-4077
▁trout	-4078
▁Television	-4079
▁traditional	-4080
spe	-4081
▁ic	-4082
▁inc	-4083
akers	-4084
ander	-4085
undry	-4086
ilates	-4087
▁curly	-4088
▁justin	-4089
▁Spinning	-4090
roy	-4091
anna	-4092
oose	-4093
vest	-4094
▁grow	-4095
▁media	-4096
▁Sausage	-4097
▁fighting	-4098
▁unicycle	-4099
70	-4100
kt	-4101
▁UK	-4102
asure	-4103
▁polishing	-4104
rip	-4105
▁So	-4106
aron	-4107
asty	-4108
▁Way	-4109
▁bud	-4110
▁den	-4111
▁Cold	-4112
▁cube	-4113
▁room	-4114
▁local	-4115
▁Singing	-4116
ser	-4117
inho	-4118
▁Deck	-4119
▁hula	-4120
▁sail	-4121
▁heart	-4122
▁olympics	-4123
▁Construction	-4124
GE	-4125
21,	-4126
aming	-4127
geles	-4128
ounta	-4129
▁Justin	-4130
▁Japanese	-4131
ocumentary	-4132
ius	-4133
▁AR	-4134
▁axe	-4135
▁leaf	-4136
▁Wr	-4137
▁Hal	-4138
ancake	-4139
▁grill	-4140
▁Halloween	-4141
▁vo	-4142
ening	-4143
fting	-4144
▁Beginn	-4145
▁graffiti	-4146
Un	-4147
mm	-4148
▁Jam	-4149
▁fair	-4150
▁arrow	-4151
▁heavy	-4152
▁manual	-4153
▁condition	-4154
▁q	-4155
25,	-4156
step	-4157
adian	-4158
▁Window	-4159
ef	-4160
nie	-4161
▁Sea	-4162
▁history	-4163
▁reading	-4164
enactment	-4165
▁rel	-4166
rings	-4167
▁Goal	-4168
▁Shoes	-4169
▁balance	-4170
▁Jon	-4171
▁bob	-4172
▁val	-4173
▁Violin	-4174
▁60	-4175
indi	-4176
onde	-4177
olden	-4178
▁Road	-4179
▁fiber	-4180
▁Horses	-4181
rot	-4182
tah	-4183
lers	-4184
unny	-4185
▁musc	-4186
▁Tools	-4187
▁tiles	-4188
ibility	-4189
AB	-4190
acer	-4191
aces	-4192
aska	-4193
ummy	-4194
▁ped	-4195
▁Civil	-4196
▁Night	-4197
▁zumba	-4198
▁Studio	-4199
▁friend	-4200
irs	-4201
uki	-4202
▁are	-4203
▁raw	-4204
▁tru	-4205
16:	-4206
▁et	-4207
ints	-4208
▁bor	-4209
▁chip	-4210
▁lego	-4211
▁well	-4212
▁casino	-4213
▁tasting	-4214
▁coaching	-4215
▁shredder	-4216
▁Hy	-4217
▁lab	-4218
oston	-4219
▁Drive	-4220
▁System	-4221
▁frisbee	-4222
18	-4223
40,	-4224
ili	-4225
▁20120	-4226
▁Tango	-4227
▁poach	-4228
cia	-4229
fall	-4230
▁pink	-4231
▁20110	-4232
▁flint	-4233
▁Circus	-4234
▁church	-4235
▁Walking	-4236
▁а	-4237
ews	-4238
ige	-4239
bage	-4240
▁Change	-4241
▁bubble	-4242
▁Archery	-4243
▁Ireland	-4244
oly	-4245
▁AN	-4246
ties	-4247
▁mem	-4248
▁pra	-4249
table	-4250
▁nose	-4251
ivation	-4252
▁Character	-4253
▁Competition	-4254
CC	-4255
so	-4256
iny	-4257
iley	-4258
ules	-4259
▁bla	-4260
sport	-4261
▁Cast	-4262
▁Race	-4263
▁fazer	-4264
illiams	-4265
▁Waxing	-4266
Culinary	-4267
▁led	-4268
▁som	-4269
▁Miami	-4270
▁Sword	-4271
▁knots	-4272
▁slackline	-4273
▁20	-4274
▁craw	-4275
▁tango	-4276
▁cricket	-4277
▁snowboard	-4278
gs	-4279
▁Ir	-4280
▁tex	-4281
▁squat	-4282
uffling	-4283
▁parede	-4284
▁coconut	-4285
oph	-4286
time	-4287
ronic	-4288
▁101,	-4289
▁Call	-4290
▁Real	-4291
motion	-4292
▁Legend	-4293
▁floors	-4294
▁Weightlifting	-4295
ika	-4296
▁fer	-4297
▁insp	-4298
▁Light	-4299
▁Shark	-4300
▁modern	-4301
=16:	-4302
aked	-4303
anced	-4304
▁Eyes	-4305
▁east	-4306
pisode	-4307
▁weird	-4308
▁perfor	-4309
▁program	-4310
ex	-4311
ucky	-4312
▁mud	-4313
▁meal	-4314
▁Hawaii	-4315
▁Children	-4316
bike	-4317
enny	-4318
▁Hip	-4319
plies	-4320
▁East	-4321
▁salt	-4322
▁tube	-4323
▁Motor	-4324
▁colour	-4325
volution	-4326
▁Jackson	-4327
▁haircut	-4328
▁trailer	-4329
iser	-4330
▁max	-4331
▁coun	-4332
▁bending	-4333
▁skipping	-4334
kes	-4335
uru	-4336
▁CI	-4337
etro	-4338
▁Bla	-4339
orage	-4340
▁Fair	-4341
friend	-4342
▁shoot	-4343
▁airplane	-4344
▁@	-4345
iga	-4346
set	-4347
ector	-4348
▁Pipe	-4349
▁Shop	-4350
▁Kites	-4351
▁check	-4352
▁point	-4353
chester	-4354
▁Service	-4355
INE	-4356
obe	-4357
anie	-4358
▁Box	-4359
▁dire	-4360
elling	-4361
▁Laser	-4362
▁Discus	-4363
▁Humour	-4364
▁breast	-4365
▁Barbecue	-4366
▁pyrography	-4367
GA	-4368
UL	-4369
▁dj	-4370
▁mike	-4371
▁Engine	-4372
14,	-4373
Cam	-4374
▁ast	-4375
▁reg	-4376
▁Wild	-4377
=16:9,	-4378
▁every	-4379
aterial	-4380
▁cuisine	-4381
eng	-4382
ared	-4383
▁add	-4384
plant	-4385
▁Bird	-4386
etting	-4387
▁tires	-4388
▁glasses	-4389
▁longboard	-4390
▁Ra	-4391
ccup	-4392
girl	-4393
osta	-4394
ester	-4395
ginia	-4396
▁Pull	-4397
oupage	-4398
▁Flute	-4399
▁razor	-4400
▁Boxing	-4401
▁vacation	-4402
▁у	-4403
▁ф	-4404
▁Ban	-4405
▁Bul	-4406
unior	-4407
▁Dest	-4408
rystal	-4409
ranging	-4410
▁banana	-4411
▁Special	-4412
да	-4413
low	-4414
тур	-4415
tana	-4416
▁ill	-4417
▁lute	-4418
eboarding	-4419
▁fo	-4420
▁fro	-4421
▁Truck	-4422
▁Origami	-4423
DC	-4424
...,	-4425
adow	-4426
▁Tob	-4427
lanta	-4428
▁dark	-4429
▁Toddler	-4430
▁educational	-4431
14	-4432
▁wa	-4433
ians	-4434
▁09,	-4435
▁Cru	-4436
▁pep	-4437
▁pir	-4438
▁cord	-4439
▁Cards	-4440
▁Ocarina	-4441
▁hardwood	-4442
15	-4443
ми	-4444
▁Sar	-4445
▁goat	-4446
▁Girls	-4447
▁cardio	-4448
▁talking	-4449
▁bathroom	-4450
ales	-4451
▁Mom	-4452
▁Roy	-4453
▁lose	-4454
▁Condition	-4455
▁relaxation	-4456
ek	-4457
▁04	-4458
mber	-4459
▁gay	-4460
▁mod	-4461
▁male	-4462
▁brows	-4463
▁scrub	-4464
aghetti	-4465
rumental	-4466
▁Cutting	-4467
aga	-4468
▁pc	-4469
▁Mem	-4470
▁Sax	-4471
▁jul	-4472
orable	-4473
▁human	-4474
▁onion	-4475
▁state	-4476
▁Dinner	-4477
▁French	-4478
▁letter	-4479
▁\	-4480
▁360,	-4481
weight	-4482
akistan	-4483
▁saxophone	-4484
atom	-4485
rial	-4486
▁ent	-4487
berry	-4488
▁cost	-4489
▁waves	-4490
▁Contest	-4491
▁cabinets	-4492
olding	-4493
▁China	-4494
▁impro	-4495
▁woods	-4496
▁silent	-4497
▁physical	-4498
▁athletics	-4499
rait	-4500
▁end	-4501
▁German	-4502
▁liquid	-4503
▁vintage	-4504
▁vegetable	-4505
ados	-4506
indy	-4507
▁Pop	-4508
estern	-4509
isease	-4510
▁Bungee	-4511
▁Double	-4512
▁colors	-4513
▁silver	-4514
cul	-4515
▁Kite	-4516
▁Crash	-4517
▁tread	-4518
xy	-4519
irit	-4520
velop	-4521
▁Loss	-4522
▁cave	-4523
rizona	-4524
▁Micro	-4525
▁Slack	-4526
Winning	-4527
▁opening	-4528
▁scooter	-4529
▁Electric	-4530
ptom	-4531
ение	-4532
estic	-4533
etish	-4534
▁Core	-4535
▁viral	-4536
▁Square	-4537
▁classic	-4538
▁without	-4539
\,	-4540
lon	-4541
ved	-4542
▁5,	-4543
vies	-4544
▁Polo	-4545
▁Quick	-4546
ocktail	-4547
▁pretty	-4548
▁trumpet	-4549
Conference	-4550
▁cla	-4551
useum	-4552
▁Media	-4553
▁Chicago	-4554
▁reviews	-4555
▁powerlifting	-4556
nut	-4557
▁SC	-4558
ager	-4559
▁Ber	-4560
lando	-4561
otive	-4562
eeping	-4563
▁group	-4564
▁advice	-4565
▁series	-4566
▁Academy	-4567
▁Bowling	-4568
▁Charleston	-4569
uma	-4570
▁Dep	-4571
▁jog	-4572
▁jon	-4573
ongue	-4574
orgia	-4575
other	-4576
resso	-4577
uting	-4578
▁Church	-4579
▁wooden	-4580
▁organic	-4581
▁vlogger	-4582
▁underwater	-4583
ped	-4584
▁ko	-4585
▁Rap	-4586
▁gal	-4587
▁Bang	-4588
binding	-4589
▁castle	-4590
▁keyboard	-4591
▁wheelchair	-4592
owa	-4593
vey	-4594
onder	-4595
▁Hill	-4596
▁Cloth	-4597
▁Sculp	-4598
▁Crafts	-4599
▁binding	-4600
+,	-4601
EM	-4602
▁Coc	-4603
▁Lawn	-4604
▁atta	-4605
▁round	-4606
ovation	-4607
▁Tattoo	-4608
Beverage	-4609
▁Lessons	-4610
wr	-4611
▁Mr	-4612
acco	-4613
▁roy	-4614
allas	-4615
unter	-4616
▁Swim	-4617
▁Drill	-4618
▁salon	-4619
▁discus	-4620
▁Premiere	-4621
▁FL	-4622
▁Cop	-4623
▁cou	-4624
▁jet	-4625
works	-4626
▁doll	-4627
▁Daniel	-4628
KE	-4629
▁bm	-4630
edge	-4631
▁Walk	-4632
▁driver	-4633
▁Building	-4634
asil	-4635
okes	-4636
pine	-4637
tion	-4638
▁Jay	-4639
▁vir	-4640
▁snee	-4641
ymbals	-4642
▁after	-4643
▁touch	-4644
▁fingers	-4645
▁Foundation	-4646
ges	-4647
▁Step	-4648
▁lady	-4649
▁dolph	-4650
▁Paragliding	-4651
▁NC	-4652
▁polo	-4653
ymptom	-4654
▁Model	-4655
▁Vegas	-4656
▁Valley	-4657
▁athlet	-4658
▁infant	-4659
▁smoothie	-4660
▁parachute	-4661
▁Photography	-4662
▁Snowboarding	-4663
TA	-4664
ani	-4665
zing	-4666
▁Cla	-4667
▁Not	-4668
▁bodys	-4669
▁fabric	-4670
▁juggle	-4671
▁person	-4672
ci	-4673
▁Que	-4674
▁mir	-4675
▁Pole	-4676
▁rich	-4677
▁Cream	-4678
▁Exper	-4679
▁sketch	-4680
▁restoration	-4681
PS	-4682
▁ha	-4683
▁Demo	-4684
▁cello	-4685
▁latte	-4686
▁helmet	-4687
▁filling	-4688
▁shearing	-4689
▁Lo	-4690
▁inj	-4691
orean	-4692
▁hole	-4693
▁delic	-4694
▁skill	-4695
▁stunt	-4696
▁People	-4697
obics	-4698
▁five	-4699
▁Channel	-4700
▁Sanding	-4701
▁Knitting	-4702
▁Watermelon	-4703
▁vegetables	-4704
ARD	-4705
mond	-4706
rope	-4707
▁Mah	-4708
▁mus	-4709
igsaw	-4710
▁pets	-4711
▁thai	-4712
vanced	-4713
▁twist	-4714
▁county	-4715
▁Leather	-4716
80,	-4717
oria	-4718
▁Cle	-4719
haler	-4720
idian	-4721
▁buff	-4722
ocking	-4723
▁blade	-4724
▁james	-4725
▁pitching	-4726
▁Chocolate	-4727
22,	-4728
▁17	-4729
▁CIMG	-4730
▁rose	-4731
▁whisper	-4732
▁stretches	-4733
▁Washington	-4734
ori	-4735
onse	-4736
uden	-4737
▁Fan	-4738
▁Fat	-4739
▁lim	-4740
▁rol	-4741
afood	-4742
estra	-4743
opoly	-4744
▁Gran	-4745
▁danger	-4746
▁indoor	-4747
▁culture	-4748
TR	-4749
16,	-4750
ERS	-4751
Ele	-4752
lyn	-4753
▁mr	-4754
▁Ult	-4755
▁sat	-4756
▁projects	-4757
attle	-4758
▁beef	-4759
▁buck	-4760
▁dess	-4761
▁none	-4762
▁Howto	-4763
▁death	-4764
▁sauce	-4765
▁german	-4766
▁Cleaner	-4767
▁snowkiting	-4768
bre	-4769
adas	-4770
▁Bab	-4771
▁Las	-4772
▁joe	-4773
▁Dead	-4774
inting	-4775
▁groom	-4776
▁teeth	-4777
▁proper	-4778
gra	-4779
▁HOW	-4780
▁cub	-4781
ucking	-4782
▁books	-4783
▁sharp	-4784
▁bartending	-4785
ivo	-4786
▁ко	-4787
food	-4788
▁ash	-4789
▁jay	-4790
▁Nick	-4791
▁more	-4792
finishing	-4793
▁Pineapple	-4794
▁Van	-4795
ether	-4796
▁bowl	-4797
▁squash	-4798
▁workshop	-4799
EG	-4800
vy	-4801
▁LA	-4802
▁Jim	-4803
▁mah	-4804
▁Test	-4805
▁ping	-4806
▁Coach	-4807
▁Women	-4808
▁Bottle	-4809
▁karate	-4810
▁Central	-4811
▁Drawing	-4812
▁Running	-4813
ец	-4814
▁на	-4815
side	-4816
▁Dad	-4817
▁Made	-4818
▁lift	-4819
▁Robot	-4820
▁Zelda	-4821
▁final	-4822
erleading	-4823
hab	-4824
ont	-4825
rama	-4826
▁gre	-4827
▁kat	-4828
onsin	-4829
▁Ryan	-4830
▁half	-4831
urance	-4832
▁Roller	-4833
▁basics	-4834
▁biking	-4835
▁blasting	-4836
04	-4837
gi	-4838
utes	-4839
▁Los	-4840
▁roof	-4841
▁Brown	-4842
▁second	-4843
Professional	-4844
apt	-4845
aux	-4846
▁COM	-4847
lands	-4848
▁Jeff	-4849
▁Thai	-4850
▁Zumba	-4851
▁writing	-4852
▁Computer	-4853
▁harmonica	-4854
ibr	-4855
▁DJ	-4856
ades	-4857
▁Cer	-4858
▁Ill	-4859
▁Reg	-4860
▁Ten	-4861
igure	-4862
▁Full	-4863
illiam	-4864
▁Steel	-4865
▁years	-4866
▁Basket	-4867
Elements	-4868
▁clarinet	-4869
▁decorating	-4870
OG	-4871
alt	-4872
iot	-4873
▁Dry	-4874
▁lunch	-4875
▁balloons	-4876
▁capoeira	-4877
alo	-4878
oob	-4879
ugu	-4880
▁05	-4881
esus	-4882
ille	-4883
arena	-4884
▁Foot	-4885
▁bees	-4886
▁oven	-4887
obsled	-4888
▁Smith	-4889
▁store	-4890
umpster	-4891
isconsin	-4892
▁english	-4893
за	-4894
ли	-4895
▁“	-4896
ifts	-4897
▁Mag	-4898
hammer	-4899
▁Tying	-4900
▁Triple	-4901
▁dancer	-4902
▁finish	-4903
▁Haircut	-4904
23	-4905
26	-4906
IF	-4907
▁К	-4908
can	-4909
▁50	-4910
▁flow	-4911
▁Africa	-4912
▁Musical	-4913
▁Pra	-4914
▁emp	-4915
▁Josh	-4916
▁tech	-4917
▁Autom	-4918
▁Cliff	-4919
▁Santa	-4920
▁chips	-4921
lapping	-4922
jer	-4923
▁dy	-4924
▁GAA	-4925
▁Inf	-4926
oring	-4927
▁steve	-4928
▁using	-4929
▁button	-4930
▁effect	-4931
ictional	-4932
▁Medical	-4933
▁trapeze	-4934
enix	-4935
▁Son	-4936
▁Tea	-4937
▁sar	-4938
amsung	-4939
▁jumps	-4940
▁roman	-4941
▁Carpet	-4942
▁Gutter	-4943
▁storage	-4944
▁roasting	-4945
▁paragliding	-4946
▁Professional	-4947
izer	-4948
▁Kat	-4949
▁Poi	-4950
ansas	-4951
▁Rain	-4952
▁just	-4953
bility	-4954
ension	-4955
▁Final	-4956
▁creative	-4957
▁ga	-4958
ells	-4959
eness	-4960
▁hats	-4961
▁pork	-4962
▁Puzzle	-4963
▁Stitch	-4964
▁company	-4965
▁presents	-4966
▁Underwater	-4967
▁07	-4968
▁TR	-4969
тука	-4970
▁Max	-4971
▁ber	-4972
▁sne	-4973
▁that	-4974
▁Humor	-4975
▁krump	-4976
▁ninja	-4977
▁Simple	-4978
▁adjust	-4979
▁Station	-4980
▁national	-4981
▁Structure	-4982
▁butterfly	-4983
▁Bodybuilding	-4984
acks	-4985
chen	-4986
▁ing	-4987
▁Palm	-4988
▁bead	-4989
allops	-4990
▁Napkin	-4991
▁floral	-4992
▁interior	-4993
▁skydiving	-4994
23,	-4995
rel	-4996
▁Ca	-4997
aven	-4998
bury	-4999
uber	-5000
▁les	-5001
▁sus	-5002
ambur	-5003
▁штука	-5004
ulation	-5005
▁dribbling	-5006
SP	-5007
101	-5008
▁ny	-5009
▁Cre	-5010
▁Esp	-5011
▁Knot	-5012
▁sign	-5013
issors	-5014
onster	-5015
▁Mexico	-5016
▁marble	-5017
▁Toronto	-5018
!!	-5019
ti	-5020
бо	-5021
лет	-5022
▁Sen	-5023
▁beb	-5024
▁his	-5025
▁chop	-5026
▁Disco	-5027
▁Steve	-5028
▁vegas	-5029
▁editor	-5030
▁British	-5031
▁Tractor	-5032
▁america	-5033
▁штукатур	-5034
pers	-5035
▁Lee	-5036
▁bon	-5037
rough	-5038
viron	-5039
▁close	-5040
Symptom	-5041
▁waters	-5042
▁Animals	-5043
▁alcohol	-5044
▁Colorado	-5045
▁accordion	-5046
ized	-5047
▁Sweet	-5048
▁vault	-5049
issance	-5050
▁events	-5051
▁sledge	-5052
ountains	-5053
▁Cosplay	-5054
UP	-5055
▁il	-5056
agne	-5057
ride	-5058
▁energy	-5059
▁extens	-5060
▁styles	-5061
UB	-5062
cho	-5063
rid	-5064
hair	-5065
lage	-5066
▁franc	-5067
▁Products	-5068
24	-5069
hat	-5070
shm	-5071
aded	-5072
oven	-5073
ruce	-5074
▁Inc	-5075
▁Kay	-5076
▁Skyd	-5077
▁folk	-5078
ournal	-5079
▁snake	-5080
▁Mechan	-5081
▁Social	-5082
▁remove	-5083
▁Sharpening	-5084
▁australian	-5085
ii	-5086
bean	-5087
▁Pur	-5088
▁Mary	-5089
▁gran	-5090
▁Segway	-5091
▁lashes	-5092
questrian	-5093
24,	-5094
Fit	-5095
aco	-5096
▁Er	-5097
▁Axe	-5098
▁usa	-5099
embly	-5100
ettle	-5101
▁Vict	-5102
▁arcade	-5103
▁Trombone	-5104
▁Commercial	-5105
▁chiropractic	-5106
irty	-5107
very	-5108
▁Ide	-5109
▁Luc	-5110
izing	-5111
▁Ohio	-5112
▁bare	-5113
▁nick	-5114
isting	-5115
stretch	-5116
ylophone	-5117
▁Blowing	-5118
tr	-5119
ть	-5120
▁Fa	-5121
▁PC	-5122
acon	-5123
icas	-5124
▁Val	-5125
▁ble	-5126
tures	-5127
▁Guide	-5128
▁china	-5129
▁Living	-5130
▁stroke	-5131
Fictional	-5132
▁breathing	-5133
BS	-5134
ля	-5135
▁By	-5136
bang	-5137
ilts	-5138
▁God	-5139
▁Asian	-5140
▁Punch	-5141
▁Stand	-5142
▁triple	-5143
▁musical	-5144
▁setting	-5145
OC	-5146
fa	-5147
ldo	-5148
uri	-5149
▁Fil	-5150
▁Joe	-5151
▁ann	-5152
scope	-5153
▁Feet	-5154
▁Gift	-5155
▁bored	-5156
▁shirt	-5157
▁Orange	-5158
▁easter	-5159
▁process	-5160
▁piercing	-5161
▁shopping	-5162
05	-5163
lee	-5164
aret	-5165
gypt	-5166
jump	-5167
▁Kim	-5168
▁Tip	-5169
▁kay	-5170
▁mma	-5171
▁mop	-5172
▁Jess	-5173
making	-5174
▁scott	-5175
College	-5176
▁office	-5177
▁Concert	-5178
▁Plaster	-5179
issa	-5180
▁Bed	-5181
▁sen	-5182
rabble	-5183
uminum	-5184
▁gaming	-5185
▁Practice	-5186
▁campfire	-5187
▁championship	-5188
▁م	-5189
cle	-5190
ker	-5191
▁06	-5192
▁Jan	-5193
▁ham	-5194
▁wave	-5195
▁Franc	-5196
▁Jumps	-5197
booking	-5198
▁access	-5199
та	-5200
17,	-5201
▁Du	-5202
▁om	-5203
park	-5204
▁Ver	-5205
xican	-5206
▁Hook	-5207
▁Solo	-5208
▁edge	-5209
▁Biking	-5210
▁Italian	-5211
▁jackson	-5212
University	-5213
bi	-5214
▁Г	-5215
▁Log	-5216
▁Pit	-5217
▁cha	-5218
ocket	-5219
▁Cello	-5220
▁sugar	-5221
▁thomas	-5222
▁recetas	-5223
▁Michigan	-5224
▁volleyball	-5225
ía	-5226
bie	-5227
uda	-5228
ymph	-5229
▁DAN	-5230
▁Mat	-5231
▁Ren	-5232
▁Som	-5233
▁Cart	-5234
▁Fried	-5235
▁shape	-5236
onomous	-5237
▁Random	-5238
▁celebr	-5239
▁league	-5240
▁chicago	-5241
▁blackjack	-5242
iw	-5243
jong	-5244
rael	-5245
▁Ray	-5246
▁gel	-5247
▁Brand	-5248
▁Decor	-5249
▁Tiger	-5250
▁Flower	-5251
Football	-5252
atomical	-5253
▁Install	-5254
▁arranging	-5255
?,	-5256
hl	-5257
Rec	-5258
▁Low	-5259
▁zoo	-5260
gress	-5261
▁Week	-5262
porate	-5263
▁pranks	-5264
Magazine	-5265
▁necklace	-5266
▁Dodgeball	-5267
OV	-5268
cas	-5269
west	-5270
▁Web	-5271
▁gum	-5272
innes	-5273
▁tack	-5274
▁blues	-5275
▁forest	-5276
▁public	-5277
▁colorado	-5278
To	-5279
ask	-5280
ourt	-5281
▁Den	-5282
artment	-5283
▁method	-5284
▁headphones	-5285
18,	-5286
rad	-5287
▁fu	-5288
mart	-5289
▁hor	-5290
thony	-5291
▁Moon	-5292
▁Roll	-5293
▁brew	-5294
▁talk	-5295
▁Cyber	-5296
▁honda	-5297
Anatomical	-5298
▁Christian	-5299
25	-5300
mi	-5301
tor	-5302
acas	-5303
eper	-5304
▁fut	-5305
ospital	-5306
▁crying	-5307
▁Recording	-5308
ти	-5309
▁ви	-5310
Link	-5311
colo	-5312
dles	-5313
▁13,	-5314
▁Bob	-5315
illed	-5316
iment	-5317
▁Kiss	-5318
▁prof	-5319
▁Train	-5320
agement	-5321
▁Product	-5322
▁pinball	-5323
zo	-5324
то	-5325
the	-5326
▁PA	-5327
ibrary	-5328
udents	-5329
▁champ	-5330
▁Tapping	-5331
▁trombone	-5332
IE	-5333
ле	-5334
pre	-5335
▁mu	-5336
▁Por	-5337
▁nar	-5338
▁Hands	-5339
▁Youth	-5340
▁blind	-5341
▁coast	-5342
▁stuff	-5343
redible	-5344
▁Europe	-5345
▁disney	-5346
▁stunts	-5347
▁kitesurf	-5348
▁medicine	-5349
▁supplies	-5350
▁jumpstyle	-5351
//	-5352
88,	-5353
ocks	-5354
▁Lar	-5355
▁Sky	-5356
oodle	-5357
▁bend	-5358
ancers	-5359
▁Kayak	-5360
▁crowd	-5361
▁pages	-5362
oulders	-5363
▁Welding	-5364
ccupation	-5365
▁vegetarian	-5366
hoe	-5367
win	-5368
▁CL	-5369
otch	-5370
▁ton	-5371
ewell	-5372
riger	-5373
▁sens	-5374
▁Flint	-5375
▁Salon	-5376
▁Baking	-5377
▁Burger	-5378
▁Police	-5379
▁Sewing	-5380
▁popping	-5381
▁station	-5382
ief	-5383
▁cu	-5384
iper	-5385
kick	-5386
well	-5387
▁16,	-5388
burgh	-5389
emble	-5390
▁Cats	-5391
▁hacer	-5392
chestra	-5393
▁dining	-5394
▁military	-5395
▁Vancouver	-5396
17	-5397
pipe	-5398
▁kar	-5399
▁ros	-5400
acion	-5401
▁brace	-5402
▁yellow	-5403
▁chipping	-5404
▁archaeology	-5405
ART	-5406
oto	-5407
ardo	-5408
rena	-5409
▁Rod	-5410
▁dam	-5411
tance	-5412
▁Role	-5413
▁dust	-5414
▁jerk	-5415
▁Puppy	-5416
▁Shred	-5417
▁Young	-5418
▁disab	-5419
▁fetish	-5420
▁History	-5421
▁Therapy	-5422
aca	-5423
▁II	-5424
▁htt	-5425
otato	-5426
▁ring	-5427
▁Flash	-5428
innesota	-5429
lication	-5430
▁product	-5431
▁decoupage	-5432
ICK	-5433
kee	-5434
ucks	-5435
▁Ref	-5436
▁lav	-5437
▁fill	-5438
▁pupp	-5439
▁teaching	-5440
▁flexibility	-5441
NY	-5442
▁Ur	-5443
ante	-5444
dale	-5445
▁butt	-5446
▁relie	-5447
▁Mobile	-5448
▁bagging	-5449
▁Ultimate	-5450
HS	-5451
ни	-5452
003	-5453
bol	-5454
Play	-5455
annah	-5456
▁xbox	-5457
▁Austin	-5458
▁mexico	-5459
▁Weather	-5460
fps	-5461
net	-5462
rac	-5463
▁Bol	-5464
▁Lab	-5465
▁Vin	-5466
▁aud	-5467
▁veh	-5468
igator	-5469
▁braids	-5470
▁Jewelry	-5471
▁triceps	-5472
▁circular	-5473
▁Vegetable	-5474
▁PS	-5475
▁Jet	-5476
▁Tem	-5477
▁fal	-5478
▁shr	-5479
asses	-5480
oenix	-5481
incess	-5482
ysters	-5483
▁Taylor	-5484
▁italian	-5485
▁hairstyle	-5486
hu	-5487
ILL	-5488
▁jan	-5489
▁Finger	-5490
▁Auction	-5491
▁Control	-5492
▁Javelin	-5493
▁delicious	-5494
▁motivation	-5495
cos	-5496
iod	-5497
▁ak	-5498
ieve	-5499
▁199	-5500
▁exp	-5501
▁int	-5502
▁mur	-5503
▁pul	-5504
▁Rice	-5505
▁pear	-5506
ouston	-5507
▁moves	-5508
▁England	-5509
▁Shaving	-5510
▁interview	-5511
EW	-5512
rig	-5513
▁Ha	-5514
▁aqu	-5515
▁lee	-5516
▁sew	-5517
▁falls	-5518
▁steps	-5519
▁Smoking	-5520
▁Drumming	-5521
▁stacking	-5522
▁nutrition	-5523
26,	-5524
://	-5525
cks	-5526
icy	-5527
▁UN	-5528
foot	-5529
▁Ros	-5530
▁cig	-5531
▁Pass	-5532
▁Sens	-5533
▁loom	-5534
▁maqu	-5535
▁Frank	-5536
▁birds	-5537
▁flair	-5538
▁rubik	-5539
▁Jordan	-5540
▁cocina	-5541
knapping	-5542
▁Zealand	-5543
▁crossing	-5544
▁CyberLink	-5545
▁packaging	-5546
és	-5547
▁|	-5548
pin	-5549
▁09	-5550
amin	-5551
born	-5552
oser	-5553
▁Ann	-5554
▁jim	-5555
▁nor	-5556
▁Wrap	-5557
▁Royal	-5558
▁Silly	-5559
▁plate	-5560
▁ropes	-5561
▁snowman	-5562
▁mt	-5563
ione	-5564
vity	-5565
▁Gas	-5566
▁emb	-5567
uzuki	-5568
ycles	-5569
yling	-5570
▁fort	-5571
▁four	-5572
▁haha	-5573
▁wing	-5574
▁Prank	-5575
▁cours	-5576
fishing	-5577
▁Karate	-5578
▁Potato	-5579
ilderness	-5580
BO	-5581
ку	-5582
▁Ba	-5583
▁kh	-5584
▁из	-5585
idas	-5586
more	-5587
▁nice	-5588
master	-5589
▁jordan	-5590
▁drummer	-5591
рас	-5592
▁Im	-5593
etnam	-5594
▁Auto	-5595
▁into	-5596
▁adult	-5597
▁mother	-5598
▁oyster	-5599
▁Trainer	-5600
▁decking	-5601
▁planting	-5602
▁wallpaper	-5603
▁Production	-5604
▁С	-5605
AST	-5606
▁Mur	-5607
▁Rad	-5608
▁luc	-5609
lapse	-5610
▁arab	-5611
▁Jason	-5612
▁Cricket	-5613
▁Frisbee	-5614
▁panning	-5615
overboard	-5616
▁recording	-5617
lad	-5618
▁AP	-5619
▁PL	-5620
enes	-5621
itas	-5622
▁Aqu	-5623
▁BAS	-5624
▁Bud	-5625
▁anime	-5626
▁hobby	-5627
▁apples	-5628
▁tourism	-5629
FL	-5630
fc	-5631
hma	-5632
joy	-5633
ucc	-5634
део	-5635
▁Gh	-5636
▁TE	-5637
▁aw	-5638
fore	-5639
▁20,	-5640
▁Att	-5641
▁Ken	-5642
▁Zoo	-5643
▁lil	-5644
▁outs	-5645
▁chain	-5646
▁maker	-5647
▁Andrew	-5648
▁Tourism	-5649
▁Industry	-5650
Automobile	-5651
06	-5652
rd	-5653
▁ма	-5654
ares	-5655
▁001,	-5656
▁text	-5657
ibbean	-5658
▁Sushi	-5659
▁beads	-5660
▁santa	-5661
▁Barten	-5662
▁filter	-5663
▁things	-5664
▁English	-5665
▁parkour	-5666
▁peeling	-5667
esa	-5668
hor	-5669
los	-5670
aren	-5671
enna	-5672
ysis	-5673
▁mosh	-5674
School	-5675
▁curls	-5676
▁Drills	-5677
▁bungee	-5678
▁Weaving	-5679
▁athlete	-5680
alle	-5681
ikes	-5682
mont	-5683
▁sil	-5684
▁Hula	-5685
▁Mass	-5686
▁army	-5687
ourney	-5688
▁Watch	-5689
▁Silent	-5690
▁Gangnam	-5691
▁bubbles	-5692
▁kicking	-5693
▁moments	-5694
▁adorable	-5695
▁Accordion	-5696
▁Didgeridoo	-5697
▁plastering	-5698
ESS	-5699
asa	-5700
sey	-5701
▁24	-5702
▁DR	-5703
bane	-5704
▁Bor	-5705
eltic	-5706
ities	-5707
▁2012	-5708
▁Door	-5709
▁ryan	-5710
▁Kevin	-5711
▁camel	-5712
▁storm	-5713
▁valley	-5714
finition	-5715
ternative	-5716
▁mushrooms	-5717
▁newspaper	-5718
100	-5719
gie	-5720
isk	-5721
▁beh	-5722
▁joy	-5723
▁que	-5724
▁Peter	-5725
▁Phone	-5726
▁royal	-5727
▁getting	-5728
▁Scotland	-5729
ña	-5730
aka	-5731
▁14,	-5732
▁Two	-5733
aysia	-5734
▁Bath	-5735
▁Mini	-5736
▁brand	-5737
▁foods	-5738
▁mason	-5739
▁Curling	-5740
▁Drummer	-5741
▁student	-5742
▁snowmobile	-5743
aks	-5744
dam	-5745
tag	-5746
ação	-5747
itle	-5748
rict	-5749
ídeo	-5750
music	-5751
▁Cars	-5752
▁anal	-5753
▁Oregon	-5754
▁sudoku	-5755
▁wheels	-5756
▁kissing	-5757
▁portrait	-5758
pc	-5759
▁é	-5760
camp	-5761
hood	-5762
▁curry	-5763
▁villa	-5764
▁Vacuum	-5765
▁social	-5766
▁Ontario	-5767
▁petting	-5768
velopment	-5769
▁Capoeira	-5770
▁Skipping	-5771
▁thailand	-5772
▁Taekwondo	-5773
▁collection	-5774
viv	-5775
▁kl	-5776
▁Nails	-5777
▁kicks	-5778
▁better	-5779
riculture	-5780
▁Trampoline	-5781
aya	-5782
umm	-5783
▁ret	-5784
▁hindi	-5785
▁photo	-5786
▁start	-5787
▁vlogs	-5788
▁Youtube	-5789
▁digital	-5790
▁Carolina	-5791
▁machines	-5792
ма	-5793
iki	-5794
uty	-5795
▁Pi	-5796
scri	-5797
uten	-5798
▁Boo	-5799
▁vid	-5800
inois	-5801
▁caps	-5802
▁Brick	-5803
▁civil	-5804
▁thread	-5805
▁Elephant	-5806
▁deadlift	-5807
▁punching	-5808
▁Sculpture	-5809
▁geocaching	-5810
▁Philippines	-5811
ui	-5812
ils	-5813
istry	-5814
▁hall	-5815
▁heat	-5816
ivision	-5817
▁Online	-5818
▁charity	-5819
▁badminton	-5820
▁television	-5821
▁kitesurfing	-5822
▁FO	-5823
▁Na	-5824
▁15,	-5825
▁pes	-5826
smith	-5827
▁Adam	-5828
▁Vault	-5829
▁blonde	-5830
▁pruning	-5831
▁adjustment	-5832
oni	-5833
▁30	-5834
agle	-5835
dest	-5836
gest	-5837
▁Resp	-5838
▁bear	-5839
unning	-5840
▁Silver	-5841
▁injury	-5842
▁purple	-5843
Literary	-5844
▁traffic	-5845
▁Acoustic	-5846
AG	-5847
70,	-5848
▁Kar	-5849
▁Pad	-5850
▁Needle	-5851
▁inspir	-5852
▁Cuisine	-5853
▁Folding	-5854
▁ceramic	-5855
▁plastic	-5856
▁acoustic	-5857
31,	-5858
how	-5859
▁sad	-5860
oggan	-5861
▁bomb	-5862
▁post	-5863
▁Fruit	-5864
▁plants	-5865
▁segway	-5866
▁single	-5867
▁laundry	-5868
▁Breaking	-5869
▁ultimate	-5870
▁bartender	-5871
:,	-5872
war	-5873
▁BM	-5874
istic	-5875
▁Dolph	-5876
▁Relax	-5877
▁canon	-5878
▁lockp	-5879
▁Sydney	-5880
▁Feeding	-5881
▁rolling	-5882
▁tumbling	-5883
▁Saxophone	-5884
▁charleston	-5885
▁industrial	-5886
▁Archaeology	-5887
▁Destination	-5888
sy	-5889
cil	-5890
inas	-5891
▁21,	-5892
▁ire	-5893
▁non	-5894
▁Fort	-5895
▁cork	-5896
▁Brook	-5897
▁juice	-5898
▁stage	-5899
ersault	-5900
▁Jersey	-5901
▁Perfect	-5902
▁Science	-5903
▁ironing	-5904
▁elephant	-5905
▁googlevideo	-5906
▁conditioning	-5907
EP	-5908
bel	-5909
boat	-5910
ifer	-5911
▁fur	-5912
▁mob	-5913
▁Coast	-5914
▁shake	-5915
▁urban	-5916
▁caving	-5917
▁Culture	-5918
▁Championships	-5919
TO	-5920
iam	-5921
tim	-5922
анс	-5923
▁DC	-5924
▁av	-5925
▁ta	-5926
ajor	-5927
▁Net	-5928
▁Nik	-5929
anish	-5930
▁Dunk	-5931
▁Sign	-5932
▁stri	-5933
▁Honey	-5934
▁gifts	-5935
▁dragon	-5936
deration	-5937
▁Trapeze	-5938
▁academy	-5939
▁grinder	-5940
▁Beautiful	-5941
star	-5942
▁Exc	-5943
▁spa	-5944
acher	-5945
▁view	-5946
burning	-5947
amer	-5948
▁equ	-5949
▁sim	-5950
ampoo	-5951
▁Bill	-5952
▁paren	-5953
▁scene	-5954
▁upper	-5955
▁Yamaha	-5956
▁slalom	-5957
▁Pumpkin	-5958
nes	-5959
rain	-5960
ospel	-5961
▁Hall	-5962
▁will	-5963
Disease	-5964
▁brazil	-5965
▁europe	-5966
▁prepar	-5967
ewellery	-5968
▁Clarinet	-5969
▁services	-5970
▁bushcraft	-5971
19,	-5972
gen	-5973
ilo	-5974
▁Ok	-5975
▁Dave	-5976
▁belt	-5977
▁insta	-5978
▁yamaha	-5979
▁teacher	-5980
Collection	-5981
unn	-5982
▁Da	-5983
▁Sa	-5984
ired	-5985
▁Pas	-5986
▁mic	-5987
prise	-5988
▁Cand	-5989
▁fine	-5990
▁2007,	-5991
▁Diego	-5992
▁excav	-5993
▁maine	-5994
▁passo	-5995
▁three	-5996
▁combat	-5997
▁facial	-5998
SU	-5999
eph	-6000
▁Dy	-6001
▁Fit	-6002
▁THE	-6003
▁god	-6004
▁met	-6005
▁Over	-6006
▁Squat	-6007
▁lower	-6008
▁anchor	-6009
▁ground	-6010
▁Cookies	-6011
▁download	-6012
par	-6013
▁bic	-6014
▁bus	-6015
▁dar	-6016
▁Pong	-6017
▁most	-6018
nessee	-6019
onesia	-6020
▁conce	-6021
▁large	-6022
dancing	-6023
ivities	-6024
uilding	-6025
▁downhill	-6026
HL	-6027
axy	-6028
via	-6029
vid	-6030
▁AD	-6031
▁SL	-6032
▁Jac	-6033
▁Sit	-6034
▁Ven	-6035
▁bir	-6036
▁han	-6037
▁Space	-6038
▁bikes	-6039
▁dream	-6040
▁flies	-6041
▁видео	-6042
▁Community	-6043
▁documentary	-6044
85,	-6045
▁pa	-6046
airy	-6047
▁NYC	-6048
▁fox	-6049
▁psy	-6050
udios	-6051
▁arte	-6052
▁phys	-6053
▁quad	-6054
▁slot	-6055
▁tyre	-6056
▁smash	-6057
▁snatch	-6058
▁treatment	-6059
▁windsurfing	-6060
ACH	-6061
mob	-6062
▁Py	-6063
ctic	-6064
song	-6065
▁Lim	-6066
▁meg	-6067
▁tub	-6068
▁Boys	-6069
▁Self	-6070
▁bake	-6071
▁case	-6072
▁blueb	-6073
▁weave	-6074
▁Strong	-6075
▁dishes	-6076
▁jersey	-6077
▁tongue	-6078
▁diamond	-6079
▁poached	-6080
▁community	-6081
▁Autonomous	-6082
lem	-6083
▁SK	-6084
atur	-6085
iers	-6086
isch	-6087
▁Rop	-6088
▁buy	-6089
▁job	-6090
▁Como	-6091
▁Corn	-6092
▁Broad	-6093
▁diego	-6094
▁Record	-6095
▁aerial	-6096
▁faceplant	-6097
29	-6098
▁П	-6099
▁ce	-6100
care	-6101
case	-6102
elli	-6103
este	-6104
ices	-6105
inos	-6106
soft	-6107
▁Guy	-6108
▁oak	-6109
▁Bach	-6110
▁guys	-6111
▁mule	-6112
▁ouch	-6113
ouette	-6114
▁Hobby	-6115
▁Knives	-6116
▁Mushroom	-6117
▁Snowkiting	-6118
▁Kitesurfing	-6119
▁Ju	-6120
esan	-6121
▁der	-6122
▁wow	-6123
anner	-6124
ators	-6125
niest	-6126
▁Stop	-6127
▁joke	-6128
▁soap	-6129
▁hawaii	-6130
▁rainbow	-6131
rigerator	-6132
▁11	-6133
▁Ped	-6134
under	-6135
▁dest	-6136
▁ting	-6137
encing	-6138
vation	-6139
▁trend	-6140
▁barber	-6141
shmallow	-6142
visation	-6143
▁Trumpet	-6144
▁Learning	-6145
AK	-6146
ング	-6147
aro	-6148
eds	-6149
lam	-6150
▁hi	-6151
bing	-6152
riel	-6153
rock	-6154
▁Drop	-6155
▁bail	-6156
▁match	-6157
▁radio	-6158
ausages	-6159
▁Picture	-6160
▁montage	-6161
▁muscles	-6162
▁present	-6163
▁Cuteness	-6164
▁Automobile	-6165
▁AC	-6166
▁MP	-6167
▁ho	-6168
▁ti	-6169
aled	-6170
▁ess	-6171
▁yard	-6172
▁Louis	-6173
▁Woods	-6174
▁Talent	-6175
▁hiking	-6176
▁months	-6177
▁Flowers	-6178
▁toronto	-6179
▁Concrete	-6180
▁taekwondo	-6181
▁Volleyball	-6182
28,	-6183
gio	-6184
▁Id	-6185
inem	-6186
odia	-6187
▁who	-6188
iffer	-6189
itute	-6190
▁Plat	-6191
▁jess	-6192
▁Blues	-6193
▁earth	-6194
▁mouth	-6195
▁smith	-6196
▁insane	-6197
сс	-6198
0000	-6199
gary	-6200
▁18,	-6201
▁Ram	-6202
eplay	-6203
▁Boun	-6204
iction	-6205
nicity	-6206
▁zelda	-6207
▁Nature	-6208
▁daniel	-6209
▁string	-6210
▁Shooting	-6211
▁espresso	-6212
▁PR	-6213
aria	-6214
ugal	-6215
umer	-6216
▁Sab	-6217
▁suit	-6218
▁take	-6219
▁tiss	-6220
ortion	-6221
▁Chest	-6222
▁Creek	-6223
▁Alaska	-6224
▁Bridge	-6225
▁relief	-6226
▁Pottery	-6227
▁advanced	-6228
rix	-6229
avis	-6230
lets	-6231
arter	-6232
▁Sony	-6233
▁Bread	-6234
▁Drunk	-6235
▁Martin	-6236
▁Pencil	-6237
▁pillow	-6238
▁univers	-6239
▁Breakfast	-6240
▁decoration	-6241
lar	-6242
▁08	-6243
▁6,	-6244
▁7,	-6245
onge	-6246
▁Win	-6247
▁bou	-6248
▁got	-6249
certo	-6250
kiing	-6251
▁fest	-6252
▁howt	-6253
▁Basic	-6254
▁Ideas	-6255
▁story	-6256
▁bieber	-6257
▁Episode	-6258
▁Johnson	-6259
▁Milking	-6260
▁CrossFit	-6261
▁Longboard	-6262
▁kiteboarding	-6263
▁Kh	-6264
ugby	-6265
uren	-6266
▁FUN	-6267
▁LED	-6268
▁gig	-6269
▁Area	-6270
▁Deep	-6271
▁lace	-6272
▁silk	-6273
▁Beard	-6274
▁boots	-6275
▁sheet	-6276
builder	-6277
▁prospe	-6278
▁healing	-6279
▁outside	-6280
▁sleeping	-6281
▁breakdance	-6282
FC	-6283
iy	-6284
Art	-6285
eld	-6286
▁dé	-6287
ince	-6288
▁kim	-6289
▁law	-6290
ufact	-6291
▁2011	-6292
▁Snap	-6293
▁cade	-6294
▁Korea	-6295
▁Stick	-6296
▁clear	-6297
▁dying	-6298
▁statue	-6299
▁original	-6300
▁Snowboard	-6301
▁lettering	-6302
NE	-6303
UMP	-6304
abi	-6305
ted	-6306
▁AL	-6307
▁BL	-6308
▁Kr	-6309
mble	-6310
orte	-6311
▁Bry	-6312
▁Fox	-6313
▁Ups	-6314
eller	-6315
urity	-6316
▁Sexy	-6317
lahoma	-6318
▁irish	-6319
▁Reading	-6320
▁holidays	-6321
▁Exercises	-6322
Is	-6323
bag	-6324
med	-6325
▁SAM	-6326
▁Swe	-6327
▁hyd	-6328
annon	-6329
icure	-6330
▁Burn	-6331
▁mary	-6332
▁yout	-6333
▁Honda	-6334
▁Remote	-6335
▁Russia	-6336
▁windows	-6337
▁chopping	-6338
abe	-6339
imo	-6340
lim	-6341
awas	-6342
▁Pos	-6343
▁fru	-6344
earch	-6345
mouth	-6346
▁2013	-6347
▁Flex	-6348
▁Goat	-6349
▁cafe	-6350
▁dist	-6351
action	-6352
incare	-6353
ughter	-6354
▁Canon	-6355
▁Dress	-6356
▁Fresh	-6357
▁tiger	-6358
▁Canyon	-6359
▁bridge	-6360
▁screen	-6361
▁Pinball	-6362
▁Tourist	-6363
▁ireland	-6364
oreography	-6365
▁Embroidery	-6366
27	-6367
HD	-6368
tha	-6369
▁Mu	-6370
anga	-6371
enry	-6372
rett	-6373
▁cit	-6374
▁ray	-6375
▁rou	-6376
▁cash	-6377
▁josh	-6378
▁Dream	-6379
▁carro	-6380
▁crian	-6381
carving	-6382
country	-6383
▁advert	-6384
blasting	-6385
▁reality	-6386
▁texting	-6387
▁Scrambled	-6388
▁controller	-6389
▁meditation	-6390
▁Sy	-6391
▁Gre	-6392
▁Mir	-6393
▁try	-6394
▁Will	-6395
▁dice	-6396
▁nike	-6397
celona	-6398
isters	-6399
lining	-6400
▁apren	-6401
▁beans	-6402
▁homes	-6403
achuting	-6404
▁inhaler	-6405
▁patterns	-6406
▁potatoes	-6407
▁animation	-6408
▁arrangement	-6409
инг	-6410
▁ep	-6411
olis	-6412
olly	-6413
tard	-6414
▁Dar	-6415
duino	-6416
▁Flat	-6417
▁Mult	-6418
▁Climb	-6419
▁range	-6420
▁napkins	-6421
▁Butterfly	-6422
yo	-6423
▁ka	-6424
▁ken	-6425
▁Diet	-6426
araoke	-6427
onaldo	-6428
▁goats	-6429
▁wings	-6430
▁Bubble	-6431
▁Polish	-6432
▁Sudoku	-6433
▁latest	-6434
▁Classic	-6435
▁Picking	-6436
▁dessert	-6437
▁javelin	-6438
▁Unboxing	-6439
▁stability	-6440
agen	-6441
▁eas	-6442
▁Busk	-6443
▁Past	-6444
scotch	-6445
▁Chess	-6446
▁Cycling	-6447
▁Hunting	-6448
▁Keyboard	-6449
▁Softball	-6450
▁Parachute	-6451
▁Skydiving	-6452
UC	-6453
urt	-6454
vic	-6455
uras	-6456
usky	-6457
wall	-6458
▁aid	-6459
▁ven	-6460
▁Lego	-6461
▁bank	-6462
▁huge	-6463
▁lips	-6464
actory	-6465
▁Irish	-6466
▁level	-6467
▁place	-6468
▁Babies	-6469
▁scream	-6470
▁Georgia	-6471
▁cycling	-6472
▁Sandwich	-6473
▁Unicycle	-6474
▁backyard	-6475
▁percussion	-6476
▁tournament	-6477
▁Windsurfing	-6478
▁improvement	-6479
awa	-6480
ely	-6481
emy	-6482
▁Esc	-6483
▁Fer	-6484
▁Let	-6485
ldozer	-6486
▁Check	-6487
▁slime	-6488
rumping	-6489
▁Cookie	-6490
▁France	-6491
▁around	-6492
▁african	-6493
▁catching	-6494
▁Melbourne	-6495
45	-6496
SS	-6497
Te	-6498
32,	-6499
90,	-6500
▁Gun	-6501
▁Craw	-6502
barrow	-6503
▁Money	-6504
raction	-6505
▁cookie	-6506
▁gangnam	-6507
▁Response	-6508
▁washington	-6509
▁international	-6510
ACK	-6511
kok	-6512
lot	-6513
▁SA	-6514
dium	-6515
inic	-6516
▁02,	-6517
▁End	-6518
▁tut	-6519
▁hold	-6520
giving	-6521
tempor	-6522
▁Blade	-6523
▁clips	-6524
▁films	-6525
▁pregn	-6526
▁smile	-6527
intendo	-6528
▁broken	-6529
▁scratch	-6530
▁Furniture	-6531
▁Harmonica	-6532
▁landscape	-6533
MC	-6534
ww	-6535
27,	-6536
29,	-6537
кая	-6538
ная	-6539
▁Us	-6540
ocus	-6541
▁Tar	-6542
▁gen	-6543
utton	-6544
▁Move	-6545
▁hurt	-6546
▁sick	-6547
▁rings	-6548
▁twins	-6549
▁George	-6550
▁Hookah	-6551
▁Graffiti	-6552
▁Shoulder	-6553
▁hardcore	-6554
fu	-6555
он	-6556
ben	-6557
▁EN	-6558
high	-6559
▁Nic	-6560
▁как	-6561
amous	-6562
edish	-6563
▁Cons	-6564
▁Italy	-6565
▁bright	-6566
▁middle	-6567
▁Trailer	-6568
▁candles	-6569
▁carrier	-6570
▁Tournament	-6571
IO	-6572
obic	-6573
▁Ast	-6574
inson	-6575
umble	-6576
▁Four	-6577
▁chis	-6578
▁groo	-6579
▁hunt	-6580
ronics	-6581
▁Human	-6582
▁Steph	-6583
▁market	-6584
▁musica	-6585
▁Lifting	-6586
▁casting	-6587
▁Gardening	-6588
▁Collection	-6589
▁Parasailing	-6590
▁instrumental	-6591
lac	-6592
ndo	-6593
omm	-6594
ные	-6595
▁25	-6596
▁HA	-6597
▁Su	-6598
▁um	-6599
itos	-6600
zone	-6601
ианс	-6602
▁Sem	-6603
fined	-6604
uerto	-6605
▁pint	-6606
▁tail	-6607
urants	-6608
awasaki	-6609
▁Custom	-6610
▁Google	-6611
▁Kingdom	-6612
▁pancake	-6613
▁bracelet	-6614
▁language	-6615
▁shoulders	-6616
08	-6617
ür	-6618
▁SE	-6619
rent	-6620
▁Lip	-6621
▁Slo	-6622
beque	-6623
▁Bush	-6624
▁mask	-6625
▁vert	-6626
▁goals	-6627
▁movies	-6628
▁Skateboard	-6629
▁bookbinding	-6630
▁chiropractor	-6631
cn	-6632
64,	-6633
cat	-6634
inky	-6635
ание	-6636
▁Dye	-6637
▁ink	-6638
▁wor	-6639
brush	-6640
world	-6641
▁kung	-6642
▁meta	-6643
ultura	-6644
▁liner	-6645
histling	-6646
▁Arizona	-6647
▁brother	-6648
▁shuffling	-6649
▁Snorkeling	-6650
TE	-6651
66,	-6652
uet	-6653
▁BE	-6654
idad	-6655
rane	-6656
shot	-6657
▁ram	-6658
ación	-6659
▁Wash	-6660
▁wars	-6661
▁blood	-6662
ctional	-6663
▁Robert	-6664
▁garage	-6665
amburger	-6666
▁magazine	-6667
▁automatic	-6668
ار	-6669
34,	-6670
ный	-6671
▁BR	-6672
▁де	-6673
pool	-6674
▁Lad	-6675
▁inn	-6676
▁2014	-6677
▁scal	-6678
▁unde	-6679
ission	-6680
▁0001,	-6681
▁Brian	-6682
▁hotel	-6683
▁peter	-6684
▁slice	-6685
▁Casino	-6686
▁mixing	-6687
▁Camping	-6688
▁Falling	-6689
▁russian	-6690
▁Meridian	-6691
▁seasoned	-6692
▁Australian	-6693
45,	-6694
oel	-6695
oln	-6696
▁ec	-6697
ouri	-6698
entle	-6699
▁0001	-6700
▁Crowd	-6701
▁freer	-6702
▁Waters	-6703
▁Angeles	-6704
▁Packing	-6705
▁morning	-6706
▁session	-6707
▁Shearing	-6708
▁Virginia	-6709
▁clothing	-6710
▁Singapore	-6711
anz	-6712
ifa	-6713
▁ig	-6714
▁tro	-6715
▁вен	-6716
▁grip	-6717
▁toss	-6718
▁Jesus	-6719
▁Paris	-6720
▁Sector	-6721
▁timber	-6722
▁crystal	-6723
▁cymbals	-6724
▁Division	-6725
sal	-6726
cker	-6727
otic	-6728
▁Sus	-6729
▁Dist	-6730
▁Skin	-6731
▁Stir	-6732
▁bell	-6733
▁ipad	-6734
▁oboe	-6735
acific	-6736
▁Grace	-6737
▁Sleep	-6738
▁Dining	-6739
▁fastest	-6740
▁pilates	-6741
▁corporate	-6742
▁parasailing	-6743
▁scrapbooking	-6744
tf	-6745
IGH	-6746
hos	-6747
▁SM	-6748
▁Jer	-6749
Color	-6750
▁Jerk	-6751
▁Leaf	-6752
▁Main	-6753
▁Peel	-6754
▁clam	-6755
▁scar	-6756
▁unhas	-6757
▁Smooth	-6758
▁alpine	-6759
▁Tasting	-6760
▁british	-6761
anksgiving	-6762
▁christian	-6763
Bas	-6764
cra	-6765
etts	-6766
kite	-6767
mann	-6768
oops	-6769
vlog	-6770
▁bri	-6771
▁tel	-6772
▁Ford	-6773
▁coin	-6774
castle	-6775
ецианс	-6776
▁mixed	-6777
▁theme	-6778
▁Anchor	-6779
▁Brazil	-6780
▁sydney	-6781
▁medical	-6782
▁seafood	-6783
▁headstand	-6784
▁vancouver	-6785
▁Reenactment	-6786
28	-6787
TER	-6788
000,	-6789
obal	-6790
phis	-6791
▁Jos	-6792
▁Smo	-6793
hisha	-6794
▁Lute	-6795
▁Rose	-6796
▁give	-6797
▁porn	-6798
asonic	-6799
semble	-6800
▁Camel	-6801
▁yacht	-6802
▁Cymbal	-6803
▁Stupid	-6804
▁andrew	-6805
▁treadmill	-6806
FF	-6807
nda	-6808
adel	-6809
inar	-6810
omic	-6811
rets	-6812
▁Fro	-6813
▁die	-6814
uring	-6815
▁Vine	-6816
▁Xbox	-6817
ukbang	-6818
▁Curly	-6819
▁Heavy	-6820
▁Rubik	-6821
▁beats	-6822
▁candy	-6823
▁kevin	-6824
▁offic	-6825
▁jigsaw	-6826
▁lenses	-6827
▁Athlete	-6828
▁Sensory	-6829
▁Theatre	-6830
▁central	-6831
▁snorkeling	-6832
ов	-6833
The	-6834
azon	-6835
unic	-6836
▁Nut	-6837
mento	-6838
▁Mess	-6839
▁casa	-6840
▁strip	-6841
▁tasty	-6842
▁tobacco	-6843
▁brothers	-6844
▁shredding	-6845
▁mechanical	-6846
55,	-6847
65,	-6848
igo	-6849
ski	-6850
▁CA	-6851
▁WW	-6852
vern	-6853
asing	-6854
▁Cave	-6855
▁Ross	-6856
▁barn	-6857
▁hang	-6858
bridge	-6859
▁Storm	-6860
▁guard	-6861
seiling	-6862
▁cumbia	-6863
▁france	-6864
▁frozen	-6865
▁Cabinet	-6866
▁hooping	-6867
▁watering	-6868
▁windsurf	-6869
▁spaghetti	-6870
44,	-6871
ANG	-6872
obb	-6873
▁HP	-6874
amas	-6875
bird	-6876
olla	-6877
▁nyc	-6878
▁bill	-6879
▁resc	-6880
▁tank	-6881
▁tape	-6882
▁Dough	-6883
▁Headb	-6884
▁mirror	-6885
▁garbage	-6886
▁Beginner	-6887
▁Shopping	-6888
▁barbecue	-6889
▁snapback	-6890
▁венецианс	-6891
▁เ	-6892
ald	-6893
hyth	-6894
rina	-6895
rome	-6896
▁CAR	-6897
▁Det	-6898
▁cot	-6899
▁Gear	-6900
blower	-6901
ourmet	-6902
▁Title	-6903
▁Weird	-6904
casting	-6905
▁laying	-6906
▁legend	-6907
▁Univers	-6908
▁reverse	-6909
▁Survival	-6910
▁Williams	-6911
▁counting	-6912
▁wilderness	-6913
aho	-6914
dra	-6915
hen	-6916
▁RE	-6917
▁SN	-6918
onio	-6919
▁SAN	-6920
▁gad	-6921
▁Cube	-6922
▁bone	-6923
school	-6924
▁Falls	-6925
▁Grill	-6926
▁Landsc	-6927
▁batting	-6928
▁shaping	-6929
▁Bagpipes	-6930
▁Eyebrows	-6931
▁Roasting	-6932
▁cartwheel	-6933
▁Technology	-6934
▁highlights	-6935
OK	-6936
umn	-6937
▁ax	-6938
tang	-6939
▁hug	-6940
andem	-6941
leigh	-6942
▁Acro	-6943
▁Beef	-6944
ociety	-6945
▁facil	-6946
▁scary	-6947
taining	-6948
▁Caving	-6949
▁Driver	-6950
▁courses	-6951
▁michigan	-6952
▁moonwalk	-6953
▁wellness	-6954
▁hoverboard	-6955
▁Parachuting	-6956
▁BO	-6957
▁ot	-6958
acay	-6959
isan	-6960
▁Bon	-6961
▁Pig	-6962
▁dou	-6963
▁ipc	-6964
Olymp	-6965
etski	-6966
▁palm	-6967
▁mount	-6968
▁brasil	-6969
thnicity	-6970
▁scallops	-6971
▁Jumpstyle	-6972
▁dangerous	-6973
DA	-6974
▁М	-6975
▁sy	-6976
ippy	-6977
▁Fac	-6978
▁Pie	-6979
▁spe	-6980
achos	-6981
▁Whis	-6982
inking	-6983
▁Smart	-6984
▁Safety	-6985
▁comida	-6986
▁ladder	-6987
▁blooper	-6988
▁network	-6989
temporary	-6990
▁detector	-6991
▁incredible	-6992
07	-6993
QU	-6994
agem	-6995
▁Fab	-6996
▁lot	-6997
▁Rick	-6998
▁pony	-6999
▁rail	-7000
▁carve	-7001
▁Scooter	-7002
▁championships	-7003
dr	-7004
ры	-7005
чи	-7006
aru	-7007
▁CR	-7008
Soft	-7009
ersh	-7010
ught	-7011
▁17,	-7012
▁rac	-7013
▁Arab	-7014
▁Eric	-7015
▁dave	-7016
▁lamb	-7017
▁Gopro	-7018
▁Round	-7019
▁Smile	-7020
▁straw	-7021
ambling	-7022
▁Castle	-7023
▁Squash	-7024
▁opener	-7025
▁secret	-7026
▁spirit	-7027
▁Atlanta	-7028
▁burping	-7029
▁replace	-7030
▁cocktail	-7031
▁woodburning	-7032
ISH	-7033
Med	-7034
eda	-7035
pot	-7036
uno	-7037
▁AM	-7038
▁Ak	-7039
arch	-7040
iled	-7041
▁Dou	-7042
itect	-7043
ordon	-7044
treal	-7045
▁Iowa	-7046
▁Just	-7047
▁warm	-7048
idents	-7049
▁queen	-7050
lington	-7051
▁Dragon	-7052
▁lights	-7053
▁target	-7054
Building	-7055
▁desenhar	-7056
▁dodgeball	-7057
▁Techniques	-7058
pp	-7059
35,	-7060
DER	-7061
bra	-7062
erm	-7063
iah	-7064
▁ATM	-7065
▁Ale	-7066
▁Wil	-7067
▁ale	-7068
achel	-7069
arium	-7070
▁Sail	-7071
▁ohio	-7072
vealed	-7073
▁flour	-7074
▁jason	-7075
▁stack	-7076
mobiling	-7077
▁Crochet	-7078
▁beading	-7079
▁gutters	-7080
▁oysters	-7081
ettlebell	-7082
DS	-7083
TC	-7084
ás	-7085
ей	-7086
gal	-7087
▁8,	-7088
▁PRO	-7089
▁pod	-7090
▁Blow	-7091
▁paso	-7092
▁save	-7093
▁sony	-7094
▁Build	-7095
▁meals	-7096
Olympic	-7097
▁Mascara	-7098
▁aerobics	-7099
▁movement	-7100
▁Conference	-7101
▁beekeeping	-7102
iu	-7103
лы	-7104
IAN	-7105
ffe	-7106
jas	-7107
▁Sep	-7108
▁nik	-7109
dling	-7110
▁Clay	-7111
▁July	-7112
▁guru	-7113
▁dirty	-7114
▁kitty	-7115
gentina	-7116
▁golden	-7117
▁taylor	-7118
▁Western	-7119
▁Presents	-7120
▁bottling	-7121
▁Geocaching	-7122
▁Snowmobile	-7123
▁performing	-7124
▁Installation	-7125
Ad	-7126
tz	-7127
án	-7128
pel	-7129
von	-7130
▁19,	-7131
▁atm	-7132
▁ras	-7133
thing	-7134
▁foam	-7135
▁haul	-7136
ration	-7137
▁Stock	-7138
▁pasta	-7139
▁austin	-7140
▁fridge	-7141
▁intern	-7142
Ethnicity	-7143
▁Hardwood	-7144
▁aluminum	-7145
▁analysis	-7146
▁marching	-7147
▁alternative	-7148
TH	-7149
bc	-7150
▁Es	-7151
neck	-7152
ober	-7153
ques	-7154
town	-7155
▁GOP	-7156
▁MMA	-7157
▁Pap	-7158
Recur	-7159
ombia	-7160
▁Nose	-7161
▁cris	-7162
ocache	-7163
scribe	-7164
▁Sauce	-7165
▁pipes	-7166
▁Friend	-7167
▁Museum	-7168
▁Richard	-7169
Celebrity	-7170
▁bagpipes	-7171
▁forecast	-7172
▁primitive	-7173
▁à	-7174
Dom	-7175
▁IP	-7176
▁ow	-7177
asse	-7178
aved	-7179
▁LOL	-7180
▁Oak	-7181
▁nic	-7182
umbai	-7183
▁2016	-7184
▁Hung	-7185
▁Pick	-7186
▁Ping	-7187
▁bean	-7188
▁burp	-7189
▁feed	-7190
▁trig	-7191
Island	-7192
outing	-7193
▁giant	-7194
▁idiot	-7195
reation	-7196
▁Bieber	-7197
▁Breast	-7198
▁Events	-7199
▁Female	-7200
▁Powder	-7201
▁kitten	-7202
▁stress	-7203
Software	-7204
Recurring	-7205
vironment	-7206
▁Interior	-7207
▁stitches	-7208
га	-7209
AIL	-7210
ebrew	-7211
itics	-7212
▁Asmr	-7213
▁Bear	-7214
▁Wire	-7215
▁Wool	-7216
▁fist	-7217
▁fred	-7218
▁jong	-7219
▁knee	-7220
▁Queen	-7221
▁thick	-7222
▁Middle	-7223
▁figure	-7224
▁korean	-7225
▁oregon	-7226
▁dumpster	-7227
▁BC	-7228
▁Kl	-7229
rows	-7230
▁CON	-7231
▁Get	-7232
achus	-7233
eland	-7234
▁Army	-7235
▁Tony	-7236
athlon	-7237
ential	-7238
oopers	-7239
▁Shots	-7240
▁relig	-7241
▁right	-7242
▁rolls	-7243
▁split	-7244
▁Boston	-7245
▁Golden	-7246
▁instal	-7247
▁defense	-7248
▁knapping	-7249
▁material	-7250
▁twisting	-7251
▁refinishing	-7252
▁:	-7253
mus	-7254
osc	-7255
sea	-7256
▁az	-7257
burn	-7258
uman	-7259
▁Han	-7260
▁Les	-7261
▁ker	-7262
color	-7263
▁crew	-7264
▁idea	-7265
▁mart	-7266
▁mind	-7267
▁плет	-7268
▁Owned	-7269
▁Tyler	-7270
▁angel	-7271
▁creek	-7272
▁frank	-7273
▁ganch	-7274
▁sneeze	-7275
▁Putting	-7276
▁wireless	-7277
▁Beginners	-7278
▁handstand	-7279
dig	-7280
don	-7281
▁Ka	-7282
▁Ko	-7283
Auth	-7284
ampa	-7285
aris	-7286
inst	-7287
▁Eth	-7288
▁bet	-7289
▁cir	-7290
▁tan	-7291
lette	-7292
▁Dire	-7293
▁Mach	-7294
▁tele	-7295
hattan	-7296
incoln	-7297
ocross	-7298
▁Mario	-7299
▁Theme	-7300
▁grape	-7301
▁korea	-7302
▁walls	-7303
▁Oyster	-7304
▁parody	-7305
▁england	-7306
▁hurling	-7307
▁Coloring	-7308
▁marketing	-7309
▁bodyweight	-7310
▁штукатурка	-7311
hs	-7312
gel	-7313
gum	-7314
udi	-7315
ури	-7316
▁ut	-7317
inda	-7318
tasy	-7319
▁07,	-7320
▁22,	-7321
▁Sad	-7322
▁eth	-7323
▁pri	-7324
icing	-7325
ipino	-7326
▁Andy	-7327
▁Eyel	-7328
▁Tile	-7329
Author	-7330
▁Breed	-7331
▁curso	-7332
esticated	-7333
▁Pakistan	-7334
▁Equestrian	-7335
HA	-7336
41,	-7337
ause	-7338
free	-7339
▁05,	-7340
▁cho	-7341
▁cos	-7342
▁tin	-7343
ierra	-7344
▁Like	-7345
▁jenn	-7346
▁2018,	-7347
▁Actor	-7348
▁Tight	-7349
▁Union	-7350
▁doors	-7351
▁enter	-7352
entucky	-7353
▁Junior	-7354
▁valent	-7355
▁Southern	-7356
▁skincare	-7357
▁Wisconsin	-7358
▁longboarding	-7359
▁Instructional	-7360
09	-7361
ар	-7362
52,	-7363
ava	-7364
yer	-7365
ario	-7366
▁06,	-7367
▁Hat	-7368
▁Sim	-7369
avers	-7370
▁Base	-7371
▁Shed	-7372
▁marc	-7373
▁shit	-7374
▁simp	-7375
▁spec	-7376
▁Trans	-7377
▁louis	-7378
Medical	-7379
reading	-7380
▁Banana	-7381
▁Provin	-7382
▁expert	-7383
achusetts	-7384
▁Straight	-7385
▁assembly	-7386
▁crafting	-7387
▁undefined	-7388
bay	-7389
▁SW	-7390
▁ni	-7391
atro	-7392
▁24,	-7393
▁vis	-7394
▁для	-7395
▁Mower	-7396
▁Slide	-7397
▁frame	-7398
▁lemon	-7399
▁patio	-7400
▁shore	-7401
▁Sledge	-7402
▁candle	-7403
▁turkey	-7404
▁effects	-7405
▁madeira	-7406
▁quality	-7407
▁Business	-7408
▁Creative	-7409
▁funniest	-7410
▁background	-7411
▁microscope	-7412
Domesticated	-7413
▁application	-7414
ões	-7415
▁ye	-7416
uela	-7417
▁Hay	-7418
▁Reb	-7419
▁cons	-7420
▁esta	-7421
utions	-7422
▁Egypt	-7423
▁Touch	-7424
▁owned	-7425
▁explos	-7426
▁handic	-7427
▁minute	-7428
▁victor	-7429
▁Beatbox	-7430
▁journal	-7431
▁mexican	-7432
▁players	-7433
▁Accident	-7434
▁handling	-7435
▁sausages	-7436
df	-7437
го	-7438
▁Б	-7439
gue	-7440
▁DV	-7441
dell	-7442
home	-7443
▁eco	-7444
▁jer	-7445
▁pom	-7446
▁rim	-7447
ctive	-7448
▁Jake	-7449
▁Marc	-7450
▁boss	-7451
▁pale	-7452
▁very	-7453
▁donut	-7454
▁price	-7455
fitness	-7456
▁africa	-7457
▁farming	-7458
▁Platform	-7459
▁Attraction	-7460
▁FR	-7461
▁ok	-7462
▁amp	-7463
ettes	-7464
▁2015	-7465
▁left	-7466
ooping	-7467
▁cheer	-7468
▁steak	-7469
▁Resort	-7470
▁attack	-7471
▁cruise	-7472
lexology	-7473
▁Opening	-7474
▁Seattle	-7475
▁athletic	-7476
▁friendly	-7477
▁activities	-7478
aps	-7479
jug	-7480
oca	-7481
vor	-7482
seil	-7483
wind	-7484
▁30,	-7485
▁Gam	-7486
▁Lau	-7487
▁Spl	-7488
▁Tab	-7489
▁age	-7490
▁при	-7491
eline	-7492
ograf	-7493
vania	-7494
▁slip	-7495
▁town	-7496
boards	-7497
▁rocks	-7498
▁solve	-7499
▁Awards	-7500
▁Perfor	-7501
▁domino	-7502
▁rubber	-7503
▁tissue	-7504
▁fighter	-7505
Character	-7506
▁scissors	-7507
▁accessories	-7508
vd	-7509
iza	-7510
omi	-7511
phy	-7512
▁Ry	-7513
▁сп	-7514
ways	-7515
▁08,	-7516
▁Ell	-7517
▁Fix	-7518
▁Pink	-7519
▁Spin	-7520
▁Town	-7521
▁loud	-7522
▁mall	-7523
▁pine	-7524
▁soul	-7525
ipline	-7526
▁Cruise	-7527
▁Public	-7528
▁inform	-7529
▁popular	-7530
▁theatre	-7531
▁weights	-7532
▁Flooring	-7533
▁students	-7534
▁singapore	-7535
▁philippines	-7536
75,	-7537
nce	-7538
rec	-7539
▁Fu	-7540
ergy	-7541
izen	-7542
▁Rog	-7543
▁avi	-7544
elson	-7545
▁Tech	-7546
▁carn	-7547
▁lung	-7548
▁mill	-7549
▁pier	-7550
▁poke	-7551
▁крас	-7552
terior	-7553
▁Earth	-7554
▁Smoke	-7555
▁comic	-7556
▁plans	-7557
▁retro	-7558
▁today	-7559
▁Purple	-7560
▁Slalom	-7561
▁Toyota	-7562
▁Android	-7563
▁Percussion	-7564
Ar	-7565
UG	-7566
anne	-7567
baby	-7568
bble	-7569
irts	-7570
ools	-7571
▁198	-7572
▁Law	-7573
▁ric	-7574
ances	-7575
piece	-7576
▁Rest	-7577
▁Room	-7578
uzzles	-7579
▁Death	-7580
▁Merry	-7581
▁trash	-7582
▁Arcade	-7583
▁comple	-7584
▁Improve	-7585
▁Student	-7586
▁Scottish	-7587
▁Minnesota	-7588
kg	-7589
жи	-7590
те	-7591
bin	-7592
▁bi	-7593
▁dc	-7594
anas	-7595
izon	-7596
▁360	-7597
▁Hor	-7598
▁Pep	-7599
▁Raw	-7600
▁mak	-7601
▁Dirt	-7602
▁Anime	-7603
▁chick	-7604
▁enjoy	-7605
▁gener	-7606
▁miami	-7607
▁Blower	-7608
▁Dublin	-7609
▁Frying	-7610
▁cancer	-7611
▁therap	-7612
ological	-7613
▁receita	-7614
▁ceramics	-7615
▁youtuber	-7616
eg	-7617
47,	-7618
dry	-7619
▁Ta	-7620
▁Wa	-7621
▁YO	-7622
BALL	-7623
dent	-7624
ears	-7625
olas	-7626
vate	-7627
with	-7628
▁Dun	-7629
▁McC	-7630
▁ger	-7631
▁nba	-7632
▁sac	-7633
▁syn	-7634
ctors	-7635
worth	-7636
▁pond	-7637
▁reel	-7638
▁knuck	-7639
▁shows	-7640
ancakes	-7641
ropical	-7642
▁bounce	-7643
▁pepper	-7644
▁Matthew	-7645
▁angeles	-7646
▁Badminton	-7647
▁extensions	-7648
▁Calligraphy	-7649
▁bodysurfing	-7650
37,	-7651
kle	-7652
oro	-7653
▁FI	-7654
heat	-7655
▁yog	-7656
▁тан	-7657
adise	-7658
ateur	-7659
▁Bowl	-7660
▁Clip	-7661
▁Cork	-7662
▁Five	-7663
▁lick	-7664
▁Vegan	-7665
▁latin	-7666
▁screw	-7667
▁tours	-7668
▁Period	-7669
▁Season	-7670
▁rescue	-7671
▁Crossfit	-7672
▁contortion	-7673
agu	-7674
bas	-7675
mic	-7676
rod	-7677
▁EM	-7678
merg	-7679
▁Pir	-7680
▁Pun	-7681
▁att	-7682
Event	-7683
paint	-7684
▁clos	-7685
▁hung	-7686
▁Point	-7687
▁Dancer	-7688
▁boston	-7689
▁medium	-7690
▁shower	-7691
▁stilts	-7692
▁united	-7693
▁netball	-7694
▁shampoo	-7695
▁Deadlift	-7696
▁activity	-7697
▁backpack	-7698
▁clapping	-7699
▁melbourne	-7700
▁Stretching	-7701
LA	-7702
aze	-7703
rar	-7704
sch	-7705
▁lu	-7706
ffle	-7707
iang	-7708
vada	-7709
▁Lay	-7710
▁Boot	-7711
▁Cell	-7712
▁know	-7713
▁rick	-7714
▁safe	-7715
▁viny	-7716
▁Pitch	-7717
▁Range	-7718
▁quest	-7719
▁Lights	-7720
▁leaves	-7721
▁Traffic	-7722
▁Village	-7723
▁android	-7724
▁recorder	-7725
▁finishing	-7726
nia	-7727
▁Os	-7728
▁SD	-7729
▁ev	-7730
cent	-7731
oken	-7732
omet	-7733
rell	-7734
▁NBA	-7735
▁Pla	-7736
berta	-7737
izard	-7738
ntown	-7739
▁Buck	-7740
▁moto	-7741
▁sari	-7742
▁Heart	-7743
▁hills	-7744
▁cement	-7745
▁madera	-7746
▁juggler	-7747
▁assemble	-7748
▁Treatment	-7749
▁bollywood	-7750
▁federation	-7751
▁landscaping	-7752
ño	-7753
95,	-7754
ures	-7755
▁Eat	-7756
▁lin	-7757
▁Brad	-7758
▁Fest	-7759
▁Jugg	-7760
▁bald	-7761
▁styl	-7762
aphone	-7763
▁sunny	-7764
▁swiss	-7765
▁Moving	-7766
▁SloPro	-7767
▁martin	-7768
▁lighting	-7769
▁musician	-7770
▁Slackline	-7771
▁מ	-7772
aui	-7773
rue	-7774
bers	-7775
lena	-7776
▁Gab	-7777
▁ace	-7778
▁rip	-7779
itzer	-7780
▁Legs	-7781
▁Pets	-7782
▁Sean	-7783
▁batt	-7784
▁soda	-7785
ersion	-7786
▁DANCE	-7787
▁Local	-7788
▁Sarah	-7789
angouts	-7790
▁canyon	-7791
▁Pilates	-7792
▁dubstep	-7793
▁styling	-7794
▁celebrity	-7795
▁performer	-7796
▁Flashlight	-7797
▁development	-7798
ем	-7799
33,	-7800
36,	-7801
57,	-7802
69,	-7803
iar	-7804
udo	-7805
won	-7806
100,	-7807
oots	-7808
▁pne	-7809
▁spr	-7810
aukee	-7811
▁Chip	-7812
▁bags	-7813
▁chem	-7814
▁http	-7815
▁unic	-7816
amaica	-7817
▁Award	-7818
▁Block	-7819
▁Dubai	-7820
walking	-7821
▁Athlet	-7822
▁Dallas	-7823
▁drinks	-7824
▁junior	-7825
▁singer	-7826
▁Germany	-7827
▁Morning	-7828
▁scrabble	-7829
!!,	-7830
77,	-7831
jar	-7832
oyd	-7833
▁GR	-7834
▁rh	-7835
▁ре	-7836
Tour	-7837
erve	-7838
izab	-7839
osch	-7840
▁dob	-7841
pherd	-7842
▁Utah	-7843
▁gall	-7844
▁mail	-7845
▁spar	-7846
derson	-7847
isbane	-7848
▁Angel	-7849
▁boobs	-7850
▁receta	-7851
▁Charity	-7852
▁Writing	-7853
▁monster	-7854
▁pouring	-7855
▁progress	-7856
▁wildlife	-7857
▁Caribbean	-7858
▁champagne	-7859
VE	-7860
42,	-7861
51,	-7862
уда	-7863
▁40	-7864
▁EX	-7865
avor	-7866
idal	-7867
▁03,	-7868
▁Bri	-7869
▁PAR	-7870
▁jig	-7871
iesta	-7872
▁Folk	-7873
▁list	-7874
▁read	-7875
▁whit	-7876
▁Champ	-7877
▁Small	-7878
▁Senior	-7879
▁tricep	-7880
▁bobsled	-7881
▁eyelashes	-7882
ée	-7883
71,	-7884
92,	-7885
irk	-7886
ply	-7887
rus	-7888
tis	-7889
iest	-7890
▁see	-7891
force	-7892
▁What	-7893
▁desc	-7894
▁wolf	-7895
▁Arrow	-7896
▁Every	-7897
▁italy	-7898
istance	-7899
▁Helmet	-7900
▁passing	-7901
▁Fighting	-7902
▁Pressure	-7903
▁Province	-7904
▁headbutt	-7905
▁xylophone	-7906
ты	-7907
'',	-7908
61,	-7909
pop	-7910
rub	-7911
www	-7912
▁HE	-7913
▁Lu	-7914
▁са	-7915
agan	-7916
▁fle	-7917
▁mul	-7918
adora	-7919
album	-7920
eback	-7921
▁1080	-7922
▁Toys	-7923
▁Wolf	-7924
▁ades	-7925
▁resp	-7926
▁Gener	-7927
▁malab	-7928
▁patch	-7929
▁times	-7930
blowing	-7931
quality	-7932
▁Course	-7933
▁Forest	-7934
▁pastry	-7935
▁Diamond	-7936
▁Pancake	-7937
▁Monopoly	-7938
▁Northern	-7939
▁backstroke	-7940
▁Cheerleading	-7941
DM	-7942
▁Р	-7943
49,	-7944
93,	-7945
99,	-7946
ged	-7947
obo	-7948
ров	-7949
▁во	-7950
anka	-7951
▁Rom	-7952
▁Tex	-7953
▁bru	-7954
▁bry	-7955
▁dem	-7956
▁dip	-7957
▁gil	-7958
▁ple	-7959
Dance	-7960
ipped	-7961
▁Buff	-7962
▁Coun	-7963
▁adam	-7964
▁andy	-7965
▁rena	-7966
▁After	-7967
▁Steam	-7968
▁dubai	-7969
▁paris	-7970
▁yummy	-7971
▁Digital	-7972
▁comment	-7973
▁dolphin	-7974
▁pakistan	-7975
▁productions	-7976
IB	-7977
nc	-7978
azy	-7979
tec	-7980
▁CN	-7981
▁OF	-7982
club	-7983
pain	-7984
test	-7985
▁Mus	-7986
▁NEW	-7987
▁aff	-7988
▁did	-7989
▁lan	-7990
▁toe	-7991
chich	-7992
orter	-7993
▁Kung	-7994
▁Rena	-7995
▁mine	-7996
▁wake	-7997
▁Hotel	-7998
▁Place	-7999
▁creat	-8000
▁torch	-8001
Composer	-8002
▁Removal	-8003
▁digging	-8004
▁village	-8005
▁crawling	-8006
▁Vegetarian	-8007
oco	-8008
▁gi	-8009
apon	-8010
elig	-8011
loss	-8012
▁now	-8013
▁pon	-8014
heads	-8015
uddle	-8016
▁Cost	-8017
▁Mule	-8018
▁buzz	-8019
▁zero	-8020
▁voice	-8021
ylvania	-8022
▁Israel	-8023
▁Snatch	-8024
▁couple	-8025
▁wonder	-8026
▁Samsung	-8027
▁Columbia	-8028
▁everyday	-8029
▁grilling	-8030
▁security	-8031
▁Productions	-8032
▁instruments	-8033
hr	-8034
81,	-8035
ONE	-8036
fan	-8037
fun	-8038
▁fá	-8039
▁ou	-8040
lide	-8041
phia	-8042
▁001	-8043
▁FOR	-8044
▁bmw	-8045
▁jac	-8046
grima	-8047
iesel	-8048
reece	-8049
▁Bell	-8050
▁Brew	-8051
▁Salt	-8052
▁sour	-8053
▁weed	-8054
angers	-8055
apolis	-8056
▁Daily	-8057
▁boats	-8058
▁brook	-8059
▁whole	-8060
▁lumber	-8061
▁stones	-8062
▁theater	-8063
▁barbeque	-8064
▁flipping	-8065
▁casamento	-8066
▁sandblasting	-8067
uy	-8068
iat	-8069
▁IR	-8070
▁IS	-8071
Book	-8072
away	-8073
bull	-8074
isha	-8075
tech	-8076
yson	-8077
▁04,	-8078
▁SDC	-8079
itage	-8080
orkel	-8081
▁Penn	-8082
▁deer	-8083
▁last	-8084
▁stom	-8085
orcion	-8086
utches	-8087
▁Years	-8088
▁acting	-8089
▁arrest	-8090
▁pocket	-8091
▁sander	-8092
▁mukbang	-8093
▁Oklahoma	-8094
▁Trimming	-8095
▁headbanging	-8096
cs	-8097
53,	-8098
ahu	-8099
uga	-8100
▁ky	-8101
aple	-8102
▁Aug	-8103
▁Der	-8104
▁cry	-8105
▁hon	-8106
dress	-8107
gling	-8108
ounge	-8109
▁More	-8110
▁Turn	-8111
▁keep	-8112
▁pige	-8113
▁tone	-8114
▁twin	-8115
inness	-8116
▁Ninja	-8117
▁flips	-8118
▁Effect	-8119
▁bikini	-8120
▁Reviews	-8121
▁blogger	-8122
▁vehicle	-8123
formation	-8124
▁pictures	-8125
▁scotland	-8126
▁vlogging	-8127
▁Meditation	-8128
▁lockpicking	-8129
OB	-8130
kh	-8131
wh	-8132
้า	-8133
ASH	-8134
IST	-8135
pos	-8136
▁Hi	-8137
cion	-8138
deon	-8139
fest	-8140
tawa	-8141
▁flo	-8142
▁pel	-8143
▁tam	-8144
tasia	-8145
▁BASE	-8146
▁Cafe	-8147
▁Hoop	-8148
▁Rece	-8149
▁tony	-8150
▁Scrap	-8151
▁multi	-8152
▁sling	-8153
uetooth	-8154
▁asthma	-8155
▁george	-8156
▁nation	-8157
▁Triceps	-8158
▁Punching	-8159
▁electronic	-8160
▁kickboxing	-8161
ONG	-8162
oos	-8163
urb	-8164
▁ру	-8165
ablo	-8166
ould	-8167
uana	-8168
ults	-8169
▁Nep	-8170
insaw	-8171
▁fake	-8172
▁iPad	-8173
▁plat	-8174
▁slam	-8175
▁Chair	-8176
▁Lapse	-8177
▁Taste	-8178
▁chase	-8179
▁cough	-8180
▁force	-8181
▁behind	-8182
▁copper	-8183
▁marine	-8184
▁tickle	-8185
mergency	-8186
▁African	-8187
▁Brother	-8188
▁Canadian	-8189
▁cleaners	-8190
▁dolphins	-8191
▁prospecting	-8192
fo	-8193
nor	-8194
pan	-8195
ños	-8196
▁&,	-8197
ivia	-8198
rich	-8199
tant	-8200
▁Ent	-8201
antom	-8202
leans	-8203
shirt	-8204
▁Greg	-8205
▁Haha	-8206
▁chan	-8207
▁chin	-8208
▁ford	-8209
▁jeff	-8210
minist	-8211
planes	-8212
ugging	-8213
▁Grape	-8214
▁Store	-8215
▁Infant	-8216
▁splash	-8217
allowing	-8218
▁Memphis	-8219
▁Orlando	-8220
▁Highlights	-8221
▁reenactment	-8222
acy	-8223
rik	-8224
blog	-8225
ners	-8226
▁aug	-8227
lotte	-8228
▁002,	-8229
▁Crew	-8230
▁Dumb	-8231
▁Shin	-8232
▁cows	-8233
▁trap	-8234
waukee	-8235
▁Plane	-8236
▁Tread	-8237
▁cable	-8238
▁daddy	-8239
▁Market	-8240
▁Second	-8241
▁gentle	-8242
adelphia	-8243
▁Anthony	-8244
▁Parkour	-8245
▁Teacher	-8246
▁Original	-8247
▁spraying	-8248
▁Dribbling	-8249
▁Tennessee	-8250
eto	-8251
ить	-8252
date	-8253
uary	-8254
▁Bus	-8255
▁mig	-8256
idade	-8257
stein	-8258
▁Asia	-8259
▁Flor	-8260
▁Hunt	-8261
▁vari	-8262
avideo	-8263
labama	-8264
orical	-8265
удаури	-8266
▁Aaron	-8267
▁costa	-8268
Tourist	-8269
▁cutter	-8270
▁instru	-8271
▁monkey	-8272
▁rental	-8273
▁Coconut	-8274
▁Brushing	-8275
▁Magazine	-8276
▁kayaking	-8277
▁williams	-8278
▁sculpting	-8279
▁preparation	-8280
▁improvisation	-8281
▁.	-8282
▁Т	-8283
▁ر	-8284
ック	-8285
iko	-8286
ulu	-8287
ças	-8288
ски	-8289
▁CC	-8290
body	-8291
wick	-8292
▁Ric	-8293
▁Tam	-8294
▁nig	-8295
▁tej	-8296
▁Bott	-8297
▁asia	-8298
▁seal	-8299
▁lunge	-8300
▁Session	-8301
▁bandage	-8302
▁costume	-8303
▁release	-8304
ipulation	-8305
▁Clothing	-8306
▁Recorder	-8307
▁bodysurf	-8308
▁conference	-8309
▁woodcarving	-8310
▁sledgehammer	-8311
-,	-8312
▁ت	-8313
bit	-8314
▁tu	-8315
amba	-8316
▁Gum	-8317
▁PIC	-8318
▁COUN	-8319
▁Dive	-8320
▁Fine	-8321
▁Hack	-8322
▁Hong	-8323
▁ribb	-8324
ippers	-8325
oodles	-8326
▁corre	-8327
mentary	-8328
owntown	-8329
▁Miller	-8330
▁Hitting	-8331
▁wearing	-8332
▁Piercing	-8333
▁Services	-8334
▁Tumbling	-8335
▁Wrapping	-8336
▁vertical	-8337
▁Blackjack	-8338
▁definition	-8339
▁ス	-8340
aja	-8341
▁bh	-8342
ivan	-8343
▁Jog	-8344
▁MON	-8345
▁Mic	-8346
▁cob	-8347
▁coz	-8348
▁saf	-8349
▁vel	-8350
▁why	-8351
ebast	-8352
glass	-8353
icles	-8354
▁Cord	-8355
▁Mart	-8356
▁Snee	-8357
▁Stan	-8358
▁euro	-8359
▁ways	-8360
arette	-8361
▁Match	-8362
izabeth	-8363
▁YouCam	-8364
▁circle	-8365
▁spider	-8366
▁Russian	-8367
▁William	-8368
▁artesan	-8369
▁Campfire	-8370
▁Macarena	-8371
▁Portland	-8372
▁Victoria	-8373
▁macarena	-8374
▁steering	-8375
▁Socialcam	-8376
▁Renaissance	-8377
ги	-8378
48,	-8379
56,	-8380
IAL	-8381
aly	-8382
oso	-8383
▁па	-8384
ails	-8385
ases	-8386
char	-8387
eman	-8388
kish	-8389
▁Abs	-8390
▁Oct	-8391
▁lux	-8392
entry	-8393
ician	-8394
raine	-8395
▁Lady	-8396
▁eric	-8397
▁loop	-8398
unking	-8399
▁Force	-8400
▁Kitty	-8401
▁clown	-8402
▁peace	-8403
▁canvas	-8404
▁chords	-8405
▁create	-8406
▁father	-8407
▁salmon	-8408
▁tackle	-8409
▁Houston	-8410
▁boating	-8411
▁docking	-8412
▁orlando	-8413
▁perform	-8414
▁western	-8415
▁aprender	-8416
▁monopoly	-8417
▁woodwork	-8418
Occupation	-8419
▁Francisco	-8420
▁cheerleading	-8421
ба	-8422
”,	-8423
▁А	-8424
▁з	-8425
59,	-8426
eer	-8427
erts	-8428
game	-8429
inds	-8430
oque	-8431
rior	-8432
▁Abr	-8433
▁MUS	-8434
▁bmx	-8435
▁bun	-8436
▁pay	-8437
▁rio	-8438
batic	-8439
illar	-8440
proof	-8441
▁Fist	-8442
▁Musc	-8443
▁Wave	-8444
▁tall	-8445
▁utah	-8446
▁Books	-8447
▁Kelly	-8448
▁Plays	-8449
▁Roast	-8450
▁audio	-8451
▁bacon	-8452
▁stars	-8453
▁wrong	-8454
▁bouncy	-8455
▁felted	-8456
▁unique	-8457
▁Phoenix	-8458
▁Vintage	-8459
▁experim	-8460
▁flexible	-8461
▁Orchestra	-8462
▁management	-8463
DI	-8464
43,	-8465
ths	-8466
▁gy	-8467
boro	-8468
gets	-8469
▁AND	-8470
▁Fur	-8471
▁Rio	-8472
▁Sil	-8473
▁gro	-8474
▁tog	-8475
depen	-8476
issan	-8477
layer	-8478
mower	-8479
plate	-8480
shine	-8481
▁Wars	-8482
▁eats	-8483
▁fans	-8484
▁poly	-8485
▁joint	-8486
▁naked	-8487
▁Chirop	-8488
▁Combat	-8489
▁boards	-8490
▁sharks	-8491
▁trucks	-8492
orcycles	-8493
vivavideo	-8494
▁mountains	-8495
▁inspiration	-8496
ols	-8497
▁''	-8498
▁AB	-8499
dela	-8500
nold	-8501
onia	-8502
reck	-8503
vens	-8504
▁VTS	-8505
▁cod	-8506
▁rid	-8507
atory	-8508
cular	-8509
▁Fred	-8510
▁Kyle	-8511
▁bron	-8512
▁deal	-8513
▁luge	-8514
▁pike	-8515
▁rabb	-8516
▁spot	-8517
laying	-8518
ushing	-8519
▁Daddy	-8520
▁Jones	-8521
▁Stunt	-8522
▁jacks	-8523
▁knock	-8524
▁musta	-8525
ercraft	-8526
omotive	-8527
▁bottom	-8528
▁centre	-8529
▁laughs	-8530
▁acrobat	-8531
▁busking	-8532
▁gymnast	-8533
▁Shuffling	-8534
▁ganchillo	-8535
▁Discipline	-8536
72,	-8537
78,	-8538
rit	-8539
▁Ga	-8540
aval	-8541
▁gor	-8542
▁tig	-8543
aiste	-8544
amboo	-8545
athon	-8546
▁Quad	-8547
▁Tack	-8548
▁espa	-8549
▁reef	-8550
▁smok	-8551
▁yawn	-8552
ensive	-8553
▁Comic	-8554
▁Gator	-8555
▁Harry	-8556
▁March	-8557
▁spoon	-8558
sailing	-8559
▁Stroke	-8560
▁Wrench	-8561
▁conser	-8562
▁Clothes	-8563
▁Patrick	-8564
▁jogging	-8565
▁windsor	-8566
▁culinary	-8567
ju	-8568
▁х	-8569
▁Ho	-8570
edar	-8571
▁Lin	-8572
▁hay	-8573
▁kal	-8574
▁tal	-8575
▁Bank	-8576
▁Nice	-8577
▁cach	-8578
▁duck	-8579
▁rust	-8580
mental	-8581
▁Cheer	-8582
▁Impro	-8583
▁about	-8584
▁danse	-8585
▁jokes	-8586
actical	-8587
Mountain	-8588
ifferent	-8589
▁crashes	-8590
▁express	-8591
▁samsung	-8592
▁disabled	-8593
▁snowball	-8594
▁horseshoe	-8595
▁scrapbook	-8596
▁Documentary	-8597
▁Improvement	-8598
EI	-8599
46,	-8600
dem	-8601
▁Pa	-8602
list	-8603
oore	-8604
uffy	-8605
▁Joy	-8606
▁caf	-8607
▁fis	-8608
point	-8609
▁Expl	-8610
▁Joke	-8611
▁Luke	-8612
▁alto	-8613
▁area	-8614
▁fuck	-8615
ctions	-8616
idades	-8617
ustria	-8618
▁Snake	-8619
▁brian	-8620
▁gross	-8621
▁lindy	-8622
manship	-8623
ription	-8624
▁Celebr	-8625
▁Centre	-8626
▁bowtie	-8627
▁stairs	-8628
▁Edition	-8629
▁Netball	-8630
▁maracas	-8631
▁tingles	-8632
▁European	-8633
▁Position	-8634
▁kickball	-8635
▁Traditional	-8636
▁refrigerator	-8637
до	-8638
76,	-8639
ILE	-8640
enz	-8641
ibe	-8642
ynn	-8643
▁AF	-8644
▁má	-8645
maid	-8646
▁50,	-8647
▁Gay	-8648
▁MAR	-8649
▁NAS	-8650
▁NHL	-8651
▁Psy	-8652
▁Raz	-8653
▁dia	-8654
▁gan	-8655
▁Lion	-8656
rative	-8657
▁Foods	-8658
▁Roman	-8659
▁Saint	-8660
▁ensal	-8661
histler	-8662
▁busker	-8663
▁dancers	-8664
▁surprise	-8665
▁Polishing	-8666
▁Spaghetti	-8667
▁accidents	-8668
▁straightener	-8669
nn	-8670
▁В	-8671
▁Д	-8672
67,	-8673
TRY	-8674
▁ME	-8675
▁MI	-8676
▁if	-8677
▁об	-8678
TING	-8679
abet	-8680
eron	-8681
onic	-8682
zech	-8683
ения	-8684
▁Inn	-8685
▁Pul	-8686
▁kon	-8687
▁sha	-8688
▁про	-8689
idden	-8690
renal	-8691
rison	-8692
▁Camb	-8693
▁Chan	-8694
▁Pier	-8695
▁Post	-8696
▁days	-8697
▁gone	-8698
▁kill	-8699
▁link	-8700
▁tits	-8701
▁Bodys	-8702
▁Radio	-8703
▁album	-8704
▁delhi	-8705
▁rules	-8706
▁snack	-8707
oveling	-8708
ultural	-8709
▁Yellow	-8710
sylvania	-8711
▁harvest	-8712
▁Medicine	-8713
▁Hollywood	-8714
oa	-8715
ör	-8716
38,	-8717
63,	-8718
gow	-8719
▁Jr	-8720
Chem	-8721
ahoe	-8722
duce	-8723
▁Deb	-8724
▁Ham	-8725
▁ell	-8726
ingle	-8727
▁Holy	-8728
▁Prim	-8729
▁dude	-8730
▁glue	-8731
deling	-8732
▁Twins	-8733
▁doing	-8734
▁dutch	-8735
▁freak	-8736
▁arabic	-8737
▁flight	-8738
▁hotdog	-8739
Chemical	-8740
▁chewing	-8741
▁hurdles	-8742
▁ripping	-8743
▁Drinking	-8744
▁bloopers	-8745
▁cordless	-8746
▁facebook	-8747
▁virginia	-8748
▁Mountains	-8749
▁ب	-8750
▁ส	-8751
09,	-8752
89,	-8753
ebo	-8754
mac	-8755
▁га	-8756
olic	-8757
▁fot	-8758
aders	-8759
akota	-8760
state	-8761
▁GOPR	-8762
▁Mill	-8763
▁anti	-8764
▁duty	-8765
▁Mount	-8766
▁Songs	-8767
▁bands	-8768
▁ranch	-8769
▁spark	-8770
▁while	-8771
▁Harley	-8772
▁Marine	-8773
▁Modern	-8774
▁shisha	-8775
▁Bobsled	-8776
▁Calgary	-8777
▁seconds	-8778
▁through	-8779
itzerland	-8780
▁sledding	-8781
▁tickling	-8782
▁together	-8783
CA	-8784
atu	-8785
bro	-8786
esc	-8787
rah	-8788
▁Om	-8789
▁SO	-8790
▁ay	-8791
▁от	-8792
Diet	-8793
arta	-8794
ichi	-8795
iste	-8796
▁Mod	-8797
▁Mun	-8798
▁Nar	-8799
▁Ret	-8800
▁Ron	-8801
▁Tok	-8802
▁Wor	-8803
▁bit	-8804
ified	-8805
track	-8806
▁003,	-8807
▁Glen	-8808
▁chap	-8809
▁chat	-8810
▁happ	-8811
alleng	-8812
▁Deere	-8813
▁Demon	-8814
▁Obama	-8815
▁crawl	-8816
▁remix	-8817
▁stove	-8818
▁Hunter	-8819
▁Pillow	-8820
▁Footage	-8821
▁Quality	-8822
▁Blasting	-8823
▁Illinois	-8824
▁Republic	-8825
▁princess	-8826
▁straighten	-8827
▁marshmallow	-8828
Me	-8829
si	-8830
▁ч	-8831
IVE	-8832
gun	-8833
tam	-8834
нес	-8835
anut	-8836
boys	-8837
undo	-8838
▁23,	-8839
▁Diy	-8840
▁Gil	-8841
▁abc	-8842
▁sav	-8843
▁Dark	-8844
▁Simon	-8845
▁engra	-8846
▁noise	-8847
▁Indust	-8848
▁dallas	-8849
▁famous	-8850
▁potter	-8851
▁resort	-8852
▁edition	-8853
▁masonry	-8854
▁newborn	-8855
▁salchich	-8856
▁Automatic	-8857
▁protection	-8858
kk	-8859
▁ع	-8860
84,	-8861
hal	-8862
lins	-8863
sica	-8864
then	-8865
▁Job	-8866
▁gem	-8867
ATION	-8868
akeup	-8869
▁Barn	-8870
▁Jenn	-8871
▁Site	-8872
▁toes	-8873
▁April	-8874
▁Birds	-8875
▁Elite	-8876
▁Spain	-8877
▁Story	-8878
▁court	-8879
▁drama	-8880
▁handsp	-8881
▁sister	-8882
▁Burning	-8883
▁carolina	-8884
▁manicure	-8885
▁плетение	-8886
▁Woodworking	-8887
vs	-8888
98,	-8889
bul	-8890
▁80	-8891
▁cy	-8892
▁rc	-8893
▁за	-8894
0001	-8895
▁Emp	-8896
▁Kal	-8897
▁Meg	-8898
▁din	-8899
imber	-8900
maker	-8901
media	-8902
▁Coin	-8903
▁Corp	-8904
erries	-8905
▁Mason	-8906
▁Stain	-8907
▁roses	-8908
edience	-8909
▁chisel	-8910
▁fusion	-8911
▁switch	-8912
▁factory	-8913
▁shaking	-8914
▁zealand	-8915
▁Brothers	-8916
▁distance	-8917
▁photograph	-8918
CO	-8919
ди	-8920
▁ア	-8921
39,	-8922
87,	-8923
94,	-8924
ATE	-8925
ORT	-8926
aix	-8927
iri	-8928
ssa	-8929
▁Ot	-8930
▁ml	-8931
▁вя	-8932
athy	-8933
ires	-8934
▁Def	-8935
▁sin	-8936
▁veg	-8937
anges	-8938
encia	-8939
▁Bern	-8940
▁Caps	-8941
▁Clam	-8942
▁Well	-8943
▁edit	-8944
▁nurs	-8945
arella	-8946
imento	-8947
keeper	-8948
timore	-8949
▁Chase	-8950
▁cycle	-8951
▁spicy	-8952
▁Insane	-8953
▁bricks	-8954
▁Getting	-8955
▁desenho	-8956
▁pokemon	-8957
▁protein	-8958
▁puppies	-8959
▁Wheelchair	-8960
вы	-8961
83,	-8962
86,	-8963
91,	-8964
YLE	-8965
iev	-8966
▁CP	-8967
▁LE	-8968
▁Ti	-8969
icia	-8970
lett	-8971
surf	-8972
tect	-8973
▁NFL	-8974
▁agu	-8975
▁cau	-8976
▁rom	-8977
ieval	-8978
meric	-8979
ungle	-8980
▁Bron	-8981
▁Lamb	-8982
▁Take	-8983
▁alph	-8984
▁meet	-8985
▁ship	-8986
▁vase	-8987
▁Braid	-8988
▁Davis	-8989
▁Lunge	-8990
▁award	-8991
▁brain	-8992
▁broad	-8993
▁darts	-8994
writing	-8995
▁Kansas	-8996
▁Toilet	-8997
▁biceps	-8998
▁cosmet	-8999
▁shrimp	-9000
▁tiling	-9001
▁walker	-9002
obsleigh	-9003
▁calming	-9004
▁Circular	-9005
▁Coaching	-9006
▁Musician	-9007
▁swinging	-9008
▁tightrope	-9009
▁Mechanical	-9010
▁ingredient	-9011
▁Organization	-9012
UD	-9013
54,	-9014
dye	-9015
iwi	-9016
kar	-9017
digy	-9018
edom	-9019
elab	-9020
face	-9021
viet	-9022
▁25,	-9023
▁Cho	-9024
▁ESP	-9025
▁Obo	-9026
▁ceb	-9027
▁lag	-9028
ormon	-9029
▁Link	-9030
▁Loud	-9031
▁Mick	-9032
▁camb	-9033
▁coat	-9034
▁goth	-9035
▁ties	-9036
▁vene	-9037
antrum	-9038
▁20100	-9039
▁Trees	-9040
▁краси	-9041
▁Gaming	-9042
▁gluten	-9043
▁kicker	-9044
quetball	-9045
▁antique	-9046
▁Function	-9047
▁earrings	-9048
▁puncture	-9049
▁restaurants	-9050
Ind	-9051
dri	-9052
ulf	-9053
▁NJ	-9054
!!!,	-9055
cake	-9056
riff	-9057
▁Ker	-9058
▁POL	-9059
▁Set	-9060
▁TRA	-9061
▁opt	-9062
2012,	-9063
amber	-9064
ewart	-9065
obomb	-9066
oming	-9067
ronom	-9068
▁HAIR	-9069
▁Pork	-9070
▁Slap	-9071
▁Spec	-9072
▁bach	-9073
▁must	-9074
▁plus	-9075
▁ster	-9076
▁Excav	-9077
▁Shave	-9078
▁Sugar	-9079
▁Three	-9080
▁dairy	-9081
▁obama	-9082
▁treat	-9083
wearing	-9084
▁Turkey	-9085
▁active	-9086
ermanent	-9087
▁Setting	-9088
▁daughter	-9089
▁blueberry	-9090
zi	-9091
ان	-9092
96,	-9093
97,	-9094
Eye	-9095
adi	-9096
ajo	-9097
lia	-9098
oba	-9099
▁Rh	-9100
▁WA	-9101
▁но	-9102
Word	-9103
anja	-9104
erie	-9105
ibre	-9106
▁Mak	-9107
▁rig	-9108
ategy	-9109
inema	-9110
ource	-9111
tingu	-9112
▁Boss	-9113
▁Pear	-9114
▁come	-9115
▁flag	-9116
▁geek	-9117
▁pure	-9118
string	-9119
▁FUNNY	-9120
▁Latte	-9121
▁Urban	-9122
▁fancy	-9123
▁parap	-9124
▁Rachel	-9125
▁Suzuki	-9126
orseback	-9127
▁Charlie	-9128
▁impress	-9129
▁Homemade	-9130
▁automobile	-9131
ministrative	-9132
▁flintknapping	-9133
кс	-9134
62,	-9135
ICO	-9136
aje	-9137
irm	-9138
isf	-9139
▁9,	-9140
▁Ly	-9141
unes	-9142
▁Avi	-9143
▁Ess	-9144
▁His	-9145
ounds	-9146
▁Comb	-9147
▁limp	-9148
cember	-9149
▁2006,	-9150
▁appla	-9151
▁brass	-9152
▁study	-9153
▁sweep	-9154
▁Nathan	-9155
▁movers	-9156
▁onions	-9157
▁COUNTRY	-9158
▁Dolphin	-9159
▁Garbage	-9160
▁Piccolo	-9161
▁Vietnam	-9162
▁arizona	-9163
▁mahjong	-9164
▁ontario	-9165
▁Downhill	-9166
▁designer	-9167
▁northern	-9168
Automotive	-9169
▁francisco	-9170
▁waterfall	-9171
IK	-9172
kd	-9173
าร	-9174
ICA	-9175
▁aj	-9176
amon	-9177
▁Sac	-9178
▁arc	-9179
▁dos	-9180
arder	-9181
icker	-9182
▁Noob	-9183
▁grap	-9184
▁yolk	-9185
Muscle	-9186
▁Mixed	-9187
▁Shoot	-9188
▁chees	-9189
▁rehab	-9190
ginning	-9191
tsburgh	-9192
▁Cardio	-9193
▁Single	-9194
elunking	-9195
▁Fingers	-9196
▁journey	-9197
▁Concerto	-9198
▁Malaysia	-9199
▁concealer	-9200
▁mechanics	-9201
▁renaissance	-9202
▁Instrumental	-9203
MO	-9204
imi	-9205
▁ts	-9206
heim	-9207
▁Cha	-9208
▁Pri	-9209
▁Sav	-9210
▁kra	-9211
▁ori	-9212
emony	-9213
night	-9214
▁Atta	-9215
▁gain	-9216
▁punk	-9217
▁shel	-9218
▁benef	-9219
▁parts	-9220
▁pearl	-9221
▁total	-9222
▁before	-9223
▁celtic	-9224
▁tomato	-9225
▁Laundry	-9226
▁criança	-9227
▁johnson	-9228
▁pushing	-9229
▁gambling	-9230
▁homeschool	-9231
SH	-9232
cz	-9233
ço	-9234
58,	-9235
VER	-9236
▁LG	-9237
aged	-9238
aman	-9239
fort	-9240
▁40,	-9241
▁Lem	-9242
▁bbc	-9243
▁lac	-9244
▁sel	-9245
conom	-9246
dence	-9247
▁Insp	-9248
▁SANY	-9249
▁ramp	-9250
onalds	-9251
▁Hills	-9252
▁major	-9253
▁waste	-9254
▁Korean	-9255
▁cattle	-9256
▁doctor	-9257
idential	-9258
▁Brandon	-9259
▁Theater	-9260
▁brewing	-9261
▁gravity	-9262
▁whistle	-9263
▁Athletic	-9264
▁athletes	-9265
▁magician	-9266
▁southern	-9267
▁Abseiling	-9268
▁stainless	-9269
▁slowmotion	-9270
ín	-9271
gos	-9272
hes	-9273
▁Bb	-9274
360,	-9275
arma	-9276
bend	-9277
itsu	-9278
▁110	-9279
▁Bah	-9280
▁DEL	-9281
▁DVD	-9282
▁Met	-9283
▁Ree	-9284
▁tow	-9285
apers	-9286
rador	-9287
итнес	-9288
▁Bees	-9289
▁Oboe	-9290
▁Soph	-9291
▁pers	-9292
▁vibr	-9293
▁Andre	-9294
▁Ranch	-9295
▁Tamil	-9296
▁grace	-9297
▁kelly	-9298
ilkenny	-9299
▁curler	-9300
▁sunset	-9301
ebastian	-9302
▁barista	-9303
▁episode	-9304
▁recycle	-9305
▁ronaldo	-9306
▁Aerobics	-9307
▁Outdoors	-9308
▁Alligator	-9309
▁bulldozer	-9310
▁jewellery	-9311
▁א	-9312
bla	-9313
bus	-9314
▁DO	-9315
▁ON	-9316
avin	-9317
osol	-9318
▁BMW	-9319
▁Bir	-9320
▁COL	-9321
▁Got	-9322
▁Mud	-9323
▁emo	-9324
▁gab	-9325
▁pão	-9326
hythm	-9327
istur	-9328
isure	-9329
porte	-9330
▁Mosh	-9331
▁does	-9332
▁rese	-9333
▁spit	-9334
▁Bruce	-9335
▁Giant	-9336
▁Offic	-9337
▁Saree	-9338
▁bunny	-9339
▁navel	-9340
▁quart	-9341
▁vídeo	-9342
▁bender	-9343
▁ginger	-9344
▁nachos	-9345
▁planet	-9346
itecture	-9347
▁citizen	-9348
▁spanish	-9349
▁laughter	-9350
▁position	-9351
▁subscribe	-9352
▁Bartending	-9353
sl	-9354
▁н	-9355
▁Mt	-9356
▁Ye	-9357
Body	-9358
gery	-9359
idos	-9360
iler	-9361
ungl	-9362
▁Lew	-9363
▁liv	-9364
▁mou	-9365
▁rot	-9366
asgow	-9367
cedes	-9368
ework	-9369
films	-9370
ommod	-9371
screw	-9372
▁Pony	-9373
▁Trim	-9374
▁gets	-9375
▁jake	-9376
▁near	-9377
▁vent	-9378
ediate	-9379
▁Costa	-9380
▁Plant	-9381
▁ghost	-9382
▁shoel	-9383
▁Johnny	-9384
▁Styles	-9385
▁crunch	-9386
▁desert	-9387
▁gospel	-9388
▁native	-9389
▁canadian	-9390
▁hospital	-9391
▁experiment	-9392
▁renovation	-9393
Administrative	-9394
TM	-9395
bt	-9396
мо	-9397
82,	-9398
Acc	-9399
▁HS	-9400
▁yo	-9401
pong	-9402
sEye	-9403
▁bin	-9404
▁rev	-9405
▁ron	-9406
▁sob	-9407
▁thr	-9408
▁too	-9409
2011,	-9410
ivery	-9411
utsch	-9412
▁brit	-9413
▁glow	-9414
▁stra	-9415
▁Teeth	-9416
▁focus	-9417
▁loose	-9418
▁promo	-9419
▁Ashley	-9420
▁Manual	-9421
▁Wonder	-9422
▁alaska	-9423
▁atlanta	-9424
▁Institute	-9425
▁Xylophone	-9426
▁bellydance	-9427
▁arrangements	-9428
73,	-9429
INT	-9430
eso	-9431
fre	-9432
igi	-9433
rib	-9434
rim	-9435
▁EL	-9436
ambo	-9437
rics	-9438
▁26,	-9439
▁gur	-9440
▁jar	-9441
▁sou	-9442
▁was	-9443
Relig	-9444
entic	-9445
tempt	-9446
▁clap	-9447
arnish	-9448
▁Total	-9449
▁Twist	-9450
▁dicas	-9451
▁gator	-9452
▁stamp	-9453
▁wayne	-9454
inburgh	-9455
▁roping	-9456
▁spoken	-9457
Computer	-9458
entation	-9459
▁Islands	-9460
▁Records	-9461
▁battery	-9462
▁charlie	-9463
▁germany	-9464
▁pintura	-9465
▁vietnam	-9466
▁Гудаури	-9467
▁contacts	-9468
▁reaction	-9469
▁CoachsEye	-9470
▁excavation	-9471
ku	-9472
би	-9473
ية	-9474
ROW	-9475
gre	-9476
jan	-9477
las	-9478
vet	-9479
▁HI	-9480
▁cc	-9481
▁ru	-9482
ised	-9483
ivos	-9484
▁Fut	-9485
▁Non	-9486
▁PGA	-9487
▁hog	-9488
▁mes	-9489
allop	-9490
ijing	-9491
quila	-9492
ridge	-9493
▁conf	-9494
▁dock	-9495
▁gang	-9496
▁sean	-9497
▁stan	-9498
▁succ	-9499
▁when	-9500
▁Emily	-9501
▁angry	-9502
▁crust	-9503
▁paleo	-9504
▁piece	-9505
▁write	-9506
▁Mother	-9507
▁beaded	-9508
▁garlic	-9509
▁sponge	-9510
▁suzuki	-9511
▁worlds	-9512
▁artisan	-9513
▁Shredder	-9514
▁instagram	-9515
▁parenting	-9516
▁universal	-9517
อง	-9518
ELL	-9519
Ont	-9520
guy	-9521
▁23	-9522
▁29	-9523
▁Ky	-9524
crop	-9525
ghan	-9526
▁Cot	-9527
▁Cub	-9528
▁Rou	-9529
▁SAL	-9530
▁Sat	-9531
▁Sha	-9532
▁TAT	-9533
▁Tel	-9534
▁Wet	-9535
▁bug	-9536
▁dre	-9537
▁fem	-9538
▁pil	-9539
apper	-9540
edian	-9541
inton	-9542
rence	-9543
▁2009	-9544
▁June	-9545
▁None	-9546
▁Tank	-9547
▁carb	-9548
▁guns	-9549
▁ital	-9550
▁Flair	-9551
▁Jacob	-9552
▁Kicks	-9553
▁Lindy	-9554
▁Steak	-9555
▁bruce	-9556
▁hitch	-9557
▁separ	-9558
▁Pretty	-9559
▁Spirit	-9560
▁inside	-9561
zzarella	-9562
▁Madison	-9563
▁Kayaking	-9564
▁greatest	-9565
▁krumping	-9566
▁decoração	-9567
▁girlfriend	-9568
Gu	-9569
JO	-9570
ца	-9571
▁ف	-9572
add	-9573
nas	-9574
ñas	-9575
▁26	-9576
▁28	-9577
▁FC	-9578
indo	-9579
lery	-9580
oric	-9581
▁ASL	-9582
▁Six	-9583
▁bak	-9584
▁omb	-9585
▁row	-9586
▁ted	-9587
dough	-9588
opter	-9589
▁Anna	-9590
▁Navy	-9591
▁Phys	-9592
▁sant	-9593
▁ston	-9594
tastic	-9595
▁Level	-9596
▁Shake	-9597
▁olive	-9598
▁raise	-9599
awaiian	-9600
▁Region	-9601
▁handle	-9602
▁phones	-9603
▁russia	-9604
▁shovel	-9605
Ontology	-9606
▁groomer	-9607
▁Toboggan	-9608
▁shucking	-9609
▁sneakers	-9610
▁Manhattan	-9611
▁Beatboxing	-9612
▁Manchester	-9613
▁experience	-9614
▁snowblower	-9615
▁somersault	-9616
▁agriculture	-9617
▁electronics	-9618
▁environment	-9619
▁snowmobiling	-9620
HO	-9621
IZ	-9622
át	-9623
cor	-9624
kit	-9625
sha	-9626
сти	-9627
▁Ja	-9628
ATER	-9629
atsu	-9630
quer	-9631
▁120	-9632
▁Dor	-9633
▁dor	-9634
▁enc	-9635
▁hem	-9636
▁tes	-9637
▁wil	-9638
indle	-9639
tando	-9640
▁Felt	-9641
▁bebe	-9642
▁porc	-9643
▁stud	-9644
▁tags	-9645
casian	-9646
▁Lucas	-9647
▁Raise	-9648
▁extra	-9649
▁flame	-9650
▁punto	-9651
▁Office	-9652
▁Winner	-9653
▁fights	-9654
▁jetski	-9655
▁proble	-9656
▁vision	-9657
▁weekend	-9658
▁Planting	-9659
▁pancakes	-9660
▁Mechanics	-9661
▁pirouette	-9662
▁recycling	-9663
▁wisconsin	-9664
▁installing	-9665
▁Refinishing	-9666
tw	-9667
put	-9668
anco	-9669
gant	-9670
mers	-9671
yrus	-9672
▁Fra	-9673
▁Ger	-9674
▁Ian	-9675
▁Veh	-9676
▁Vid	-9677
▁dal	-9678
▁ext	-9679
▁flu	-9680
▁hus	-9681
ahawk	-9682
▁Bead	-9683
▁Carl	-9684
▁Mack	-9685
▁Mall	-9686
▁Meet	-9687
▁Sant	-9688
▁Tube	-9689
▁pneu	-9690
▁pose	-9691
▁semi	-9692
▁type	-9693
ompson	-9694
▁Razor	-9695
▁Shine	-9696
▁Vídeo	-9697
▁baile	-9698
▁spain	-9699
ability	-9700
ventura	-9701
washing	-9702
▁Frozen	-9703
▁Sketch	-9704
▁hunter	-9705
▁shaved	-9706
▁techno	-9707
▁Ironing	-9708
▁licking	-9709
▁piccolo	-9710
▁picture	-9711
▁changing	-9712
▁dumbbell	-9713
▁Compilation	-9714
▁association	-9715
▁Equestrianism	-9716
▁massachusetts	-9717
DR	-9718
Ne	-9719
ét	-9720
па	-9721
79,	-9722
INA	-9723
ihl	-9724
rin	-9725
uce	-9726
Cons	-9727
Ship	-9728
asha	-9729
auge	-9730
icer	-9731
iors	-9732
▁Lou	-9733
▁kam	-9734
▁газ	-9735
funny	-9736
ovely	-9737
▁Chop	-9738
▁seas	-9739
restle	-9740
stract	-9741
▁Bored	-9742
▁Juice	-9743
▁Maine	-9744
▁Maria	-9745
▁Poach	-9746
▁Wayne	-9747
▁grind	-9748
▁jones	-9749
▁messi	-9750
▁rider	-9751
▁tamil	-9752
tailing	-9753
▁Aerial	-9754
▁ribbon	-9755
▁Bangkok	-9756
▁Fighter	-9757
▁Stadium	-9758
▁fantasy	-9759
▁District	-9760
▁crutches	-9761
▁dressing	-9762
▁Interview	-9763
▁convention	-9764
▁reflexology	-9765
mc	-9766
ัก	-9767
▁/	-9768
uez	-9769
▁IT	-9770
▁TC	-9771
▁UC	-9772
▁UP	-9773
card	-9774
corn	-9775
ggie	-9776
news	-9777
tary	-9778
▁Dam	-9779
▁Hit	-9780
▁Hon	-9781
▁its	-9782
▁lou	-9783
▁oct	-9784
▁seg	-9785
asana	-9786
stown	-9787
▁Barb	-9788
▁Fold	-9789
▁jobs	-9790
▁rack	-9791
▁ribs	-9792
▁slim	-9793
▁stam	-9794
▁aaron	-9795
▁cater	-9796
▁harry	-9797
▁pierc	-9798
▁rugby	-9799
ologist	-9800
▁Celtic	-9801
▁budget	-9802
▁mowing	-9803
▁trains	-9804
ashville	-9805
painting	-9806
▁Ensemble	-9807
▁Nintendo	-9808
▁Bollywood	-9809
▁extension	-9810
▁hollywood	-9811
▁Electronic	-9812
▁engineering	-9813
LD	-9814
hd	-9815
cue	-9816
mes	-9817
▁21	-9818
▁Ax	-9819
▁xx	-9820
▁Fel	-9821
▁kan	-9822
▁tul	-9823
estre	-9824
orton	-9825
usive	-9826
▁Pour	-9827
▁cole	-9828
▁fork	-9829
▁have	-9830
▁lion	-9831
▁wand	-9832
▁weld	-9833
lantic	-9834
▁Creat	-9835
▁Trout	-9836
▁Waves	-9837
▁brake	-9838
▁dodge	-9839
▁saint	-9840
▁thigh	-9841
amiento	-9842
▁Factor	-9843
▁fruits	-9844
▁rabbit	-9845
▁scenes	-9846
▁фитнес	-9847
▁Balance	-9848
▁Crystal	-9849
▁Windows	-9850
▁rollers	-9851
▁Hospital	-9852
▁Sleeping	-9853
▁benefits	-9854
▁bootcamp	-9855
▁snowkite	-9856
▁sweeping	-9857
ommodation	-9858
▁caucasian	-9859
▁colouring	-9860
▁fireworks	-9861
▁indonesia	-9862
▁bodybuilder	-9863
▁Flintknapping	-9864
ви	-9865
dos	-9866
nar	-9867
ovo	-9868
▁Dj	-9869
arty	-9870
eler	-9871
etta	-9872
olan	-9873
stru	-9874
unte	-9875
namic	-9876
ubers	-9877
watch	-9878
▁Haul	-9879
▁Kong	-9880
▁Talk	-9881
▁bois	-9882
▁cups	-9883
▁lean	-9884
▁tabs	-9885
▁Cater	-9886
▁Henry	-9887
▁Jimmy	-9888
▁fácil	-9889
▁intro	-9890
ircraft	-9891
▁Jigsaw	-9892
▁Method	-9893
▁Puerto	-9894
▁squats	-9895
Consumer	-9896
▁Library	-9897
▁Pattern	-9898
▁Talking	-9899
▁brushes	-9900
▁letters	-9901
▁secrets	-9902
▁Crossing	-9903
▁endurance	-9904
▁pregnancy	-9905
▁Agriculture	-9906
▁wheelbarrow	-9907
22	-9908
cu	-9909
pu	-9910
tm	-9911
ات	-9912
74,	-9913
gus	-9914
augh	-9915
golf	-9916
стер	-9917
▁Equ	-9918
▁dvd	-9919
▁gon	-9920
▁Doll	-9921
▁Lens	-9922
▁greg	-9923
▁hips	-9924
▁scot	-9925
awning	-9926
isthen	-9927
lender	-9928
▁Blueb	-9929
▁Crack	-9930
▁Krump	-9931
▁Start	-9932
▁ankle	-9933
▁pollo	-9934
▁works	-9935
▁газет	-9936
▁Acting	-9937
▁Worlds	-9938
▁Kicking	-9939
▁glitter	-9940
▁karaoke	-9941
▁swedish	-9942
▁Culinary	-9943
▁Laughter	-9944
▁Scrabble	-9945
▁braiding	-9946
▁religious	-9947
▁celebration	-9948
FA	-9949
FT	-9950
MS	-9951
cr	-9952
uv	-9953
ай	-9954
cal	-9955
eln	-9956
▁sf	-9957
IGHT	-9958
Lake	-9959
ided	-9960
lain	-9961
oren	-9962
▁202	-9963
▁MAC	-9964
▁Sex	-9965
▁Vis	-9966
▁mit	-9967
ebook	-9968
▁Carn	-9969
▁Luge	-9970
▁bait	-9971
▁drag	-9972
▁math	-9973
▁penn	-9974
izzard	-9975
▁Clark	-9976
▁Sharp	-9977
amilton	-9978
astasia	-9979
mediate	-9980
▁senior	-9981
▁Jessica	-9982
▁arduino	-9983
▁counter	-9984
▁georgia	-9985
▁gourmet	-9986
▁grilled	-9987
▁sliding	-9988
▁sneaker	-9989
▁support	-9990
▁Holidays	-9991
▁chainsaw	-9992
▁treasure	-9993
▁detecting	-9994
▁Department	-9995
▁Plastering	-9996
▁choreography	-9997
▁entertaining	-9998
BR	-9999
Up	-10000
ÃO	-10001
ме	-10002
уш	-10003
ים	-10004
ahl	-10005
zep	-10006
лан	-10007
▁2.	-10008
▁ah	-10009
▁oh	-10010
gian	-10011
▁BBC	-10012
▁Row	-10013
aelic	-10014
ample	-10015
chard	-10016
erick	-10017
ucker	-10018
▁Alan	-10019
▁mand	-10020
▁tuto	-10021
ampton	-10022
change	-10023
▁Delhi	-10024
▁Tokyo	-10025
▁Upper	-10026
▁Yacht	-10027
▁bater	-10028
▁sheds	-10029
▁tooth	-10030
▁tyler	-10031
▁waxed	-10032
▁handed	-10033
▁hiphop	-10034
▁israel	-10035
▁ladies	-10036
magazine	-10037
▁Seafood	-10038
▁dribble	-10039
▁eyelash	-10040
▁harpist	-10041
▁homeste	-10042
▁Smoothie	-10043
▁mobility	-10044
▁Breathing	-10045
▁alligator	-10046
kl	-10047
68,	-10048
▁MT	-10049
atos	-10050
draw	-10051
hero	-10052
hive	-10053
iral	-10054
rage	-10055
ussy	-10056
yoga	-10057
▁720	-10058
▁MAH	-10059
▁Ton	-10060
▁WOR	-10061
▁bah	-10062
▁era	-10063
▁ply	-10064
clean	-10065
opher	-10066
ormal	-10067
uters	-10068
▁JUMP	-10069
▁Kate	-10070
▁NCAA	-10071
▁Prof	-10072
▁Roof	-10073
▁dash	-10074
▁fram	-10075
▁hire	-10076
▁peru	-10077
ijuana	-10078
▁Arena	-10079
▁Conne	-10080
▁Krist	-10081
▁mario	-10082
▁salto	-10083
▁scalp	-10084
▁slots	-10085
Project	-10086
▁Brasil	-10087
▁Joseph	-10088
▁Nation	-10089
▁Norway	-10090
▁Singer	-10091
▁welder	-10092
athering	-10093
▁Masters	-10094
▁Pacific	-10095
▁Snowman	-10096
▁Society	-10097
▁holding	-10098
▁matthew	-10099
▁Chopping	-10100
▁headbang	-10101
▁manufact	-10102
▁official	-10103
▁Animation	-10104
▁machinery	-10105
▁Backstroke	-10106
▁Beekeeping	-10107
▁Controller	-10108
▁functional	-10109
▁Thanksgiving	-10110
▁아	-10111
iao	-10112
▁ul	-10113
acts	-10114
isto	-10115
kele	-10116
▁fel	-10117
▁mcd	-10118
▁wtf	-10119
Music	-10120
aggio	-10121
asted	-10122
iones	-10123
place	-10124
xtile	-10125
▁300,	-10126
▁Gary	-10127
▁Half	-10128
▁Hold	-10129
▁Merc	-10130
▁Yang	-10131
▁calf	-10132
▁canc	-10133
▁hous	-10134
▁sold	-10135
veland	-10136
▁arena	-10137
▁couch	-10138
▁licks	-10139
▁scarf	-10140
▁vinyl	-10141
▁where	-10142
ramento	-10143
▁Expert	-10144
▁Marble	-10145
▁Object	-10146
▁Spider	-10147
▁improv	-10148
arehouse	-10149
▁Cymbals	-10150
▁Necktie	-10151
▁fencing	-10152
▁library	-10153
▁patrick	-10154
▁phoenix	-10155
▁Balloons	-10156
▁Cracking	-10157
▁Missouri	-10158
▁printing	-10159
▁toboggan	-10160
▁tropical	-10161
▁different	-10162
▁advertising	-10163
33	-10164
Le	-10165
SL	-10166
vc	-10167
ек	-10168
ํา	-10169
mao	-10170
▁WE	-10171
▁li	-10172
▁иг	-10173
ebec	-10174
▁Est	-10175
▁Fal	-10176
▁Lil	-10177
▁cel	-10178
▁pub	-10179
Human	-10180
culos	-10181
izado	-10182
ocado	-10183
yrics	-10184
▁Tick	-10185
▁Zach	-10186
▁dibu	-10187
▁hive	-10188
▁oper	-10189
▁prec	-10190
▁role	-10191
▁shaw	-10192
▁size	-10193
finish	-10194
ilders	-10195
perary	-10196
▁Ethan	-10197
▁Katie	-10198
▁Onion	-10199
▁being	-10200
▁crist	-10201
▁drone	-10202
▁husky	-10203
▁jimmy	-10204
▁rodeo	-10205
▁sarah	-10206
▁turbo	-10207
▁Figure	-10208
▁Morgan	-10209
▁Rescue	-10210
▁miller	-10211
▁Handmade	-10212
▁Jonathan	-10213
▁barefoot	-10214
▁geocache	-10215
▁Alexander	-10216
▁Sharpener	-10217
▁brazilian	-10218
▁Maintenance	-10219
▁Waterskiing	-10220
MP	-10221
kyo	-10222
psy	-10223
xic	-10224
▁GO	-10225
▁Vo	-10226
Dire	-10227
LING	-10228
alam	-10229
azar	-10230
beat	-10231
gles	-10232
iago	-10233
quin	-10234
some	-10235
▁300	-10236
▁ABC	-10237
▁gib	-10238
▁gla	-10239
▁jun	-10240
▁loc	-10241
▁tir	-10242
ducer	-10243
ombie	-10244
▁Bean	-10245
▁From	-10246
▁Leon	-10247
▁Mens	-10248
▁dart	-10249
▁july	-10250
▁lash	-10251
▁spee	-10252
▁swag	-10253
▁terr	-10254
▁tint	-10255
▁Danny	-10256
▁Intro	-10257
▁blast	-10258
▁cakes	-10259
heville	-10260
sterdam	-10261
▁Alpine	-10262
▁Galaxy	-10263
▁Indoor	-10264
▁Valent	-10265
▁bucket	-10266
▁kiting	-10267
▁museum	-10268
▁peeler	-10269
▁planer	-10270
▁tandem	-10271
vernment	-10272
▁Bubbles	-10273
▁Indiana	-10274
▁Mahjong	-10275
▁Tobacco	-10276
▁granite	-10277
▁richard	-10278
▁Vacation	-10279
▁boarding	-10280
▁industry	-10281
▁standing	-10282
▁Lifestyle	-10283
▁adventures	-10284
gm	-10285
är	-10286
ок	-10287
ASS	-10288
jos	-10289
uca	-10290
▁ML	-10291
▁Op	-10292
▁ра	-10293
raul	-10294
reme	-10295
▁27,	-10296
▁Bik	-10297
▁abr	-10298
▁jug	-10299
▁sap	-10300
▁voc	-10301
andra	-10302
iders	-10303
ordic	-10304
▁Bare	-10305
▁Dust	-10306
▁Kenn	-10307
▁Pupp	-10308
▁glam	-10309
▁prop	-10310
icleta	-10311
ighbor	-10312
spaper	-10313
▁Audio	-10314
▁Ghost	-10315
▁Quest	-10316
▁Swiss	-10317
▁canal	-10318
▁caves	-10319
▁drift	-10320
▁notes	-10321
▁serra	-10322
▁strap	-10323
▁trade	-10324
loading	-10325
▁Proper	-10326
▁compos	-10327
▁fundra	-10328
▁stream	-10329
▁красиво	-10330
▁Military	-10331
▁orchestra	-10332
▁automotive	-10333
▁disability	-10334
▁information	-10335
Accommodation	-10336
▁breaststroke	-10337
▁contemporary	-10338
/,	-10339
WA	-10340
kid	-10341
mos	-10342
▁22	-10343
▁hu	-10344
cept	-10345
fare	-10346
▁Aid	-10347
▁Hob	-10348
▁Kel	-10349
▁nfl	-10350
▁вяз	-10351
úsica	-10352
▁2010	-10353
▁bark	-10354
▁dare	-10355
▁even	-10356
▁funk	-10357
▁lime	-10358
▁slab	-10359
▁wide	-10360
▁wink	-10361
arsity	-10362
ership	-10363
monton	-10364
▁Ceram	-10365
▁Skill	-10366
▁chile	-10367
ossible	-10368
▁Cancer	-10369
▁Cattle	-10370
▁Mormon	-10371
▁attach	-10372
▁awards	-10373
▁cortar	-10374
▁telugu	-10375
astronom	-10376
▁agility	-10377
▁anthony	-10378
▁baskets	-10379
▁draping	-10380
▁farrier	-10381
▁houston	-10382
▁william	-10383
▁european	-10384
▁exterior	-10385
▁hardware	-10386
▁toddlers	-10387
▁Celebrity	-10388
▁Evolution	-10389
▁Indonesia	-10390
▁whistling	-10391
▁Corporation	-10392
▁breakdancing	-10393
▁венецианская	-10394
mat	-10395
▁DA	-10396
chef	-10397
coal	-10398
iage	-10399
okia	-10400
▁Jen	-10401
▁Rib	-10402
▁any	-10403
▁odd	-10404
▁ufc	-10405
encer	-10406
▁Scot	-10407
▁coup	-10408
▁page	-10409
▁ross	-10410
profit	-10411
veying	-10412
▁Click	-10413
▁Mitch	-10414
▁union	-10415
glasses	-10416
mingham	-10417
▁Ownage	-10418
▁cartas	-10419
▁strike	-10420
iversary	-10421
▁Petting	-10422
▁jackass	-10423
▁sisters	-10424
▁climbers	-10425
▁Barcelona	-10426
▁Bartender	-10427
▁stitching	-10428
▁Demonstration	-10429
PH	-10430
UE	-10431
wn	-10432
xi	-10433
hib	-10434
orp	-10435
ное	-10436
▁AZ	-10437
▁Bi	-10438
Golf	-10439
itte	-10440
ocar	-10441
sson	-10442
yman	-10443
▁BAR	-10444
▁Bbq	-10445
▁Lak	-10446
▁hab	-10447
▁jen	-10448
▁len	-10449
▁mol	-10450
Style	-10451
inium	-10452
redit	-10453
▁004,	-10454
▁Cape	-10455
▁Flow	-10456
▁PICT	-10457
▁Ring	-10458
▁Slam	-10459
▁Teen	-10460
▁Whit	-10461
▁brad	-10462
▁hawk	-10463
▁seat	-10464
▁tiny	-10465
iances	-10466
▁Darts	-10467
▁elbow	-10468
▁fanto	-10469
▁graph	-10470
▁locks	-10471
▁prune	-10472
▁shell	-10473
embling	-10474
▁Advice	-10475
▁Broken	-10476
▁Extens	-10477
▁Fusion	-10478
▁Survey	-10479
▁Walker	-10480
▁Wheels	-10481
▁photos	-10482
▁Hooping	-10483
▁Muscles	-10484
▁Texting	-10485
▁artwork	-10486
▁carrots	-10487
▁painful	-10488
▁sprayer	-10489
▁success	-10490
isthenics	-10491
▁sneezing	-10492
aeological	-10493
athercraft	-10494
▁Nutrition	-10495
De	-10496
HE	-10497
II	-10498
SE	-10499
hn	-10500
sn	-10501
Che	-10502
jet	-10503
rat	-10504
▁NO	-10505
▁TN	-10506
▁ze	-10507
hold	-10508
icos	-10509
izar	-10510
ruth	-10511
ulla	-10512
▁Dal	-10513
▁Eco	-10514
▁FIT	-10515
▁Spa	-10516
▁dun	-10517
▁hil	-10518
▁nas	-10519
▁nep	-10520
arian	-10521
otion	-10522
xford	-10523
▁Cole	-10524
▁Prep	-10525
▁Shaw	-10526
▁find	-10527
▁soup	-10528
hentic	-10529
stitch	-10530
▁Balls	-10531
▁Fiber	-10532
▁Laura	-10533
▁Liner	-10534
▁Major	-10535
▁Stuff	-10536
▁deere	-10537
▁panel	-10538
▁picks	-10539
clusive	-10540
▁Bright	-10541
▁Domino	-10542
▁Lauren	-10543
▁Prince	-10544
▁Roping	-10545
▁future	-10546
tutorial	-10547
▁Journey	-10548
▁Popping	-10549
▁aerobic	-10550
▁Princess	-10551
▁driveway	-10552
▁kawasaki	-10553
▁Cartwheel	-10554
▁equestrian	-10555
▁watercolor	-10556
▁paralympics	-10557
ACT	-10558
eur	-10559
lub	-10560
ono	-10561
▁Li	-10562
▁MC	-10563
▁NA	-10564
arms	-10565
arth	-10566
bian	-10567
feed	-10568
mium	-10569
odka	-10570
urai	-10571
wash	-10572
стру	-10573
чист	-10574
▁Gib	-10575
▁kne	-10576
▁lum	-10577
▁pga	-10578
asser	-10579
ooker	-10580
▁Cash	-10581
▁Nike	-10582
▁Ship	-10583
▁hoof	-10584
▁noob	-10585
atchet	-10586
▁Jokes	-10587
▁beast	-10588
▁exerc	-10589
▁eyesh	-10590
▁miner	-10591
▁print	-10592
▁socks	-10593
vlogger	-10594
▁Blaine	-10595
▁Farmer	-10596
▁Gospel	-10597
▁blades	-10598
▁dealer	-10599
▁Vehicle	-10600
▁adesivo	-10601
▁barbell	-10602
▁testing	-10603
▁Brooklyn	-10604
▁oriental	-10605
▁hardstyle	-10606
▁insurance	-10607
▁Bodysurfing	-10608
▁decorations	-10609
PA	-10610
én	-10611
▁フ	-10612
cio	-10613
loy	-10614
omo	-10615
uka	-10616
▁Ay	-10617
▁Il	-10618
ania	-10619
gate	-10620
tars	-10621
▁Ble	-10622
▁Hil	-10623
▁Led	-10624
▁sla	-10625
▁wag	-10626
iddle	-10627
ipple	-10628
wagen	-10629
▁Rome	-10630
▁Wear	-10631
▁some	-10632
▁tran	-10633
lesale	-10634
ordeon	-10635
▁Guard	-10636
▁Rodeo	-10637
▁https	-10638
▁tokyo	-10639
▁Danger	-10640
▁Energy	-10641
▁Kitten	-10642
▁cowboy	-10643
▁humour	-10644
▁temper	-10645
▁Healing	-10646
▁adrenal	-10647
▁snorkel	-10648
▁Dolphins	-10649
▁gameplay	-10650
▁bluetooth	-10651
▁hamburger	-10652
▁obedience	-10653
▁Adventures	-10654
▁manchester	-10655
DE	-10656
SW	-10657
ANT	-10658
ebe	-10659
isy	-10660
not	-10661
▁OR	-10662
▁PT	-10663
▁RC	-10664
▁nj	-10665
123,	-10666
anca	-10667
cken	-10668
rend	-10669
vine	-10670
▁Ath	-10671
▁Fry	-10672
▁Opt	-10673
▁dro	-10674
▁mcc	-10675
angle	-10676
rated	-10677
▁Dice	-10678
▁keyw	-10679
▁khan	-10680
▁liqu	-10681
▁sink	-10682
▁wife	-10683
▁Lewis	-10684
▁conne	-10685
▁grade	-10686
▁pants	-10687
etitive	-10688
ificial	-10689
▁Carter	-10690
▁Praise	-10691
▁Sneeze	-10692
▁cymbal	-10693
▁direct	-10694
▁engraç	-10695
▁pastel	-10696
▁planes	-10697
▁visual	-10698
tinguish	-10699
▁Alcohol	-10700
▁Antonio	-10701
▁Fencing	-10702
▁Jamaica	-10703
▁Pruning	-10704
▁Studios	-10705
▁systems	-10706
▁Kentucky	-10707
▁Movement	-10708
▁Workshop	-10709
▁homebrew	-10710
▁scottish	-10711
▁Jewellery	-10712
▁Longboarding	-10713
KS	-10714
rs	-10715
td	-10716
зы	-10717
リー	-10718
ール	-10719
Can	-10720
Tra	-10721
top	-10722
usa	-10723
wax	-10724
▁PO	-10725
▁ку	-10726
atta	-10727
ktop	-10728
zers	-10729
▁Ali	-10730
▁Bru	-10731
▁Joh	-10732
▁LEG	-10733
▁REC	-10734
▁lew	-10735
▁mys	-10736
illon	-10737
itech	-10738
wless	-10739
▁Cath	-10740
▁away	-10741
▁tumb	-10742
beauty	-10743
inners	-10744
uesday	-10745
▁Drama	-10746
▁Marsh	-10747
▁danny	-10748
▁gamer	-10749
▁simon	-10750
▁spoof	-10751
achting	-10752
▁paragl	-10753
▁shirts	-10754
American	-10755
Director	-10756
▁Acrylic	-10757
▁Monster	-10758
▁Orleans	-10759
▁Process	-10760
▁amateur	-10761
teresting	-10762
▁Backflip	-10763
▁Designer	-10764
▁ensalada	-10765
▁template	-10766
▁Hairstyle	-10767
▁Somersault	-10768
ICE	-10769
IDE	-10770
pur	-10771
vro	-10772
zel	-10773
▁27	-10774
▁ст	-10775
awks	-10776
ayan	-10777
lake	-10778
orro	-10779
udge	-10780
▁McD	-10781
▁Mop	-10782
▁Pub	-10783
▁dur	-10784
▁sie	-10785
▁sue	-10786
break	-10787
inkle	-10788
jamin	-10789
quina	-10790
▁Mine	-10791
▁NASA	-10792
▁Save	-10793
▁boom	-10794
▁bump	-10795
▁crab	-10796
▁cuts	-10797
▁hell	-10798
▁putt	-10799
▁roup	-10800
racuse	-10801
rowave	-10802
▁clams	-10803
▁egypt	-10804
▁extre	-10805
▁lamin	-10806
▁liber	-10807
▁Statue	-10808
▁galaxy	-10809
▁papier	-10810
iverpool	-10811
▁Binding	-10812
▁biggest	-10813
▁bouquet	-10814
▁partner	-10815
▁turkish	-10816
unglasses	-10817
▁Airplane	-10818
▁Manufact	-10819
▁decorate	-10820
▁malaysia	-10821
▁solution	-10822
▁barcelona	-10823
▁lawnmower	-10824
▁Convention	-10825
▁recreation	-10826
▁transworld	-10827
▁manipulation	-10828
уч	-10829
▁カ	-10830
ジャ	-10831
IDS	-10832
asm	-10833
edo	-10834
eno	-10835
ikh	-10836
тив	-10837
adem	-10838
aden	-10839
ahua	-10840
foli	-10841
ocop	-10842
▁Cou	-10843
▁Syn	-10844
▁dew	-10845
▁jos	-10846
▁rat	-10847
▁дет	-10848
2010,	-10849
Broad	-10850
River	-10851
ansen	-10852
iento	-10853
justa	-10854
▁0002	-10855
▁Hole	-10856
▁bern	-10857
▁used	-10858
▁warp	-10859
▁zach	-10860
design	-10861
▁Hindi	-10862
▁Ropes	-10863
▁Stars	-10864
▁Times	-10865
▁entre	-10866
▁Sweden	-10867
▁dollar	-10868
▁estate	-10869
▁impact	-10870
▁layout	-10871
▁rubiks	-10872
▁survey	-10873
allenges	-10874
▁growing	-10875
▁offroad	-10876
▁pumping	-10877
▁seattle	-10878
▁Dumpster	-10879
▁Scallops	-10880
▁overhead	-10881
vironmental	-10882
▁Slacklining	-10883
미용	-10884
lip	-10885
ере	-10886
▁jr	-10887
▁бу	-10888
arna	-10889
icul	-10890
ippi	-10891
uket	-10892
year	-10893
▁Eve	-10894
▁NBC	-10895
▁omg	-10896
games	-10897
ishop	-10898
oscow	-10899
ussie	-10900
▁Conf	-10901
▁PLAY	-10902
▁Pine	-10903
▁armp	-10904
▁fran	-10905
▁grat	-10906
▁inch	-10907
▁lost	-10908
▁pend	-10909
▁Abras	-10910
▁Allen	-10911
▁Candy	-10912
▁Large	-10913
▁Logan	-10914
▁drape	-10915
▁drool	-10916
▁spine	-10917
inaural	-10918
mission	-10919
youtube	-10920
▁Hiking	-10921
▁Native	-10922
▁abseil	-10923
▁career	-10924
▁dublin	-10925
▁equine	-10926
▁satisf	-10927
▁shadow	-10928
▁waving	-10929
training	-10930
▁Gardens	-10931
▁Grinder	-10932
▁Mexican	-10933
▁feather	-10934
▁Montreal	-10935
▁cartoons	-10936
▁Hopscotch	-10937
▁Treadmill	-10938
▁Tutorials	-10939
▁airplanes	-10940
aa	-10941
ды	-10942
..,	-10943
hee	-10944
pad	-10945
▁Az	-10946
▁xc	-10947
avan	-10948
essa	-10949
ipop	-10950
▁28,	-10951
▁Aud	-10952
▁Hug	-10953
▁Lan	-10954
▁Rip	-10955
▁Sne	-10956
▁Tul	-10957
▁bod	-10958
▁deb	-10959
▁pow	-10960
▁uma	-10961
atics	-10962
brook	-10963
elain	-10964
ences	-10965
okart	-10966
▁cert	-10967
▁rach	-10968
▁tecn	-10969
incinn	-10970
ricane	-10971
videos	-10972
▁Fails	-10973
▁Jamie	-10974
▁Plate	-10975
▁carne	-10976
▁clubs	-10977
▁crush	-10978
▁dunks	-10979
▁early	-10980
▁mouse	-10981
▁scale	-10982
ouettes	-10983
uminium	-10984
▁Advert	-10985
▁Bouncy	-10986
▁barrel	-10987
▁breath	-10988
▁fixing	-10989
▁lunges	-10990
▁robert	-10991
▁winner	-10992
▁Lincoln	-10993
▁Panning	-10994
▁Routine	-10995
▁printer	-10996
▁roaster	-10997
Broadcast	-10998
incinnati	-10999
▁checkers	-11000
▁grinding	-11001
▁Champagne	-11002
▁hopscotch	-11003
▁smartphone	-11004
▁strawberry	-11005
▁Choreography	-11006
43	-11007
Sp	-11008
fr	-11009
epy	-11010
idi	-11011
▁GT	-11012
▁PE	-11013
▁TW	-11014
▁ll	-11015
▁mp	-11016
▁wy	-11017
lado	-11018
ouds	-11019
vian	-11020
▁Arc	-11021
▁CAM	-11022
▁Dre	-11023
▁Dur	-11024
▁Kan	-11025
▁MAN	-11026
▁mtb	-11027
▁yum	-11028
agles	-11029
asail	-11030
itude	-11031
lings	-11032
riors	-11033
sting	-11034
▁Chap	-11035
▁Emma	-11036
▁Male	-11037
▁kits	-11038
▁suck	-11039
▁tort	-11040
celand	-11041
pillar	-11042
quence	-11043
▁Prote	-11044
▁Shane	-11045
▁abdom	-11046
▁blend	-11047
▁recic	-11048
ensland	-11049
ighters	-11050
tallica	-11051
▁Ladder	-11052
▁Nevada	-11053
▁Paiste	-11054
▁Ronald	-11055
▁autumn	-11056
▁hungry	-11057
▁paving	-11058
▁smoker	-11059
▁speech	-11060
▁winery	-11061
justable	-11062
▁contour	-11063
▁masters	-11064
▁tension	-11065
▁Cocktail	-11066
▁Compound	-11067
▁properly	-11068
▁minecraft	-11069
▁therapist	-11070
▁threading	-11071
▁Broadcasting	-11072
LS	-11073
bug	-11074
hai	-11075
inf	-11076
кой	-11077
▁Fo	-11078
apor	-11079
athe	-11080
auer	-11081
best	-11082
bute	-11083
come	-11084
drum	-11085
etto	-11086
oofy	-11087
otta	-11088
rada	-11089
▁Bog	-11090
▁Jun	-11091
ewish	-11092
iance	-11093
overy	-11094
verly	-11095
▁Deaf	-11096
▁Dean	-11097
▁Dell	-11098
▁Mont	-11099
▁Peru	-11100
▁That	-11101
▁Wing	-11102
▁appl	-11103
▁bolo	-11104
▁grey	-11105
▁heel	-11106
▁magn	-11107
▁soil	-11108
huahua	-11109
vrolet	-11110
▁Eagle	-11111
▁Keith	-11112
▁Mouth	-11113
▁dryer	-11114
▁jamie	-11115
▁ready	-11116
▁ultra	-11117
avorite	-11118
▁Friday	-11119
▁Liquid	-11120
▁Movies	-11121
▁teatro	-11122
▁virgin	-11123
▁Holland	-11124
▁Rolling	-11125
▁colours	-11126
▁painter	-11127
▁parents	-11128
▁Brisbane	-11129
▁Cambodia	-11130
▁Kawasaki	-11131
▁Kilkenny	-11132
▁Moonwalk	-11133
▁carnival	-11134
▁keywords	-11135
▁politics	-11136
▁research	-11137
▁smashing	-11138
▁stopmotion	-11139
GS	-11140
ME	-11141
08,	-11142
arr	-11143
▁MD	-11144
▁Tv	-11145
▁sz	-11146
▁бо	-11147
clip	-11148
jian	-11149
nuts	-11150
umes	-11151
▁ART	-11152
▁nam	-11153
0001,	-11154
power	-11155
tless	-11156
▁Grip	-11157
▁Hope	-11158
▁horn	-11159
▁hugs	-11160
▁isol	-11161
▁next	-11162
▁only	-11163
▁skip	-11164
armony	-11165
riever	-11166
▁Domin	-11167
▁Dutch	-11168
▁HowTo	-11169
▁Latin	-11170
▁Pipes	-11171
▁angle	-11172
▁draft	-11173
▁paste	-11174
ografia	-11175
▁Crying	-11176
▁cotton	-11177
▁skates	-11178
▁sticks	-11179
▁throws	-11180
▁Bandage	-11181
▁Charles	-11182
▁Dancers	-11183
▁Effects	-11184
▁Poached	-11185
▁circuit	-11186
▁golfing	-11187
▁prepare	-11188
▁puzzles	-11189
▁quarter	-11190
▁studios	-11191
▁sustain	-11192
▁trigger	-11193
▁Pitching	-11194
▁illusion	-11195
▁vehicles	-11196
▁Hamburger	-11197
▁eyeshadow	-11198
▁kettlebell	-11199
▁shuffleboard	-11200
DO	-11201
Day	-11202
gee	-11203
ici	-11204
▁RA	-11205
pass	-11206
urer	-11207
▁Bet	-11208
▁WWE	-11209
cient	-11210
oster	-11211
umbus	-11212
▁Arte	-11213
▁Brit	-11214
▁Guys	-11215
▁Soul	-11216
▁aula	-11217
▁bboy	-11218
▁cann	-11219
▁hong	-11220
▁imag	-11221
▁site	-11222
▁stay	-11223
▁virt	-11224
uccino	-11225
writer	-11226
▁Apply	-11227
▁Bells	-11228
▁Craig	-11229
▁eagle	-11230
▁greek	-11231
▁laces	-11232
▁tejer	-11233
kswagen	-11234
▁Steven	-11235
▁bridal	-11236
▁falten	-11237
▁gloves	-11238
▁multip	-11239
ampshire	-11240
▁Arduino	-11241
▁Players	-11242
▁esgrima	-11243
▁turning	-11244
▁Crawling	-11245
▁Facebook	-11246
▁Students	-11247
▁Syracuse	-11248
▁Teaching	-11249
▁freeride	-11250
▁portland	-11251
▁Milwaukee	-11252
▁Tightrope	-11253
▁cigarette	-11254
▁emergency	-11255
▁triathlon	-11256
▁replacement	-11257
▁Conditioning	-11258
▁PowerDirector	-11259
su	-11260
ット	-11261
oki	-11262
ómo	-11263
▁Ev	-11264
▁RO	-11265
▁lg	-11266
▁sr	-11267
eran	-11268
inch	-11269
mith	-11270
mpol	-11271
pegg	-11272
▁Now	-11273
▁bog	-11274
▁jak	-11275
▁mun	-11276
▁say	-11277
cover	-11278
▁COMP	-11279
▁Jose	-11280
▁Maui	-11281
▁Shel	-11282
▁chun	-11283
▁cous	-11284
▁lets	-11285
▁nova	-11286
▁zone	-11287
Cymbal	-11288
▁docum	-11289
▁hedge	-11290
▁hyper	-11291
▁Candle	-11292
▁Gordon	-11293
▁Hannah	-11294
▁Tricep	-11295
▁Winery	-11296
▁contin	-11297
chetruth	-11298
▁Alabama	-11299
▁Bagging	-11300
▁Bending	-11301
▁Brewing	-11302
▁Karaoke	-11303
▁builder	-11304
▁leisure	-11305
▁montana	-11306
▁mopping	-11307
▁winning	-11308
▁doughnut	-11309
▁energetic	-11310
▁panasonic	-11311
▁solutions	-11312
▁whispering	-11313
▁Pennsylvania	-11314
Man	-11315
cap	-11316
dez	-11317
din	-11318
loe	-11319
odo	-11320
upo	-11321
▁GS	-11322
▁Má	-11323
▁bc	-11324
▁ej	-11325
atia	-11326
kids	-11327
rano	-11328
thur	-11329
ucco	-11330
zart	-11331
▁Bit	-11332
▁Mul	-11333
▁Raj	-11334
▁Sri	-11335
▁Tro	-11336
▁haz	-11337
▁sop	-11338
▁tec	-11339
▁var	-11340
yonce	-11341
▁Fern	-11342
▁Into	-11343
▁Reef	-11344
▁bind	-11345
▁hits	-11346
▁late	-11347
▁merc	-11348
▁thin	-11349
ronaut	-11350
▁Billy	-11351
▁Cable	-11352
▁Curry	-11353
▁Depot	-11354
▁Dylan	-11355
▁Nepal	-11356
▁Scale	-11357
▁laura	-11358
▁mommy	-11359
▁princ	-11360
▁tutor	-11361
ordable	-11362
▁Carlos	-11363
▁Tongue	-11364
▁friday	-11365
▁madrid	-11366
▁supply	-11367
▁tablet	-11368
▁theory	-11369
▁Express	-11370
▁Maracas	-11371
▁Organic	-11372
▁bagpipe	-11373
▁looking	-11374
scription	-11375
▁Aluminum	-11376
▁Chipping	-11377
▁standard	-11378
▁strategy	-11379
▁buildings	-11380
▁explosion	-11381
▁motorbike	-11382
▁shoveling	-11383
▁Historical	-11384
VC	-11385
ên	-11386
ск	-11387
▁스	-11388
bot	-11389
shi	-11390
▁Ep	-11391
▁mm	-11392
ANDO	-11393
atem	-11394
icon	-11395
scop	-11396
yani	-11397
ласс	-11398
▁Ace	-11399
▁lam	-11400
▁pip	-11401
▁vio	-11402
awson	-11403
garia	-11404
tator	-11405
▁Bone	-11406
▁Fran	-11407
▁Muay	-11408
▁Rush	-11409
▁esqu	-11410
▁frog	-11411
▁ipod	-11412
▁lamp	-11413
▁poop	-11414
▁rink	-11415
▁sher	-11416
ifting	-11417
▁Blood	-11418
▁Chips	-11419
▁Idaho	-11420
▁Lunch	-11421
▁Smash	-11422
▁aplic	-11423
▁bitch	-11424
▁elite	-11425
▁lines	-11426
▁rober	-11427
▁sieve	-11428
▁types	-11429
ovember	-11430
▁Floors	-11431
▁Iphone	-11432
▁follow	-11433
▁joints	-11434
▁mining	-11435
▁Finland	-11436
▁Iceland	-11437
▁Reverse	-11438
▁collect	-11439
▁gardens	-11440
▁maquina	-11441
▁redneck	-11442
▁strange	-11443
▁tattoos	-11444
▁walmart	-11445
▁Advanced	-11446
▁Espresso	-11447
▁Relaxing	-11448
▁Charlotte	-11449
▁Whistling	-11450
▁highlight	-11451
▁miniature	-11452
▁minnesota	-11453
▁Microscope	-11454
▁Headbanging	-11455
▁handwriting	-11456
▁ingredients	-11457
▁đ	-11458
jay	-11459
мен	-11460
▁pu	-11461
DING	-11462
atha	-11463
gree	-11464
hack	-11465
pect	-11466
resh	-11467
tany	-11468
vato	-11469
▁BAB	-11470
▁Lag	-11471
▁Leb	-11472
▁PAP	-11473
▁dim	-11474
▁duo	-11475
▁kel	-11476
atter	-11477
▁1920	-11478
▁BALL	-11479
▁Case	-11480
▁Duck	-11481
▁Math	-11482
▁Mind	-11483
▁Yarn	-11484
▁cant	-11485
▁kyle	-11486
▁lazy	-11487
▁luke	-11488
▁mira	-11489
▁synd	-11490
▁trek	-11491
▁wipe	-11492
▁Flame	-11493
▁Goats	-11494
▁Tommy	-11495
▁Wales	-11496
▁belch	-11497
▁cache	-11498
▁count	-11499
▁danza	-11500
▁incre	-11501
▁indie	-11502
▁porta	-11503
▁squee	-11504
▁wrist	-11505
iquette	-11506
rington	-11507
▁Laughs	-11508
▁Sister	-11509
▁really	-11510
▁мастер	-11511
destrian	-11512
▁Boracay	-11513
▁Legends	-11514
▁Montana	-11515
▁eastern	-11516
▁Revealed	-11517
▁Stacking	-11518
▁ballroom	-11519
▁compound	-11520
▁revealed	-11521
▁software	-11522
▁Breakdance	-11523
▁Management	-11524
▁resistance	-11525
▁underground	-11526
▁manualidades	-11527
ระ	-11528
cht	-11529
mad	-11530
obi	-11531
umi	-11532
▁36	-11533
▁FE	-11534
▁KC	-11535
▁LP	-11536
▁MS	-11537
enda	-11538
guin	-11539
horn	-11540
ldog	-11541
occo	-11542
tale	-11543
▁das	-11544
▁fps	-11545
▁wig	-11546
hetic	-11547
▁ADHD	-11548
▁Know	-11549
▁cops	-11550
▁stro	-11551
▁xmas	-11552
kansas	-11553
▁Grass	-11554
▁Hacks	-11555
▁Rugby	-11556
▁domin	-11557
▁meter	-11558
▁stilt	-11559
belline	-11560
delaide	-11561
ignment	-11562
▁Denver	-11563
▁Please	-11564
▁bamboo	-11565
▁launch	-11566
Baseball	-11567
▁Eastern	-11568
▁Gabriel	-11569
▁noodles	-11570
▁surface	-11571
▁Greatest	-11572
▁Maryland	-11573
▁Michelle	-11574
▁Pushdown	-11575
▁videojug	-11576
▁Timelapse	-11577
▁permanent	-11578
▁Educational	-11579
▁playstation	-11580
Ex	-11581
ün	-11582
йт	-11583
▁س	-11584
골프	-11585
IES	-11586
ISS	-11587
boa	-11588
jor	-11589
nik	-11590
ñol	-11591
▁35	-11592
▁Gy	-11593
▁oc	-11594
Move	-11595
abis	-11596
bank	-11597
jabi	-11598
opez	-11599
rift	-11600
▁29,	-11601
▁COR	-11602
▁Feb	-11603
▁Hen	-11604
▁Sof	-11605
▁koh	-11606
andro	-11607
elsea	-11608
lence	-11609
owski	-11610
▁Brow	-11611
▁Euro	-11612
▁Jean	-11613
▁crow	-11614
▁dual	-11615
▁infl	-11616
▁rica	-11617
▁vers	-11618
ayalam	-11619
etroit	-11620
olitan	-11621
▁Beats	-11622
▁Villa	-11623
▁Woman	-11624
▁billy	-11625
▁jesus	-11626
▁setup	-11627
ymphony	-11628
▁Agency	-11629
▁Inside	-11630
▁Mirror	-11631
▁Potter	-11632
▁autism	-11633
▁caught	-11634
▁fluffy	-11635
▁mortar	-11636
▁mumbai	-11637
▁newton	-11638
▁Batting	-11639
▁Quarter	-11640
▁airless	-11641
▁buffing	-11642
▁butcher	-11643
▁capsize	-11644
▁correct	-11645
▁parties	-11646
▁recette	-11647
▁Guinness	-11648
▁Limerick	-11649
▁applying	-11650
▁artistic	-11651
▁filipino	-11652
▁romantic	-11653
▁watching	-11654
▁entertain	-11655
▁Excavation	-11656
▁babywearing	-11657
▁Philadelphia	-11658
fx	-11659
▁Л	-11660
イン	-11661
enh	-11662
hot	-11663
iba	-11664
mit	-11665
oko	-11666
rek	-11667
rif	-11668
ryl	-11669
vio	-11670
лен	-11671
▁45	-11672
▁AV	-11673
▁AW	-11674
▁CT	-11675
▁SS	-11676
▁mi	-11677
▁го	-11678
▁до	-11679
acle	-11680
hard	-11681
keys	-11682
onga	-11683
real	-11684
▁00,	-11685
▁Amy	-11686
▁Cig	-11687
▁Dew	-11688
▁Pil	-11689
▁Tal	-11690
▁Tru	-11691
▁Wow	-11692
▁adv	-11693
▁ath	-11694
▁cnc	-11695
▁lap	-11696
▁our	-11697
class	-11698
essor	-11699
event	-11700
oreal	-11701
riage	-11702
▁Alph	-11703
▁Carm	-11704
▁Grow	-11705
▁MACH	-11706
▁Rail	-11707
▁brun	-11708
▁desi	-11709
▁fern	-11710
▁keys	-11711
▁nerd	-11712
ewater	-11713
raulic	-11714
senior	-11715
▁Liber	-11716
▁Pregn	-11717
▁billi	-11718
▁score	-11719
▁shane	-11720
▁tower	-11721
▁turns	-11722
borough	-11723
fighter	-11724
issippi	-11725
oothing	-11726
ression	-11727
▁Berlin	-11728
▁Doctor	-11729
▁Jeremy	-11730
▁Transp	-11731
▁amazon	-11732
▁bleach	-11733
▁cherry	-11734
▁frames	-11735
▁frying	-11736
▁saving	-11737
▁sweden	-11738
▁tribal	-11739
▁Alberta	-11740
▁Journal	-11741
▁Outside	-11742
▁Springs	-11743
▁Weekend	-11744
▁brandon	-11745
▁colored	-11746
▁repairs	-11747
▁Bottling	-11748
▁Catching	-11749
▁Kickball	-11750
▁concerto	-11751
▁pregnant	-11752
▁separate	-11753
▁talented	-11754
▁terrasse	-11755
▁Argentina	-11756
▁Tipperary	-11757
▁argentina	-11758
▁decorative	-11759
▁energizing	-11760
seniorvlogger	-11761
▁straightening	-11762
FX	-11763
Re	-11764
],	-11765
áp	-11766
éd	-11767
110	-11768
bes	-11769
iac	-11770
inl	-11771
roe	-11772
▁90	-11773
▁AA	-11774
▁EP	-11775
▁JO	-11776
▁OC	-11777
▁WP	-11778
▁au	-11779
▁vw	-11780
KING	-11781
achi	-11782
esar	-11783
hole	-11784
ylie	-11785
ский	-11786
▁Bos	-11787
▁hyp	-11788
▁kom	-11789
▁tee	-11790
▁una	-11791
▁Hamm	-11792
▁Nich	-11793
▁Sher	-11794
▁Vert	-11795
▁abor	-11796
▁afro	-11797
▁mack	-11798
▁navy	-11799
▁rush	-11800
▁schn	-11801
Gender	-11802
adeira	-11803
boying	-11804
▁Bryan	-11805
▁Metro	-11806
▁Rider	-11807
▁actor	-11808
▁andre	-11809
▁based	-11810
▁coral	-11811
▁diver	-11812
▁kings	-11813
▁solid	-11814
▁trump	-11815
▁прико	-11816
acional	-11817
massage	-11818
▁Apples	-11819
▁Format	-11820
▁Intern	-11821
▁Monkey	-11822
▁String	-11823
▁Sunday	-11824
▁carbon	-11825
▁device	-11826
▁pavers	-11827
▁spinal	-11828
▁Costume	-11829
▁Detroit	-11830
▁Felting	-11831
▁Present	-11832
▁defence	-11833
▁indiana	-11834
▁premier	-11835
▁prodigy	-11836
▁restore	-11837
▁schools	-11838
▁Bathroom	-11839
▁Colombia	-11840
▁Eyeliner	-11841
▁Jennifer	-11842
▁Knapping	-11843
▁Michaels	-11844
▁delivery	-11845
▁downhome	-11846
▁internet	-11847
▁nintendo	-11848
ighborhood	-11849
▁Landscape	-11850
▁backwards	-11851
▁boyfriend	-11852
▁caribbean	-11853
▁motocross	-11854
▁Vegetables	-11855
▁acrobatics	-11856
▁contorcion	-11857
▁instructor	-11858
▁mozzarella	-11859
▁backpacking	-11860
▁Instructions	-11861
44	-11862
LY	-11863
MB	-11864
жа	-11865
▁バ	-11866
Mil	-11867
RED	-11868
cie	-11869
mal	-11870
руз	-11871
amen	-11872
brew	-11873
brid	-11874
ebra	-11875
icol	-11876
mong	-11877
onna	-11878
pose	-11879
rant	-11880
rien	-11881
▁Ply	-11882
▁reb	-11883
▁ris	-11884
▁une	-11885
angel	-11886
cando	-11887
chine	-11888
ensen	-11889
udson	-11890
▁Bomb	-11891
▁Scar	-11892
▁Twin	-11893
▁answ	-11894
▁café	-11895
▁hobb	-11896
▁rare	-11897
▁Bella	-11898
▁Scene	-11899
▁pract	-11900
▁rides	-11901
▁sippy	-11902
▁wheat	-11903
▁Arabic	-11904
▁Mumbai	-11905
▁Ottawa	-11906
▁Parade	-11907
▁cooker	-11908
▁flauta	-11909
▁snacks	-11910
▁splits	-11911
▁Candles	-11912
▁elegant	-11913
▁keeping	-11914
▁necktie	-11915
▁sitting	-11916
▁bouncing	-11917
▁chemical	-11918
▁medieval	-11919
etherlands	-11920
▁bicicleta	-11921
▁spelunking	-11922
IX	-11923
pi	-11924
OME	-11925
aws	-11926
kal	-11927
pit	-11928
vos	-11929
▁gs	-11930
▁nc	-11931
bone	-11932
eras	-11933
gium	-11934
hawk	-11935
igur	-11936
rari	-11937
tips	-11938
▁Kra	-11939
▁Rey	-11940
▁mos	-11941
▁rug	-11942
aches	-11943
istol	-11944
▁006,	-11945
▁007,	-11946
▁BEST	-11947
▁Beth	-11948
▁Juan	-11949
▁Plus	-11950
▁SNOW	-11951
▁bart	-11952
▁bite	-11953
▁cors	-11954
▁Clear	-11955
▁Ellen	-11956
▁Rally	-11957
▁drake	-11958
▁festa	-11959
▁maple	-11960
▁maria	-11961
▁retar	-11962
▁wines	-11963
footage	-11964
ollipop	-11965
▁00000,	-11966
▁Nelson	-11967
▁Sharks	-11968
▁harley	-11969
▁norway	-11970
▁pintar	-11971
▁praise	-11972
▁report	-11973
▁Rainbow	-11974
▁Swedish	-11975
▁Windsor	-11976
▁mission	-11977
▁padlock	-11978
▁yawning	-11979
▁Highland	-11980
▁Memorial	-11981
▁Portugal	-11982
▁belching	-11983
▁colombia	-11984
▁response	-11985
▁Headstand	-11986
▁direction	-11987
▁wholesale	-11988
▁Kettlebell	-11989
▁Kickboxing	-11990
▁processing	-11991
▁Shuffleboard	-11992
▁experimental	-11993
120	-11994
REE	-11995
fol	-11996
gym	-11997
nis	-11998
лка	-11999
▁1.	-12000
▁EC	-12001
▁pt	-12002
▁ss	-12003
▁ар	-12004
▁мо	-12005
here	-12006
inte	-12007
stra	-12008
▁CAT	-12009
▁jap	-12010
aptop	-12011
floor	-12012
inity	-12013
ledge	-12014
swick	-12015
undai	-12016
▁Batt	-12017
▁Deer	-12018
▁Eats	-12019
▁View	-12020
▁dans	-12021
▁feel	-12022
▁fuel	-12023
▁hour	-12024
▁mono	-12025
▁path	-12026
tected	-12027
чистка	-12028
▁Crist	-12029
▁Moore	-12030
▁Shore	-12031
▁hairy	-12032
▁lewis	-12033
▁ollie	-12034
▁shrub	-12035
▁stomp	-12036
▁titan	-12037
puccino	-12038
weather	-12039
▁Desert	-12040
▁Salmon	-12041
▁Tackle	-12042
▁Wilson	-12043
▁crispy	-12044
▁econom	-12045
▁futbol	-12046
▁pallet	-12047
▁states	-12048
▁washer	-12049
▁Peeling	-12050
▁Working	-12051
▁bathing	-12052
▁blowdry	-12053
▁springs	-12054
▁stadium	-12055
▁waiting	-12056
▁Illusion	-12057
▁Smashing	-12058
▁Wellness	-12059
▁portable	-12060
▁suitcase	-12061
▁tactical	-12062
▁Baltimore	-12063
▁Bushcraft	-12064
▁discovery	-12065
▁essential	-12066
▁satisfying	-12067
▁Restoration	-12068
NA	-12069
ZA	-12070
fi	-12071
ري	-12072
dar	-12073
eut	-12074
ibu	-12075
rug	-12076
ulk	-12077
▁FM	-12078
▁cd	-12079
▁ja	-12080
asta	-12081
styl	-12082
urst	-12083
▁But	-12084
▁kin	-12085
▁pix	-12086
cream	-12087
iente	-12088
ieren	-12089
immer	-12090
stock	-12091
▁Alto	-12092
▁Brun	-12093
▁Days	-12094
▁Evan	-12095
▁Flag	-12096
▁Ouch	-12097
▁Schw	-12098
▁Silk	-12099
▁Simp	-12100
▁foil	-12101
▁gaga	-12102
▁jose	-12103
riguez	-12104
▁Jesse	-12105
▁Mouse	-12106
▁Musta	-12107
▁Pasta	-12108
▁Rocky	-12109
▁Titan	-12110
▁Today	-12111
▁arbor	-12112
▁blush	-12113
▁chill	-12114
▁gloss	-12115
▁march	-12116
▁natal	-12117
▁salud	-12118
▁sweat	-12119
▁wreck	-12120
ildjian	-12121
▁Letter	-12122
▁Victor	-12123
▁foodie	-12124
▁kawaii	-12125
▁lovely	-12126
▁ripped	-12127
▁search	-12128
▁Beijing	-12129
▁hugging	-12130
▁pulling	-12131
▁Assembly	-12132
▁dominoes	-12133
▁knuckles	-12134
▁reporter	-12135
▁anastasia	-12136
▁container	-12137
▁beatboxing	-12138
▁sandcastle	-12139
▁Bodybuilder	-12140
▁Engineering	-12141
▁Marshmallow	-12142
▁bricklaying	-12143
▁interesting	-12144
▁slacklining	-12145
35	-12146
Bl	-12147
MT	-12148
eo	-12149
кт	-12150
▁э	-12151
▁ה	-12152
-1,	-12153
Eng	-12154
Ski	-12155
asi	-12156
bil	-12157
onn	-12158
rup	-12159
ymn	-12160
▁si	-12161
▁tx	-12162
▁uc	-12163
▁골프	-12164
ggae	-12165
hall	-12166
osis	-12167
stop	-12168
unst	-12169
▁Add	-12170
▁Bou	-12171
▁Cos	-12172
▁MAS	-12173
▁Pel	-12174
▁Spr	-12175
▁Tan	-12176
▁Yan	-12177
▁cuc	-12178
▁jue	-12179
▁wed	-12180
▁wwe	-12181
2015,	-12182
itzel	-12183
tools	-12184
ummit	-12185
yacht	-12186
▁Bend	-12187
▁FAIL	-12188
▁HIIT	-12189
▁Lose	-12190
▁Oven	-12191
▁curs	-12192
▁desk	-12193
▁fron	-12194
▁skat	-12195
▁tang	-12196
active	-12197
ooters	-12198
▁Dairy	-12199
▁Doing	-12200
▁Lemon	-12201
▁Remix	-12202
▁Tampa	-12203
▁Tours	-12204
▁april	-12205
▁mundo	-12206
▁pinch	-12207
▁shear	-12208
▁solar	-12209
Playing	-12210
unnings	-12211
▁Argent	-12212
▁Cooper	-12213
▁Prospe	-12214
▁global	-12215
▁grapes	-12216
▁update	-12217
▁Harvest	-12218
▁October	-12219
▁baroque	-12220
▁hanging	-12221
▁worship	-12222
videoshow	-12223
▁Research	-12224
▁Snowball	-12225
▁handicap	-12226
▁property	-12227
▁Newspaper	-12228
▁Performer	-12229
▁detailing	-12230
▁Decorating	-12231
▁blueberries	-12232
▁transformation	-12233
nb	-12234
サー	-12235
LES	-12236
MAN	-12237
erv	-12238
mor	-12239
pod	-12240
rez	-12241
tin	-12242
zas	-12243
▁Ah	-12244
▁WR	-12245
Star	-12246
acho	-12247
alph	-12248
ashi	-12249
comp	-12250
lica	-12251
nton	-12252
▁Rev	-12253
▁SUP	-12254
▁ful	-12255
▁kol	-12256
▁lic	-12257
▁slu	-12258
aints	-12259
ereal	-12260
inals	-12261
ische	-12262
mania	-12263
store	-12264
▁180,	-12265
▁Cann	-12266
▁Doug	-12267
▁Jane	-12268
▁Pete	-12269
▁Rico	-12270
▁Toss	-12271
▁Zero	-12272
▁bond	-12273
▁carr	-12274
▁lama	-12275
▁nugg	-12276
▁sole	-12277
surfer	-12278
▁Pearl	-12279
▁Rocks	-12280
▁chuck	-12281
▁seven	-12282
▁synth	-12283
▁00001,	-12284
▁Asthma	-12285
▁Gaelic	-12286
▁Global	-12287
▁Secret	-12288
▁batter	-12289
▁gadget	-12290
▁number	-12291
▁plates	-12292
▁skater	-12293
▁toning	-12294
▁toyota	-12295
▁winged	-12296
▁Austria	-12297
▁Fiction	-12298
▁Kissing	-12299
▁Mission	-12300
▁Spanish	-12301
▁cartoon	-12302
▁musique	-12303
▁private	-12304
Protected	-12305
▁Adorable	-12306
▁Anderson	-12307
▁Heritage	-12308
▁Lipstick	-12309
▁paradise	-12310
▁Elizabeth	-12311
▁President	-12312
▁decoradas	-12313
▁photobomb	-12314
▁sourdough	-12315
▁tradition	-12316
videoshowapp	-12317
▁commercials	-12318
ев	-12319
по	-12320
▁ก	-12321
apa	-12322
def	-12323
law	-12324
▁GU	-12325
▁UT	-12326
▁mw	-12327
Life	-12328
apes	-12329
bass	-12330
ción	-12331
ipur	-12332
ivel	-12333
osit	-12334
tado	-12335
umar	-12336
yond	-12337
▁Age	-12338
▁Fle	-12339
▁III	-12340
▁Mob	-12341
▁Say	-12342
▁See	-12343
▁Thr	-12344
▁nom	-12345
▁woo	-12346
ebras	-12347
edral	-12348
entos	-12349
heast	-12350
onair	-12351
▁Bali	-12352
▁Belt	-12353
▁Edge	-12354
▁Khan	-12355
▁Kris	-12356
▁Lord	-12357
▁Noah	-12358
▁Nova	-12359
▁Spot	-12360
▁Wake	-12361
▁bars	-12362
▁dont	-12363
▁junk	-12364
▁lang	-12365
▁luth	-12366
▁mode	-12367
▁puff	-12368
▁деко	-12369
▁поет	-12370
cticut	-12371
dancer	-12372
itarod	-12373
makeup	-12374
phants	-12375
▁Teach	-12376
▁Tires	-12377
▁false	-12378
▁glove	-12379
▁smosh	-12380
▁vocal	-12381
▁woven	-12382
dresser	-12383
▁clinic	-12384
▁luxury	-12385
▁whites	-12386
hangouts	-12387
▁Digging	-12388
▁Glasgow	-12389
▁Montage	-12390
▁gadgets	-12391
▁grandma	-12392
▁marbles	-12393
▁metales	-12394
▁minutes	-12395
▁thunder	-12396
▁Aquarium	-12397
▁Shepherd	-12398
▁auctions	-12399
▁crianças	-12400
▁montreal	-12401
▁victoria	-12402
▁happiness	-12403
▁Pyrography	-12404
▁Renovation	-12405
▁eyeglasses	-12406
hangoutsonair	-12407
▁intermediate	-12408
éo	-12409
ικ	-12410
לי	-12411
ون	-12412
▁ك	-12413
▁ハ	-12414
aba	-12415
ogo	-12416
oka	-12417
▁37	-12418
▁AG	-12419
▁BY	-12420
▁Et	-12421
▁PB	-12422
▁ms	-12423
▁Ка	-12424
1000	-12425
2009	-12426
Risk	-12427
Rock	-12428
adal	-12429
ajun	-12430
esha	-12431
orms	-12432
otes	-12433
uart	-12434
ками	-12435
▁Cob	-12436
▁Hyd	-12437
▁elf	-12438
▁fri	-12439
▁pac	-12440
▁rit	-12441
▁sor	-12442
lines	-12443
▁Curl	-12444
▁FOOD	-12445
▁PART	-12446
▁Vent	-12447
bleton	-12448
▁Barry	-12449
▁Chain	-12450
▁Chuck	-12451
▁Goals	-12452
▁Robin	-12453
▁Viral	-12454
▁marie	-12455
▁shift	-12456
▁Access	-12457
▁Amanda	-12458
▁August	-12459
▁Greece	-12460
▁Sounds	-12461
▁Things	-12462
▁callig	-12463
▁easily	-12464
▁envato	-12465
▁picnic	-12466
ductions	-12467
▁Dubstep	-12468
▁bateria	-12469
▁boracay	-12470
▁buffalo	-12471
▁needles	-12472
▁surgery	-12473
▁Swinging	-12474
▁charcoal	-12475
▁clipping	-12476
▁downtown	-12477
▁dustless	-12478
▁myCymbal	-12479
▁Handstand	-12480
▁strongman	-12481
▁surfboard	-12482
▁valentine	-12483
▁motorcycles	-12484
▁Sledgehammer	-12485
▁thanksgiving	-12486
Th	-12487
VA	-12488
ez	-12489
oj	-12490
าย	-12491
▁折	-12492
112	-12493
INO	-12494
ced	-12495
you	-12496
▁GL	-12497
▁IL	-12498
▁iz	-12499
▁ki	-12500
▁rv	-12501
▁va	-12502
ands	-12503
hoes	-12504
itis	-12505
knot	-12506
mons	-12507
▁32,	-12508
▁Dip	-12509
▁Jar	-12510
▁Moh	-12511
▁Pix	-12512
▁Rot	-12513
▁Tae	-12514
▁Try	-12515
▁Wii	-12516
▁lib	-12517
▁nhl	-12518
▁zap	-12519
▁zen	-12520
andal	-12521
balls	-12522
osaur	-12523
renda	-12524
▁Reed	-12525
▁kiwi	-12526
▁note	-12527
▁rasp	-12528
▁reed	-12529
▁relo	-12530
tanbul	-12531
▁Blake	-12532
▁Court	-12533
▁Natal	-12534
▁Paral	-12535
▁Peace	-12536
▁Right	-12537
▁empan	-12538
▁mango	-12539
lantern	-12540
uckland	-12541
▁Harris	-12542
▁Nissan	-12543
▁Scream	-12544
▁Temple	-12545
▁corner	-12546
▁cutest	-12547
▁filler	-12548
▁paddle	-12549
▁tejido	-12550
▁Aerobic	-12551
▁Ronaldo	-12552
▁ceiling	-12553
▁malabar	-12554
▁records	-12555
▁Detector	-12556
▁Necklace	-12557
▁Bulldozer	-12558
▁beginning	-12559
▁guitarist	-12560
▁skatepark	-12561
▁splitting	-12562
▁Headphones	-12563
▁Bookbinding	-12564
▁Landscaping	-12565
KA	-12566
YC	-12567
lr	-12568
zu	-12569
цы	-12570
را	-12571
▁ا	-12572
ADE	-12573
Box	-12574
aza	-12575
dex	-12576
ems	-12577
fle	-12578
hoa	-12579
ikk	-12580
max	-12581
tex	-12582
▁жи	-12583
indu	-12584
onta	-12585
uson	-12586
▁Amb	-12587
▁Cay	-12588
▁Use	-12589
▁hen	-12590
▁hue	-12591
▁mum	-12592
▁soy	-12593
2013,	-12594
antha	-12595
avier	-12596
▁Bran	-12597
▁Bros	-12598
▁Drag	-12599
▁Loom	-12600
▁Punk	-12601
▁Rica	-12602
▁barb	-12603
▁coco	-12604
▁glen	-12605
▁hood	-12606
▁hope	-12607
▁jord	-12608
▁pens	-12609
hesive	-12610
lector	-12611
ulator	-12612
▁Brace	-12613
▁Dirty	-12614
▁Dodge	-12615
▁Faces	-12616
▁Moves	-12617
▁Scary	-12618
▁Straw	-12619
▁baked	-12620
▁faire	-12621
▁staff	-12622
isement	-12623
▁Better	-12624
▁Father	-12625
▁Juggle	-12626
▁Stilts	-12627
▁awsome	-12628
▁donuts	-12629
▁killer	-12630
▁nicole	-12631
hibition	-12632
▁Inhaler	-12633
▁feature	-12634
▁gallery	-12635
▁kittens	-12636
▁pacific	-12637
▁pencils	-12638
▁powered	-12639
▁romance	-12640
dependent	-12641
▁Clapping	-12642
▁Davidson	-12643
▁colorful	-12644
▁fountain	-12645
▁pressing	-12646
▁Bobsleigh	-12647
▁Edinburgh	-12648
▁headphone	-12649
▁horseback	-12650
▁megaphone	-12651
▁salchichas	-12652
▁Wheelbarrow	-12653
▁Chiropractic	-12654
▁Refrigerator	-12655
▁presentation	-12656
67	-12657
pm	-12658
قص	-12659
asp	-12660
ema	-12661
eps	-12662
iag	-12663
рап	-12664
▁GA	-12665
▁IC	-12666
▁WH	-12667
alty	-12668
cery	-12669
ilar	-12670
isse	-12671
ivas	-12672
rafa	-12673
rike	-12674
ário	-12675
▁Dow	-12676
▁Isa	-12677
▁PER	-12678
▁Pac	-12679
▁Ted	-12680
▁UFC	-12681
▁koi	-12682
▁sci	-12683
2016,	-12684
atson	-12685
giene	-12686
illas	-12687
▁BABY	-12688
▁Cody	-12689
▁Cong	-12690
▁Smok	-12691
▁Tele	-12692
▁acne	-12693
▁crim	-12694
▁dump	-12695
▁fear	-12696
▁grav	-12697
▁hone	-12698
▁perc	-12699
▁prom	-12700
▁purl	-12701
▁roma	-12702
▁true	-12703
▁unha	-12704
letter	-12705
▁Bobby	-12706
▁Enter	-12707
▁Knuck	-12708
▁Perth	-12709
▁Shirt	-12710
▁Wings	-12711
▁bones	-12712
▁going	-12713
allower	-12714
icopter	-12715
version	-12716
▁Oliver	-12717
▁Wooden	-12718
▁border	-12719
▁faster	-12720
▁holder	-12721
▁pedido	-12722
▁swords	-12723
▁MACHINE	-12724
▁avocado	-12725
▁tantrum	-12726
▁structure	-12727
▁blacksmith	-12728
▁sunglasses	-12729
▁fabrication	-12730
65	-12731
wy	-12732
▁क	-12733
07,	-12734
Job	-12735
USH	-12736
sse	-12737
ита	-12738
▁Av	-12739
▁TS	-12740
▁Ts	-12741
▁mé	-12742
abad	-12743
ardi	-12744
glas	-12745
ibur	-12746
rice	-12747
▁CUT	-12748
▁Gor	-12749
▁Inj	-12750
▁Our	-12751
agers	-12752
flute	-12753
india	-12754
▁Beck	-12755
▁ESPN	-12756
▁Hart	-12757
▁Pond	-12758
▁Slot	-12759
▁Yard	-12760
▁cock	-12761
▁lane	-12762
▁lead	-12763
▁lmao	-12764
▁tuna	-12765
ounder	-12766
rapher	-12767
▁Stage	-12768
▁Swift	-12769
▁Terry	-12770
▁boxer	-12771
▁perch	-12772
▁sales	-12773
iberian	-12774
through	-12775
▁Comple	-12776
▁Cowboy	-12777
▁WebCam	-12778
▁farmer	-12779
▁golfer	-12780
▁greens	-12781
▁sleepy	-12782
▁steven	-12783
▁womens	-12784
Movement	-12785
ineering	-12786
▁Failure	-12787
▁Grandma	-12788
▁Jogging	-12789
▁Plastic	-12790
▁Whistle	-12791
▁climber	-12792
▁cozinha	-12793
▁knuckle	-12794
erleaders	-12795
▁infantil	-12796
▁corkscrew	-12797
▁screaming	-12798
▁Experience	-12799
▁Performing	-12800
▁contractor	-12801
▁revolution	-12802
BT	-12803
Ro	-12804
lu	-12805
mx	-12806
רו	-12807
▁ж	-12808
OOD	-12809
apo	-12810
lav	-12811
rem	-12812
▁PH	-12813
▁oz	-12814
erox	-12815
love	-12816
rise	-12817
▁:),	-12818
▁Die	-12819
▁GAM	-12820
▁Ing	-12821
▁Kir	-12822
▁Pay	-12823
▁Raf	-12824
▁Tee	-12825
▁ali	-12826
▁ana	-12827
▁bot	-12828
▁gps	-12829
▁hey	-12830
▁rag	-12831
ewdie	-12832
inary	-12833
magic	-12834
tying	-12835
струй	-12836
▁IMGP	-12837
▁Last	-12838
▁Pers	-12839
▁Ramp	-12840
▁bast	-12841
▁blan	-12842
▁gary	-12843
▁mick	-12844
▁muay	-12845
▁nude	-12846
▁trow	-12847
▁viol	-12848
▁wins	-12849
studio	-12850
▁Adams	-12851
▁Vines	-12852
▁decks	-12853
▁hoops	-12854
▁panic	-12855
▁soles	-12856
▁tough	-12857
▁wales	-12858
emaking	-12859
isserie	-12860
▁Dakota	-12861
▁arpegg	-12862
▁harmon	-12863
▁having	-12864
▁moment	-12865
▁subway	-12866
▁volume	-12867
▁willow	-12868
Military	-12869
▁Busking	-12870
▁Russell	-12871
▁Stewart	-12872
▁Thunder	-12873
▁holland	-12874
▁royalty	-12875
▁smiling	-12876
▁December	-12877
▁Filipino	-12878
▁Gameplay	-12879
▁Hangouts	-12880
▁laminate	-12881
▁notebook	-12882
▁receitas	-12883
▁sailboat	-12884
Basketball	-12885
▁composite	-12886
▁Relaxation	-12887
▁springboard	-12888
▁Contemporary	-12889
▁conservation	-12890
AF	-12891
mf	-12892
uh	-12893
้น	-12894
▁マ	-12895
aph	-12896
stv	-12897
tip	-12898
ubb	-12899
ест	-12900
▁49	-12901
▁BU	-12902
▁WC	-12903
EIRA	-12904
ENTO	-12905
enez	-12906
inta	-12907
john	-12908
tada	-12909
tart	-12910
tlet	-12911
▁IND	-12912
▁Kam	-12913
▁Mig	-12914
▁Rab	-12915
▁Shr	-12916
▁Vel	-12917
▁bom	-12918
▁dab	-12919
▁pov	-12920
▁sug	-12921
▁uke	-12922
ALLAS	-12923
Comic	-12924
anson	-12925
antes	-12926
apons	-12927
borne	-12928
ramid	-12929
ucson	-12930
▁Arms	-12931
▁Liam	-12932
▁chor	-12933
▁coll	-12934
▁halo	-12935
▁mang	-12936
▁pete	-12937
▁tofu	-12938
illips	-12939
umbers	-12940
▁Baker	-12941
▁Butch	-12942
▁Carol	-12943
▁Eddie	-12944
▁Hedge	-12945
▁MUSIC	-12946
▁Nikon	-12947
▁cedar	-12948
▁escal	-12949
▁gauge	-12950
▁henry	-12951
▁natur	-12952
▁races	-12953
▁reloj	-12954
▁think	-12955
ication	-12956
▁Relief	-12957
▁Shadow	-12958
▁Taiwan	-12959
▁Tandem	-12960
▁Travis	-12961
▁adidas	-12962
▁divers	-12963
▁worker	-12964
▁Stephen	-12965
▁buskers	-12966
▁español	-12967
▁slicing	-12968
▁swallow	-12969
▁trimmer	-12970
▁Grilling	-12971
▁Hamilton	-12972
▁illinois	-12973
▁relation	-12974
▁carpentry	-12975
▁tennessee	-12976
▁Hairstyles	-12977
▁Revolution	-12978
▁challenges	-12979
▁commentary	-12980
▁Development	-12981
▁leathercraft	-12982
PC	-12983
Sc	-12984
り方	-12985
ATH	-12986
BER	-12987
gla	-12988
ifi	-12989
sex	-12990
xus	-12991
▁32	-12992
▁Wy	-12993
▁Ze	-12994
▁gt	-12995
bron	-12996
city	-12997
dele	-12998
iron	-12999
itro	-13000
roat	-13001
▁Lam	-13002
▁Pom	-13003
▁Sau	-13004
▁ara	-13005
▁bex	-13006
▁kap	-13007
▁tac	-13008
▁xxx	-13009
iants	-13010
illet	-13011
urora	-13012
▁Bald	-13013
▁Boom	-13014
▁COMO	-13015
▁Nate	-13016
▁Semi	-13017
▁Troy	-13018
▁Warm	-13019
▁Zone	-13020
▁budd	-13021
▁conc	-13022
▁cure	-13023
▁dick	-13024
▁juan	-13025
▁mesa	-13026
▁rave	-13027
▁tuck	-13028
estone	-13029
ething	-13030
gainst	-13031
lacier	-13032
stones	-13033
▁Extra	-13034
▁abrir	-13035
▁again	-13036
▁allen	-13037
▁along	-13038
▁booty	-13039
▁devil	-13040
▁messy	-13041
▁shuck	-13042
▁teens	-13043
коструй	-13044
▁Attack	-13045
▁DALLAS	-13046
▁Hungry	-13047
▁Nicole	-13048
▁Sierra	-13049
▁carlos	-13050
▁saddle	-13051
▁taiwan	-13052
▁Buffalo	-13053
▁Captain	-13054
▁archive	-13055
▁lighter	-13056
▁moistur	-13057
▁passion	-13058
▁staring	-13059
▁watches	-13060
▁очистка	-13061
▁Atlantic	-13062
▁Bunnings	-13063
▁Scissors	-13064
▁Wildlife	-13065
▁beverage	-13066
▁buzzfeed	-13067
▁dressage	-13068
▁Faceplant	-13069
▁porcelain	-13070
▁Incredible	-13071
▁affordable	-13072
39	-13073
On	-13074
ис	-13075
▁י	-13076
▁ウ	-13077
Pol	-13078
das	-13079
kan	-13080
pal	-13081
▁ik	-13082
300,	-13083
TION	-13084
dorf	-13085
inde	-13086
ingo	-13087
iras	-13088
ishi	-13089
mate	-13090
urop	-13091
▁CBS	-13092
▁CHE	-13093
▁Duo	-13094
▁Lux	-13095
▁Who	-13096
▁alm	-13097
▁bos	-13098
▁hob	-13099
▁kil	-13100
▁пес	-13101
front	-13102
iners	-13103
innie	-13104
onomy	-13105
ovlog	-13106
rella	-13107
rosse	-13108
▁FILE	-13109
▁FISH	-13110
▁Hats	-13111
▁Lane	-13112
▁Lift	-13113
▁Lisa	-13114
▁Lung	-13115
▁Pike	-13116
▁iowa	-13117
▁jane	-13118
▁lisa	-13119
▁mist	-13120
▁root	-13121
▁saut	-13122
▁want	-13123
▁word	-13124
health	-13125
ladesh	-13126
ologia	-13127
tember	-13128
uadern	-13129
▁Allan	-13130
▁Arbor	-13131
▁Grant	-13132
▁Kings	-13133
▁Ridge	-13134
▁Using	-13135
▁WATER	-13136
▁casey	-13137
▁circo	-13138
▁jeans	-13139
▁labor	-13140
▁massa	-13141
▁suede	-13142
ebraska	-13143
naments	-13144
▁Claire	-13145
▁Fabric	-13146
▁Filter	-13147
▁Future	-13148
▁Skater	-13149
▁Techno	-13150
▁calcul	-13151
▁denver	-13152
▁gordon	-13153
▁holdem	-13154
▁jungle	-13155
▁marina	-13156
▁primer	-13157
▁puerto	-13158
▁rhythm	-13159
▁slides	-13160
▁tumble	-13161
Canadian	-13162
interest	-13163
▁Farrier	-13164
▁blender	-13165
▁burgers	-13166
▁editing	-13167
▁forward	-13168
▁pigeons	-13169
▁stencil	-13170
▁tourist	-13171
ilitation	-13172
▁Potatoes	-13173
▁Wireless	-13174
▁guitarra	-13175
▁portugal	-13176
▁stomping	-13177
▁Corporate	-13178
▁Sebastian	-13179
▁handcraft	-13180
▁questions	-13181
▁stockfootage	-13182
än	-13183
μα	-13184
не	-13185
▁ó	-13186
ート	-13187
aky	-13188
atz	-13189
caa	-13190
fel	-13191
igu	-13192
toy	-13193
wal	-13194
ков	-13195
▁Bh	-13196
▁FA	-13197
▁IV	-13198
▁NZ	-13199
▁ly	-13200
▁ug	-13201
▁ин	-13202
▁ки	-13203
▁те	-13204
chat	-13205
elia	-13206
eway	-13207
gill	-13208
live	-13209
wrap	-13210
▁101	-13211
▁Ana	-13212
▁Are	-13213
▁Leo	-13214
▁Oll	-13215
▁Ori	-13216
▁TUT	-13217
▁dup	-13218
▁maj	-13219
▁pok	-13220
▁sau	-13221
▁sir	-13222
▁кар	-13223
acing	-13224
fight	-13225
itung	-13226
piper	-13227
rique	-13228
rones	-13229
swing	-13230
uerte	-13231
▁Bail	-13232
▁Bart	-13233
▁Budd	-13234
▁DCDM	-13235
▁Dart	-13236
▁Jong	-13237
▁Lang	-13238
▁Mask	-13239
▁Poke	-13240
▁bord	-13241
▁jean	-13242
▁papa	-13243
alleye	-13244
earing	-13245
entals	-13246
ullaby	-13247
▁Marie	-13248
▁Megan	-13249
▁Strip	-13250
▁Trash	-13251
▁Vlogs	-13252
▁berry	-13253
▁cesta	-13254
▁fries	-13255
▁lever	-13256
▁param	-13257
▁scrip	-13258
▁weeks	-13259
erguson	-13260
▁Jingle	-13261
▁Joshua	-13262
▁Scenes	-13263
▁Telugu	-13264
▁specta	-13265
Material	-13266
otherapy	-13267
tational	-13268
▁Glasses	-13269
▁Strange	-13270
▁electro	-13271
▁fitting	-13272
▁florist	-13273
▁freedom	-13274
▁lincoln	-13275
▁package	-13276
▁stephen	-13277
▁stylist	-13278
▁Official	-13279
▁Politics	-13280
▁aquarium	-13281
▁basketry	-13282
▁ensemble	-13283
▁foraging	-13284
▁maryland	-13285
▁Specialty	-13286
▁materials	-13287
▁saltwater	-13288
▁spiritual	-13289
▁artesanato	-13290
TF	-13291
WC	-13292
009	-13293
ACE	-13294
ITH	-13295
URF	-13296
ahn	-13297
eye	-13298
idd	-13299
ims	-13300
ska	-13301
uds	-13302
ими	-13303
чес	-13304
▁NH	-13305
▁Ni	-13306
atin	-13307
aton	-13308
endy	-13309
eyer	-13310
fred	-13311
ides	-13312
leep	-13313
reel	-13314
▁CRO	-13315
▁Flo	-13316
▁Hog	-13317
▁SDV	-13318
▁aim	-13319
▁geo	-13320
▁kir	-13321
▁الم	-13322
banez	-13323
ennai	-13324
etics	-13325
ithic	-13326
legic	-13327
lenda	-13328
posal	-13329
ringe	-13330
scent	-13331
throw	-13332
▁Bark	-13333
▁Chen	-13334
▁Feed	-13335
▁Jeep	-13336
▁Knit	-13337
▁Neil	-13338
▁Vari	-13339
▁cape	-13340
▁crap	-13341
▁host	-13342
▁rage	-13343
▁rear	-13344
▁shay	-13345
▁vida	-13346
▁wick	-13347
sports	-13348
strong	-13349
ursday	-13350
▁Cycle	-13351
▁Early	-13352
▁Maker	-13353
▁Niger	-13354
▁Singh	-13355
▁Sunny	-13356
▁TATIE	-13357
▁Trial	-13358
▁broom	-13359
▁cerve	-13360
▁cinem	-13361
▁faces	-13362
▁heads	-13363
▁heels	-13364
▁khmer	-13365
▁melon	-13366
▁metro	-13367
▁pouch	-13368
▁serve	-13369
▁skull	-13370
▁still	-13371
▁visit	-13372
duation	-13373
▁Diesel	-13374
▁Lounge	-13375
▁Pastry	-13376
▁Pepper	-13377
▁Planet	-13378
▁almond	-13379
▁boiled	-13380
▁lauren	-13381
▁prince	-13382
▁stucco	-13383
▁temple	-13384
ewdiepie	-13385
pedition	-13386
▁Brewery	-13387
▁Farming	-13388
▁Garrett	-13389
▁General	-13390
▁Varsity	-13391
▁antonio	-13392
▁braided	-13393
▁posture	-13394
▁roasted	-13395
▁snooker	-13396
▁twitter	-13397
▁vinegar	-13398
▁Krumping	-13399
▁drilling	-13400
▁jennifer	-13401
▁positive	-13402
▁Recycling	-13403
▁escultura	-13404
▁Automotive	-13405
▁highschool	-13406
▁sharpeners	-13407
▁swallowing	-13408
▁Switzerland	-13409
▁centerpiece	-13410
▁architecture	-13411
ια	-13412
หม	-13413
▁ק	-13414
▁อ	-13415
006	-13416
ags	-13417
fal	-13418
tes	-13419
▁3-	-13420
▁Aw	-13421
▁CS	-13422
▁RV	-13423
▁cs	-13424
▁od	-13425
▁му	-13426
airo	-13427
eria	-13428
ovak	-13429
▁Hem	-13430
▁Yog	-13431
▁gos	-13432
▁ian	-13433
▁ome	-13434
ewear	-13435
girls	-13436
oshop	-13437
▁Mand	-13438
▁Pinn	-13439
▁Seas	-13440
▁Spar	-13441
▁Tyre	-13442
▁aven	-13443
▁bene	-13444
▁carl	-13445
▁deaf	-13446
▁gram	-13447
▁peak	-13448
▁Груз	-13449
Indian	-13450
icious	-13451
ilight	-13452
imbers	-13453
owanie	-13454
papers	-13455
sticks	-13456
▁Spark	-13457
▁Tahoe	-13458
▁birch	-13459
▁didge	-13460
▁eight	-13461
▁emily	-13462
▁idaho	-13463
▁inten	-13464
▁order	-13465
▁Donald	-13466
▁Finals	-13467
▁Kinder	-13468
▁bagger	-13469
▁batman	-13470
▁cannon	-13471
▁casual	-13472
▁diesel	-13473
▁formal	-13474
▁hannah	-13475
▁johnny	-13476
▁loader	-13477
▁salads	-13478
▁sheets	-13479
▁trying	-13480
Religion	-13481
ervation	-13482
▁Ceramic	-13483
▁Oysters	-13484
▁Reality	-13485
▁TATIEJO	-13486
▁beyonce	-13487
▁bottles	-13488
▁Carnival	-13489
▁Mercedes	-13490
▁Paradise	-13491
▁binaural	-13492
▁clippers	-13493
▁refinish	-13494
▁Motocross	-13495
▁champions	-13496
▁shoelaces	-13497
▁snapbacks	-13498
▁Industrial	-13499
▁Occupation	-13500
▁Pittsburgh	-13501
▁Recreation	-13502
▁Celebration	-13503
▁racquetball	-13504
BB	-13505
UA	-13506
▁김	-13507
애견	-13508
UST	-13509
cup	-13510
ulo	-13511
▁nh	-13512
▁nz	-13513
▁ox	-13514
▁ジャ	-13515
MENT	-13516
ecca	-13517
esis	-13518
igen	-13519
inge	-13520
inoa	-13521
lude	-13522
ongs	-13523
▁150	-13524
▁Ari	-13525
▁Beh	-13526
▁Cry	-13527
▁Exp	-13528
▁Gel	-13529
▁Gro	-13530
▁ach	-13531
▁ran	-13532
▁sak	-13533
▁sig	-13534
▁tae	-13535
asota	-13536
rared	-13537
▁005,	-13538
▁Dual	-13539
▁Fork	-13540
▁Heat	-13541
▁MAKE	-13542
▁Next	-13543
▁Pale	-13544
▁Ster	-13545
▁Stom	-13546
▁Very	-13547
▁Yolk	-13548
▁cath	-13549
▁coor	-13550
▁diff	-13551
▁duet	-13552
▁mega	-13553
▁rome	-13554
▁vans	-13555
portes	-13556
▁2000,	-13557
▁Chuan	-13558
▁Devil	-13559
▁Flies	-13560
▁Griff	-13561
▁Quart	-13562
▁Riley	-13563
▁Works	-13564
▁balão	-13565
▁canoe	-13566
▁craig	-13567
▁manic	-13568
▁ombre	-13569
▁parks	-13570
▁stair	-13571
▁tempo	-13572
▁vapor	-13573
▁wedge	-13574
▁worst	-13575
Station	-13576
tingham	-13577
▁Person	-13578
▁cooper	-13579
▁damage	-13580
▁fiesta	-13581
▁jeremy	-13582
▁please	-13583
▁pushup	-13584
▁runner	-13585
▁декора	-13586
▁Designs	-13587
▁cebolla	-13588
▁magisto	-13589
▁spanner	-13590
▁stomach	-13591
▁Drawings	-13592
▁Dumbbell	-13593
▁Hardcore	-13594
▁Magician	-13595
▁Material	-13596
▁Supplies	-13597
▁Thompson	-13598
▁Watering	-13599
▁cambodia	-13600
▁contract	-13601
▁recovery	-13602
▁shepherd	-13603
▁triggers	-13604
▁Packaging	-13605
▁Panasonic	-13606
▁Waterfall	-13607
▁institute	-13608
▁microwave	-13609
▁appliances	-13610
▁automobiles	-13611
Co	-13612
He	-13613
RI	-13614
YS	-13615
▁л	-13616
▁ח	-13617
ター	-13618
URA	-13619
hey	-13620
jah	-13621
lbs	-13622
umo	-13623
wim	-13624
рен	-13625
ция	-13626
▁5.	-13627
▁EG	-13628
▁Mi	-13629
▁VI	-13630
▁ft	-13631
500,	-13632
Amus	-13633
aula	-13634
iere	-13635
ifty	-13636
iggs	-13637
iots	-13638
iros	-13639
isme	-13640
▁500	-13641
▁Mik	-13642
▁lob	-13643
▁tun	-13644
haust	-13645
opper	-13646
▁500,	-13647
▁Bond	-13648
▁CLIP	-13649
▁Gets	-13650
▁Groo	-13651
▁Ital	-13652
▁Joey	-13653
▁LEGO	-13654
▁Swan	-13655
▁expo	-13656
▁iPod	-13657
▁kent	-13658
▁kong	-13659
▁kris	-13660
▁much	-13661
▁seed	-13662
inster	-13663
quette	-13664
uggage	-13665
▁Fries	-13666
▁Hello	-13667
▁Stomp	-13668
▁arche	-13669
▁baker	-13670
▁belle	-13671
▁depth	-13672
▁looks	-13673
▁tocar	-13674
▁Hotdog	-13675
▁Trains	-13676
▁Venice	-13677
▁horror	-13678
▁mental	-13679
▁nathan	-13680
▁ownage	-13681
▁pigeon	-13682
▁retard	-13683
▁tables	-13684
▁Skydive	-13685
▁Species	-13686
▁coating	-13687
▁intense	-13688
▁phantom	-13689
▁recital	-13690
▁texture	-13691
▁вязание	-13692
Amusement	-13693
▁Windsurf	-13694
▁Workouts	-13695
▁flawless	-13696
▁republic	-13697
▁waterski	-13698
▁Horseshoe	-13699
▁craftsman	-13700
▁mcdonalds	-13701
▁waterproof	-13702
▁Scrapbooking	-13703
▁organization	-13704
2.	-13705
34	-13706
57	-13707
UK	-13708
nh	-13709
ци	-13710
ام	-13711
อน	-13712
าน	-13713
URE	-13714
idu	-13715
mix	-13716
tem	-13717
зор	-13718
чка	-13719
▁HO	-13720
▁PD	-13721
▁SB	-13722
▁dh	-13723
▁og	-13724
Work	-13725
anya	-13726
ebur	-13727
vard	-13728
▁31,	-13729
▁Cir	-13730
▁Gad	-13731
▁Ges	-13732
▁Koh	-13733
▁Lum	-13734
▁bio	-13735
▁gaa	-13736
▁sod	-13737
▁yes	-13738
▁сво	-13739
ables	-13740
atura	-13741
ittee	-13742
ongol	-13743
ought	-13744
ricks	-13745
union	-13746
▁Chat	-13747
▁Mail	-13748
▁Pige	-13749
▁Rapp	-13750
▁Sick	-13751
▁arro	-13752
▁bali	-13753
▁hamm	-13754
▁lord	-13755
▁mama	-13756
▁patt	-13757
▁rout	-13758
▁webs	-13759
asters	-13760
tsdale	-13761
▁2020,	-13762
▁Bacon	-13763
▁Bands	-13764
▁Cheap	-13765
▁Doors	-13766
▁Husky	-13767
▁Knots	-13768
▁Ultra	-13769
▁While	-13770
▁islam	-13771
▁jacob	-13772
▁never	-13773
▁Galway	-13774
▁Garage	-13775
▁Madrid	-13776
▁Marcus	-13777
▁Parker	-13778
▁Pedido	-13779
▁Target	-13780
▁jumper	-13781
▁object	-13782
▁puppet	-13783
▁smoked	-13784
▁veneer	-13785
atherine	-13786
▁Filling	-13787
▁Moments	-13788
▁aplicar	-13789
▁artists	-13790
▁biryani	-13791
▁compact	-13792
▁spinner	-13793
▁stylish	-13794
▁wrestle	-13795
▁Hardware	-13796
▁increase	-13797
▁knockout	-13798
▁missouri	-13799
▁tomahawk	-13800
▁Blueberry	-13801
▁piercings	-13802
▁декоратив	-13803
▁calisthenics	-13804
▁marshmallows	-13805
▁Improvisation	-13806
NC	-13807
Sk	-13808
لي	-13809
ور	-13810
▁แ	-13811
▁お	-13812
▁大	-13813
ADO	-13814
TOR	-13815
abl	-13816
eca	-13817
esp	-13818
gor	-13819
nan	-13820
run	-13821
wen	-13822
▁70	-13823
▁Ce	-13824
▁ED	-13825
101,	-13826
arel	-13827
azda	-13828
enos	-13829
iman	-13830
utee	-13831
utor	-13832
▁CRA	-13833
▁MAG	-13834
▁POV	-13835
▁Tig	-13836
▁Wol	-13837
▁kur	-13838
▁tak	-13839
▁пок	-13840
ESTIR	-13841
anies	-13842
derab	-13843
icate	-13844
ifter	-13845
kward	-13846
rible	-13847
rical	-13848
▁Butt	-13849
▁Finn	-13850
▁KIDS	-13851
▁Schn	-13852
▁name	-13853
▁shar	-13854
▁sofa	-13855
▁trad	-13856
▁wavy	-13857
liance	-13858
▁Blind	-13859
▁Bosch	-13860
▁Brass	-13861
▁Coral	-13862
▁Roger	-13863
▁blond	-13864
▁cheat	-13865
▁pussy	-13866
▁rally	-13867
▁tenor	-13868
▁vodka	-13869
Textile	-13870
▁Colors	-13871
▁Connor	-13872
▁Edward	-13873
▁Pastor	-13874
▁Timber	-13875
▁armpit	-13876
▁chilli	-13877
▁exfoli	-13878
▁growth	-13879
▁masala	-13880
▁salute	-13881
▁turtle	-13882
▁руками	-13883
ographer	-13884
▁Casting	-13885
▁Kittens	-13886
▁Puzzles	-13887
▁Version	-13888
▁destroy	-13889
▁jessica	-13890
▁landing	-13891
▁polaris	-13892
▁society	-13893
▁stories	-13894
▁Edmonton	-13895
▁Hawaiian	-13896
▁Printing	-13897
▁Richmond	-13898
▁Whistler	-13899
▁abstract	-13900
▁applause	-13901
▁inspired	-13902
▁kentucky	-13903
▁mechanic	-13904
▁Fireworks	-13905
▁Louisiana	-13906
▁Flexibility	-13907
▁residential	-13908
WN	-13909
רי	-13910
▁Н	-13911
▁ש	-13912
250	-13913
Car	-13914
IFE	-13915
UMB	-13916
cep	-13917
eme	-13918
iek	-13919
▁4-	-13920
▁MN	-13921
▁PM	-13922
▁mx	-13923
▁ро	-13924
True	-13925
chez	-13926
cook	-13927
elps	-13928
erez	-13929
inez	-13930
ária	-13931
▁Emb	-13932
▁Idi	-13933
▁Kap	-13934
▁Lot	-13935
▁Maj	-13936
▁faz	-13937
▁hed	-13938
▁sho	-13939
2014,	-13940
horse	-13941
illes	-13942
iring	-13943
lyssa	-13944
▁Cade	-13945
▁Cows	-13946
▁Keys	-13947
▁Magn	-13948
▁cass	-13949
▁file	-13950
▁gray	-13951
▁mold	-13952
▁pisc	-13953
▁than	-13954
ateral	-13955
button	-13956
▁Bikes	-13957
▁Boots	-13958
▁Islam	-13959
▁Rehab	-13960
▁birth	-13961
▁burps	-13962
▁famil	-13963
▁lucas	-13964
▁minor	-13965
▁pedal	-13966
▁roupa	-13967
▁stuck	-13968
▁thumb	-13969
▁trial	-13970
amaican	-13971
▁Bounce	-13972
▁Facial	-13973
▁Floral	-13974
▁Injury	-13975
▁Olivia	-13976
▁Parody	-13977
▁Screen	-13978
▁Thread	-13979
▁Vision	-13980
▁brunch	-13981
▁cinema	-13982
▁edible	-13983
▁melhor	-13984
▁rights	-13985
▁spices	-13986
▁twitch	-13987
▁Arrange	-13988
▁Classes	-13989
▁blanket	-13990
▁cadeira	-13991
▁excited	-13992
▁Backpack	-13993
▁Backyard	-13994
▁Bulgaria	-13995
▁Cheering	-13996
▁Headbutt	-13997
▁MONESTIR	-13998
▁Videojug	-13999
▁audience	-14000
▁cachorro	-14001
▁underarm	-14002
▁Decoupage	-14003
▁Discovery	-14004
▁Warehouse	-14005
▁authentic	-14006
▁household	-14007
▁Swallowing	-14008
▁Restaurants	-14009
▁Glassblowing	-14010
32	-14011
4.	-14012
YE	-14013
fs	-14014
ני	-14015
▁ב	-14016
▁コ	-14017
▁日	-14018
MER	-14019
agg	-14020
ois	-14021
▁BA	-14022
▁EV	-14023
▁Ku	-14024
▁Ps	-14025
abel	-14026
adia	-14027
alla	-14028
amel	-14029
cats	-14030
dess	-14031
lane	-14032
ushu	-14033
▁Bak	-14034
▁FIS	-14035
▁Jak	-14036
▁Kon	-14037
▁Lac	-14038
▁Mai	-14039
▁Nig	-14040
▁WIN	-14041
▁ari	-14042
▁cyc	-14043
▁doo	-14044
▁mug	-14045
▁slo	-14046
▁uni	-14047
▁vai	-14048
ORIAL	-14049
alore	-14050
ercic	-14051
ewood	-14052
techn	-14053
unger	-14054
▁Cris	-14055
▁Cuba	-14056
▁Hits	-14057
▁Lind	-14058
▁Nurs	-14059
▁Rave	-14060
▁Trek	-14061
▁cata	-14062
▁mare	-14063
▁mile	-14064
ellent	-14065
review	-14066
screen	-14067
▁Corps	-14068
▁Czech	-14069
▁Feder	-14070
▁Jacks	-14071
▁Jerry	-14072
▁Lakes	-14073
▁Perry	-14074
▁Squad	-14075
▁Steps	-14076
▁crown	-14077
▁derby	-14078
▁dozer	-14079
▁graff	-14080
▁kenya	-14081
▁layer	-14082
▁logan	-14083
▁nasty	-14084
▁rodas	-14085
▁rough	-14086
vietten	-14087
▁Busker	-14088
▁Cement	-14089
▁Fights	-14090
▁Morris	-14091
▁detail	-14092
▁finals	-14093
▁gargle	-14094
▁lebron	-14095
▁peanut	-14096
▁scouts	-14097
▁sunday	-14098
▁Pokemon	-14099
▁barbers	-14100
▁catcher	-14101
▁constru	-14102
▁couples	-14103
▁easiest	-14104
▁horizon	-14105
▁kingdom	-14106
▁laranja	-14107
▁mermaid	-14108
▁podcast	-14109
▁popcorn	-14110
▁alphabet	-14111
▁columbia	-14112
▁lockpick	-14113
▁mustache	-14114
▁Asheville	-14115
▁Champions	-14116
▁Cleveland	-14117
▁aluminium	-14118
▁preschool	-14119
▁attachment	-14120
▁auctioneer	-14121
▁destination	-14122
38	-14123
Do	-14124
LC	-14125
ел	-14126
ся	-14127
▁ס	-14128
▁ว	-14129
Mar	-14130
inj	-14131
uxe	-14132
yme	-14133
▁CD	-14134
▁MV	-14135
▁Ny	-14136
▁Ru	-14137
▁TK	-14138
athi	-14139
epad	-14140
ipeg	-14141
muda	-14142
ndan	-14143
oole	-14144
▁Abb	-14145
▁BMX	-14146
▁Bun	-14147
▁Cit	-14148
▁Gig	-14149
▁MIN	-14150
▁Mys	-14151
▁Ple	-14152
▁amb	-14153
▁fas	-14154
▁has	-14155
▁yan	-14156
etime	-14157
ighth	-14158
itled	-14159
liner	-14160
olulu	-14161
shore	-14162
usher	-14163
vador	-14164
▁Bene	-14165
▁Huge	-14166
▁Pure	-14167
▁Sole	-14168
▁Suit	-14169
▁calm	-14170
▁copy	-14171
▁ebay	-14172
▁lent	-14173
▁mano	-14174
▁mont	-14175
▁pair	-14176
▁plug	-14177
▁tune	-14178
burger	-14179
раплан	-14180
▁2019,	-14181
▁Amber	-14182
▁Crawl	-14183
▁Crown	-14184
▁Liter	-14185
▁Multi	-14186
▁Waste	-14187
▁bosch	-14188
▁bride	-14189
▁camps	-14190
▁drugs	-14191
▁grain	-14192
▁krist	-14193
▁nymph	-14194
▁penny	-14195
aturday	-14196
axonomy	-14197
jumping	-14198
▁baller	-14199
▁credit	-14200
▁fitted	-14201
▁idiots	-14202
▁kansas	-14203
▁lyrics	-14204
▁points	-14205
▁своими	-14206
▁Cameron	-14207
▁Experim	-14208
▁Melissa	-14209
▁bedroom	-14210
▁calgary	-14211
▁cutlery	-14212
▁howcast	-14213
▁message	-14214
▁tequila	-14215
▁warfare	-14216
▁Checkers	-14217
▁Doughnut	-14218
▁Producer	-14219
▁Projects	-14220
▁dropkick	-14221
▁holistic	-14222
▁scramble	-14223
▁trending	-14224
▁Surfboard	-14225
▁Universal	-14226
▁malabares	-14227
▁paintings	-14228
▁spiderman	-14229
▁vacuuming	-14230
▁arrowheads	-14231
▁elementary	-14232
▁flyfishing	-14233
▁landsailing	-14234
47	-14235
PR	-14236
ál	-14237
ρα	-14238
ين	-14239
▁[	-14240
▁ไ	-14241
ERO	-14242
chs	-14243
fla	-14244
wer	-14245
zie	-14246
ère	-14247
ных	-14248
▁MY	-14249
▁SR	-14250
▁XC	-14251
▁dw	-14252
▁ku	-14253
anni	-14254
cont	-14255
fect	-14256
idor	-14257
ilia	-14258
orca	-14259
ovis	-14260
umbo	-14261
umel	-14262
▁Ful	-14263
▁GOL	-14264
▁Has	-14265
▁Lav	-14266
▁Nam	-14267
▁SHO	-14268
▁Unt	-14269
▁cad	-14270
▁iss	-14271
▁rib	-14272
▁tat	-14273
▁tay	-14274
BOARD	-14275
arent	-14276
cross	-14277
enzie	-14278
lifts	-14279
▁1000	-14280
▁Cruz	-14281
▁Read	-14282
▁Rust	-14283
▁Trio	-14284
▁audi	-14285
▁babe	-14286
▁bras	-14287
▁bros	-14288
▁drew	-14289
▁hiit	-14290
▁idol	-14291
▁joey	-14292
▁kate	-14293
▁kobe	-14294
Camera	-14295
events	-14296
hockey	-14297
itical	-14298
ources	-14299
ranean	-14300
usting	-14301
utador	-14302
▁Canoe	-14303
▁Carro	-14304
▁Colin	-14305
▁Gross	-14306
▁Photo	-14307
▁Veter	-14308
▁chili	-14309
▁corte	-14310
▁mista	-14311
▁musik	-14312
▁tommy	-14313
innipeg	-14314
▁Amazon	-14315
▁Around	-14316
▁Before	-14317
▁Chiang	-14318
▁Colour	-14319
▁arctic	-14320
▁argent	-14321
▁balões	-14322
▁glutes	-14323
▁kerala	-14324
▁marker	-14325
▁memory	-14326
▁paints	-14327
▁tracks	-14328
▁Aerosol	-14329
▁Bagpipe	-14330
▁Chasing	-14331
▁OneTrue	-14332
▁Pushing	-14333
▁Vermont	-14334
▁Without	-14335
▁garrafa	-14336
▁orchard	-14337
▁profile	-14338
▁sealing	-14339
▁thrower	-14340
mpolining	-14341
▁Boarding	-14342
▁Climbers	-14343
▁backhand	-14344
▁calories	-14345
▁cheering	-14346
▁firewood	-14347
▁pumpkins	-14348
▁slapping	-14349
Australian	-14350
▁Extension	-14351
▁Finishing	-14352
▁Stability	-14353
▁unloading	-14354
▁weightloss	-14355
▁Breaststroke	-14356
▁OneTrueMedia	-14357
56	-14358
wo	-14359
▁이	-14360
ード	-14361
004	-14362
ITY	-14363
OCK	-14364
eli	-14365
hog	-14366
mir	-14367
ouk	-14368
ถัก	-14369
▁1/	-14370
▁38	-14371
▁ez	-14372
acao	-14373
arin	-14374
arus	-14375
isle	-14376
oise	-14377
orie	-14378
ovan	-14379
uits	-14380
▁McK	-14381
▁Sin	-14382
▁TOP	-14383
▁Tay	-14384
▁ave	-14385
▁dul	-14386
▁gio	-14387
▁mai	-14388
▁mik	-14389
▁nos	-14390
▁sah	-14391
▁wii	-14392
arita	-14393
avens	-14394
elles	-14395
iform	-14396
ishna	-14397
istas	-14398
ruary	-14399
▁0003	-14400
▁Aven	-14401
▁Hawk	-14402
▁Lanc	-14403
▁Luis	-14404
▁Poly	-14405
▁Safe	-14406
▁Walt	-14407
▁bajo	-14408
▁beth	-14409
▁cara	-14410
▁chic	-14411
▁drug	-14412
▁evan	-14413
▁fart	-14414
▁garn	-14415
▁gene	-14416
▁kenn	-14417
▁kwon	-14418
▁many	-14419
▁nuts	-14420
▁soph	-14421
▁tied	-14422
▁whip	-14423
ademia	-14424
asmine	-14425
flower	-14426
pieces	-14427
▁20090	-14428
▁20101	-14429
▁Larry	-14430
▁Lucky	-14431
▁PAPER	-14432
▁Patri	-14433
▁Screw	-14434
▁Susan	-14435
▁chefs	-14436
▁chevy	-14437
▁culin	-14438
▁faith	-14439
▁mules	-14440
▁playa	-14441
▁proof	-14442
▁toast	-14443
▁whats	-14444
aulting	-14445
estañas	-14446
strings	-14447
▁Ground	-14448
▁Mickey	-14449
▁Postal	-14450
▁giggle	-14451
▁greece	-14452
▁length	-14453
▁mature	-14454
▁oliver	-14455
▁sierra	-14456
▁simply	-14457
Taxonomy	-14458
▁Phantom	-14459
▁Systems	-14460
▁airsoft	-14461
▁captain	-14462
▁finland	-14463
▁garrett	-14464
▁lantern	-14465
▁lesbian	-14466
▁longest	-14467
▁Mitchell	-14468
▁Saturday	-14469
▁pushdown	-14470
▁scalelab	-14471
▁snapping	-14472
▁whistler	-14473
▁Marketing	-14474
▁Stainless	-14475
▁apartment	-14476
▁balancing	-14477
▁evolution	-14478
▁hydraulic	-14479
▁smoothies	-14480
▁steelhead	-14481
▁Federation	-14482
▁playground	-14483
▁transition	-14484
▁valentines	-14485
▁waterslide	-14486
gt	-14487
lé	-14488
▁О	-14489
▁하	-14490
acc	-14491
aid	-14492
alp	-14493
pee	-14494
pol	-14495
зин	-14496
ной	-14497
▁KR	-14498
▁NE	-14499
▁Ut	-14500
▁ла	-14501
abul	-14502
agua	-14503
anti	-14504
asis	-14505
bowl	-14506
elin	-14507
fold	-14508
gang	-14509
hism	-14510
ogen	-14511
rans	-14512
sten	-14513
▁Amp	-14514
▁Caf	-14515
▁Mol	-14516
▁PSA	-14517
▁amy	-14518
▁vag	-14519
▁wie	-14520
Laugh	-14521
andez	-14522
anity	-14523
green	-14524
iatsu	-14525
overn	-14526
ymbol	-14527
▁Fake	-14528
▁Joel	-14529
▁Most	-14530
▁Sara	-14531
▁chee	-14532
▁eyed	-14533
▁hose	-14534
▁luis	-14535
▁mort	-14536
▁nich	-14537
▁punt	-14538
clipse	-14539
▁2005,	-14540
▁Retro	-14541
▁Trump	-14542
▁acord	-14543
▁amber	-14544
▁manga	-14545
▁prime	-14546
▁queso	-14547
▁troll	-14548
erstars	-14549
ievable	-14550
rolling	-14551
▁Author	-14552
▁Button	-14553
▁Circle	-14554
▁Harbor	-14555
▁Hidden	-14556
▁Instru	-14557
▁Latest	-14558
▁Marina	-14559
▁Months	-14560
▁addict	-14561
▁divert	-14562
▁hidden	-14563
▁kinder	-14564
▁parade	-14565
▁slowmo	-14566
▁Britain	-14567
▁Council	-14568
▁boulder	-14569
▁plywood	-14570
▁spindle	-14571
▁Abrasive	-14572
▁Ceremony	-14573
▁Interpre	-14574
▁planning	-14575
▁websites	-14576
▁параплан	-14577
▁arrowhead	-14578
▁cabinetry	-14579
▁Sacramento	-14580
▁aboriginal	-14581
▁adjustable	-14582
▁unicycling	-14583
▁inspirational	-14584
59	-14585
oi	-14586
xx	-14587
ου	-14588
cot	-14589
fil	-14590
hra	-14591
iop	-14592
mie	-14593
▁Dh	-14594
▁LO	-14595
▁Oz	-14596
▁sj	-14597
▁té	-14598
Live	-14599
acro	-14600
aixa	-14601
ifes	-14602
meal	-14603
orgh	-14604
rack	-14605
scar	-14606
tube	-14607
umph	-14608
urve	-14609
дела	-14610
▁#2,	-14611
▁AMA	-14612
▁CLE	-14613
▁Cad	-14614
▁Saf	-14615
▁gat	-14616
▁gol	-14617
▁lak	-14618
▁спи	-14619
aware	-14620
cakes	-14621
ugene	-14622
▁009,	-14623
▁2017	-14624
▁Dick	-14625
▁Duty	-14626
▁Hood	-14627
▁Horn	-14628
▁Rage	-14629
▁Reel	-14630
▁Tags	-14631
▁amus	-14632
▁anna	-14633
▁bolt	-14634
▁born	-14635
▁coal	-14636
▁faux	-14637
▁mane	-14638
▁mash	-14639
▁shut	-14640
▁sore	-14641
▁swan	-14642
▁vela	-14643
▁yang	-14644
driver	-14645
eshire	-14646
iantes	-14647
othing	-14648
▁Beans	-14649
▁Bunny	-14650
▁Graph	-14651
▁Lanka	-14652
▁Pinoy	-14653
▁Slice	-14654
▁bobby	-14655
▁choir	-14656
▁cigar	-14657
▁combo	-14658
▁spice	-14659
▁twerk	-14660
▁veter	-14661
English	-14662
derland	-14663
itation	-14664
keleton	-14665
ractive	-14666
▁Adrian	-14667
▁Cumbia	-14668
▁Jetski	-14669
▁chicks	-14670
▁exotic	-14671
▁played	-14672
▁rotary	-14673
▁skinny	-14674
▁waking	-14675
▁Barbara	-14676
▁Hurdles	-14677
▁Release	-14678
▁Warrior	-14679
▁ancient	-14680
▁forever	-14681
▁general	-14682
▁luggage	-14683
▁quickly	-14684
▁section	-14685
▁Crafting	-14686
▁Domestic	-14687
▁Downtown	-14688
▁Geocache	-14689
▁stamping	-14690
▁trainers	-14691
believable	-14692
▁cocktails	-14693
▁etiquette	-14694
▁gastronom	-14695
▁Birmingham	-14696
▁cappuccino	-14697
▁Alternative	-14698
▁Application	-14699
21	-14700
EZ	-14701
lb	-14702
oz	-14703
ед	-14704
▁ح	-14705
▁パ	-14706
ンス	-14707
動画	-14708
Dog	-14709
How	-14710
IKE	-14711
MAG	-14712
bob	-14713
hel	-14714
raq	-14715
ums	-14716
▁Hu	-14717
▁ib	-14718
▁ба	-14719
Ball	-14720
flex	-14721
iane	-14722
ogue	-14723
warz	-14724
▁600	-14725
▁BIG	-14726
▁CAN	-14727
▁Gur	-14728
▁HAR	-14729
▁Ink	-14730
▁Mos	-14731
▁Wag	-14732
▁hos	-14733
▁joh	-14734
▁sik	-14735
▁sud	-14736
angar	-14737
ellig	-14738
eutic	-14739
feder	-14740
ienne	-14741
igong	-14742
rance	-14743
right	-14744
tanga	-14745
▁Clap	-14746
▁Fans	-14747
▁Ivan	-14748
▁KICK	-14749
▁Keep	-14750
▁Left	-14751
▁List	-14752
▁Mira	-14753
▁Sold	-14754
▁gate	-14755
▁nine	-14756
▁obra	-14757
▁pics	-14758
▁roda	-14759
▁sock	-14760
▁vict	-14761
diving	-14762
illian	-14763
▁Homes	-14764
▁Torch	-14765
▁alone	-14766
▁built	-14767
▁float	-14768
▁kinky	-14769
▁mitch	-14770
▁niños	-14771
▁perry	-14772
▁physi	-14773
▁quads	-14774
▁shiny	-14775
▁класс	-14776
blading	-14777
channel	-14778
cooking	-14779
workout	-14780
▁Border	-14781
▁Braids	-14782
▁Lunges	-14783
▁Moscow	-14784
▁Sander	-14785
▁brutal	-14786
▁bryant	-14787
▁clases	-14788
▁harbor	-14789
▁harlem	-14790
▁jacket	-14791
▁pieces	-14792
▁warped	-14793
▁wizard	-14794
eboarder	-14795
▁Shampoo	-14796
▁aprende	-14797
▁bangkok	-14798
▁charles	-14799
▁deporte	-14800
▁mustang	-14801
▁protect	-14802
▁volunte	-14803
▁Machines	-14804
▁TUTORIAL	-14805
▁acroyoga	-14806
▁bailando	-14807
▁footwork	-14808
▁jonathan	-14809
▁sculptor	-14810
▁teenager	-14811
▁wingsuit	-14812
▁Chevrolet	-14813
▁crossover	-14814
▁traveling	-14815
▁Prevention	-14816
▁pirouettes	-14817
▁leatherwork	-14818
▁progressive	-14819
48	-14820
JA	-14821
qv	-14822
yp	-14823
τα	-14824
са	-14825
хо	-14826
▁$	-14827
▁π	-14828
▁И	-14829
ース	-14830
-12	-14831
AMP	-14832
ITE	-14833
ORD	-14834
bed	-14835
idy	-14836
iem	-14837
jab	-14838
pex	-14839
рия	-14840
▁47	-14841
▁KS	-14842
▁Si	-14843
▁VA	-14844
▁со	-14845
dora	-14846
edas	-14847
hale	-14848
holm	-14849
ioni	-14850
lass	-14851
olar	-14852
ttes	-14853
utos	-14854
yler	-14855
▁Alb	-14856
▁CAP	-14857
▁DJI	-14858
▁Jud	-14859
▁Kle	-14860
▁ONE	-14861
▁Pip	-14862
▁Ran	-14863
▁Vic	-14864
▁alt	-14865
▁blu	-14866
▁eve	-14867
▁fed	-14868
▁had	-14869
▁owl	-14870
▁tek	-14871
▁wak	-14872
▁wiz	-14873
▁кор	-14874
20110	-14875
alini	-14876
atoes	-14877
eding	-14878
isted	-14879
▁Gall	-14880
▁Lily	-14881
▁Maya	-14882
▁Rams	-14883
▁Remo	-14884
▁Yawn	-14885
▁bits	-14886
▁cage	-14887
▁done	-14888
▁holy	-14889
▁mean	-14890
Person	-14891
anghai	-14892
▁1000,	-14893
▁Angry	-14894
▁Brist	-14895
▁Catal	-14896
▁Criss	-14897
▁Croke	-14898
▁Floyd	-14899
▁Greek	-14900
▁Minor	-14901
▁Randy	-14902
▁Seven	-14903
▁bound	-14904
▁clark	-14905
▁goofy	-14906
▁gorge	-14907
▁infin	-14908
▁pools	-14909
▁poses	-14910
▁sabão	-14911
▁squad	-14912
derdale	-14913
onesian	-14914
pension	-14915
▁Americ	-14916
▁Drinks	-14917
▁Estate	-14918
▁Fridge	-14919
▁clouds	-14920
▁covers	-14921
▁grande	-14922
▁leader	-14923
▁morgan	-14924
▁roving	-14925
▁salada	-14926
▁tumblr	-14927
▁wilson	-14928
▁Chelsea	-14929
▁Element	-14930
▁closeup	-14931
▁formula	-14932
▁harmony	-14933
▁hygiene	-14934
▁remover	-14935
▁wipeout	-14936
ropolitan	-14937
▁Cabinets	-14938
▁Forecast	-14939
▁Portrait	-14940
▁Veganism	-14941
▁brisbane	-14942
▁cookware	-14943
▁joystick	-14944
▁powerful	-14945
▁soothing	-14946
▁yachting	-14947
iterranean	-14948
▁Dangerous	-14949
▁Mushrooms	-14950
▁Nashville	-14951
▁abseiling	-14952
▁childhood	-14953
▁exploring	-14954
▁штукатурки	-14955
▁Electronics	-14956
▁Snowmobiling	-14957
37	-14958
▁Ф	-14959
▁د	-14960
▁ش	-14961
▁ク	-14962
ィン	-14963
ライ	-14964
fed	-14965
fry	-14966
owe	-14967
zed	-14968
орт	-14969
▁JP	-14970
▁OS	-14971
▁Sz	-14972
▁TX	-14973
▁VS	-14974
▁ша	-14975
250,	-14976
Drug	-14977
acha	-14978
anth	-14979
asts	-14980
elho	-14981
lant	-14982
mans	-14983
peza	-14984
▁BRE	-14985
▁Gem	-14986
▁Nov	-14987
▁Pod	-14988
▁São	-14989
▁Wat	-14990
▁aus	-14991
▁kab	-14992
▁nat	-14993
▁pwn	-14994
▁sul	-14995
▁typ	-14996
▁нан	-14997
2009,	-14998
ahaha	-14999
ascar	-15000
aults	-15001
omnia	-15002
pitch	-15003
shots	-15004
uracy	-15005
zione	-15006
▁200,	-15007
▁250,	-15008
▁420,	-15009
▁Mann	-15010
▁SHOW	-15011
▁Saws	-15012
▁Tail	-15013
▁alan	-15014
▁bong	-15015
▁pata	-15016
▁rico	-15017
▁scen	-15018
▁seam	-15019
▁zoom	-15020
▁бума	-15021
Golfer	-15022
amenco	-15023
aptive	-15024
iagara	-15025
ington	-15026
▁Beast	-15027
▁Belle	-15028
▁Brake	-15029
▁Casey	-15030
▁Cours	-15031
▁Insta	-15032
▁Jared	-15033
▁Julia	-15034
▁Ollie	-15035
▁Scrub	-15036
▁Stihl	-15037
▁Weave	-15038
▁abras	-15039
▁alien	-15040
▁crane	-15041
▁dolls	-15042
▁fence	-15043
▁grout	-15044
▁magia	-15045
▁ozone	-15046
▁shock	-15047
▁singh	-15048
▁situp	-15049
▁Arctic	-15050
▁Hiphop	-15051
▁Lumber	-15052
▁Poland	-15053
▁Subaru	-15054
▁cirque	-15055
▁fender	-15056
▁gratis	-15057
▁images	-15058
▁latino	-15059
▁marvel	-15060
▁raised	-15061
neapolis	-15062
wareness	-15063
▁Antique	-15064
▁Attempt	-15065
▁Boating	-15066
▁Catcher	-15067
▁Deutsch	-15068
▁Gourmet	-15069
▁Repairs	-15070
▁Scallop	-15071
▁Terrier	-15072
▁beverly	-15073
▁bowline	-15074
▁brewery	-15075
▁hobbies	-15076
▁instant	-15077
▁nursing	-15078
▁prepper	-15079
▁remodel	-15080
▁simples	-15081
▁Dressage	-15082
▁Kitesurf	-15083
▁Sweeping	-15084
▁brooklyn	-15085
▁ceremony	-15086
▁communic	-15087
▁creation	-15088
▁interpre	-15089
▁staining	-15090
▁Brunswick	-15091
▁Liverpool	-15092
▁Waterford	-15093
▁childrens	-15094
▁musicians	-15095
▁parapente	-15096
▁realistic	-15097
▁vibrating	-15098
▁Contorcion	-15099
▁pedestrian	-15100
▁profession	-15101
▁Springboard	-15102
▁switzerland	-15103
ountaineering	-15104
▁Kiteboarding	-15105
3.	-15106
36	-15107
AE	-15108
We	-15109
ht	-15110
yu	-15111
си	-15112
คร	-15113
ีย	-15114
▁シ	-15115
cur	-15116
ify	-15117
och	-15118
бор	-15119
▁GB	-15120
▁GE	-15121
▁GP	-15122
▁KL	-15123
▁Qi	-15124
▁RS	-15125
▁SU	-15126
▁bf	-15127
▁bj	-15128
▁вы	-15129
desh	-15130
etsy	-15131
▁60,	-15132
▁DES	-15133
▁Era	-15134
▁Gon	-15135
▁SUN	-15136
▁Sel	-15137
▁cpu	-15138
▁jab	-15139
▁ner	-15140
▁nur	-15141
Smart	-15142
entes	-15143
grade	-15144
hears	-15145
icide	-15146
igraf	-15147
keley	-15148
woods	-15149
▁Anal	-15150
▁Calf	-15151
▁Dess	-15152
▁Drew	-15153
▁Fifa	-15154
▁HEAD	-15155
▁Hang	-15156
▁Loop	-15157
▁Tang	-15158
▁cruz	-15159
▁dean	-15160
▁ding	-15161
▁kale	-15162
▁kind	-15163
▁lanc	-15164
▁leon	-15165
▁ncaa	-15166
▁rams	-15167
▁rate	-15168
▁sals	-15169
▁shim	-15170
▁skit	-15171
▁sous	-15172
▁temp	-15173
▁кайт	-15174
Govern	-15175
athers	-15176
berger	-15177
ffield	-15178
finder	-15179
iffany	-15180
▁Beads	-15181
▁Drake	-15182
▁Films	-15183
▁ethan	-15184
▁lakes	-15185
▁marin	-15186
▁marsh	-15187
▁medal	-15188
▁robin	-15189
▁servi	-15190
▁swift	-15191
▁taiji	-15192
▁tired	-15193
Massage	-15194
ishment	-15195
picking	-15196
▁Cotton	-15197
▁Finish	-15198
▁Graham	-15199
▁Marvel	-15200
▁Switch	-15201
▁ashley	-15202
▁behavi	-15203
▁carrot	-15204
▁carter	-15205
▁música	-15206
▁period	-15207
▁poodle	-15208
▁stains	-15209
▁surfer	-15210
iculture	-15211
ographic	-15212
▁Burping	-15213
▁Eyelash	-15214
▁Fastest	-15215
▁Hyundai	-15216
▁cascade	-15217
▁cruiser	-15218
▁display	-15219
▁dynamic	-15220
▁ejercic	-15221
▁husband	-15222
▁pendant	-15223
▁problem	-15224
▁vermont	-15225
wrestling	-15226
▁Assemble	-15227
▁Marshall	-15228
▁Portable	-15229
▁Savannah	-15230
▁anderson	-15231
▁battling	-15232
▁catering	-15233
▁drifting	-15234
▁floating	-15235
▁Gathering	-15236
▁Hampshire	-15237
▁malayalam	-15238
▁Queensland	-15239
▁department	-15240
▁performers	-15241
▁Mississippi	-15242
▁Motorcycles	-15243
▁Prospecting	-15244
▁freerunning	-15245
Al	-15246
FD	-15247
Ph	-15248
dc	-15249
ár	-15250
ês	-15251
со	-15252
ча	-15253
ши	-15254
▁ط	-15255
▁ร	-15256
IFA	-15257
eve	-15258
mid	-15259
mom	-15260
odi	-15261
qua	-15262
▁4.	-15263
▁KN	-15264
▁eb	-15265
NESS	-15266
News	-15267
VING	-15268
apia	-15269
ibal	-15270
lent	-15271
rors	-15272
sing	-15273
▁250	-15274
▁Zen	-15275
▁gut	-15276
▁mam	-15277
▁mlb	-15278
▁obs	-15279
▁und	-15280
▁уро	-15281
bread	-15282
eries	-15283
heart	-15284
idaki	-15285
rayer	-15286
riers	-15287
scape	-15288
urved	-15289
▁Grey	-15290
▁HAND	-15291
▁Text	-15292
▁bran	-15293
▁cómo	-15294
▁june	-15295
▁mais	-15296
▁maui	-15297
▁pads	-15298
▁vino	-15299
▁ward	-15300
▁yeah	-15301
▁Chick	-15302
▁Grade	-15303
▁Norwe	-15304
▁STYLE	-15305
▁bonus	-15306
▁dança	-15307
▁farms	-15308
▁feder	-15309
▁hydro	-15310
▁merry	-15311
▁patty	-15312
▁Arnold	-15313
▁Basics	-15314
▁Bikini	-15315
▁Copper	-15316
▁Howard	-15317
▁Monica	-15318
▁Mozart	-15319
▁august	-15320
▁bexiga	-15321
▁bypass	-15322
▁dewalt	-15323
▁donald	-15324
▁intens	-15325
▁laptop	-15326
▁parrot	-15327
▁retail	-15328
▁static	-15329
▁stores	-15330
▁thighs	-15331
▁trowel	-15332
▁Archive	-15333
▁Shaking	-15334
▁benefit	-15335
▁protest	-15336
▁romania	-15337
▁tooling	-15338
▁Flipping	-15339
▁Software	-15340
▁basement	-15341
▁oklahoma	-15342
▁parasail	-15343
▁shouting	-15344
▁transfer	-15345
▁marijuana	-15346
▁Cincinnati	-15347
▁Hoverboard	-15348
▁protective	-15349
▁PlayStation	-15350
▁conditioner	-15351
▁handcrafted	-15352
▁archaeological	-15353
46	-15354
gb	-15355
wd	-15356
ша	-15357
ร์	-15358
▁ö	-15359
▁κ	-15360
▁小	-15361
Cal	-15362
VEL	-15363
cco	-15364
egg	-15365
mag	-15366
▁55	-15367
▁AK	-15368
▁VL	-15369
▁sb	-15370
200,	-15371
bach	-15372
eeds	-15373
mare	-15374
rtle	-15375
sign	-15376
tate	-15377
ukon	-15378
▁Nav	-15379
▁POP	-15380
▁Pow	-15381
▁SIL	-15382
▁cav	-15383
▁cri	-15384
▁raj	-15385
▁rum	-15386
▁под	-15387
▁сме	-15388
▁الع	-15389
0004,	-15390
adows	-15391
edict	-15392
esley	-15393
hanna	-15394
itten	-15395
psons	-15396
ática	-15397
▁008,	-15398
▁102,	-15399
▁Berg	-15400
▁Chem	-15401
▁Deal	-15402
▁FOOT	-15403
▁Gone	-15404
▁Hous	-15405
▁INST	-15406
▁Lace	-15407
▁Lime	-15408
▁Lost	-15409
▁Rand	-15410
▁USPS	-15411
▁Wide	-15412
▁amar	-15413
▁code	-15414
▁cola	-15415
▁dang	-15416
▁jeep	-15417
▁pant	-15418
▁qual	-15419
▁samp	-15420
Record	-15421
aysian	-15422
inkles	-15423
ornado	-15424
street	-15425
ternal	-15426
▁1080,	-15427
▁Khmer	-15428
▁Nokia	-15429
▁Relig	-15430
▁Sandy	-15431
▁Thing	-15432
▁Visit	-15433
▁Voice	-15434
▁cloud	-15435
▁coins	-15436
▁gears	-15437
▁hello	-15438
▁jesse	-15439
▁liver	-15440
▁other	-15441
▁pinoy	-15442
▁rocky	-15443
▁seeds	-15444
▁spear	-15445
Measure	-15446
iration	-15447
vidence	-15448
▁Explos	-15449
▁Harlem	-15450
▁Julian	-15451
▁Peanut	-15452
▁Phuket	-15453
▁Plants	-15454
▁Pranks	-15455
▁Shinty	-15456
▁Sophie	-15457
▁Teatro	-15458
▁bakery	-15459
▁bigger	-15460
▁gothic	-15461
▁groove	-15462
▁hollow	-15463
▁lounge	-15464
▁quebec	-15465
▁raises	-15466
▁should	-15467
▁sluice	-15468
▁January	-15469
▁Roberts	-15470
▁Schools	-15471
▁apprent	-15472
▁bachata	-15473
▁chamber	-15474
▁elastic	-15475
▁grocery	-15476
▁herding	-15477
▁planing	-15478
▁premium	-15479
▁princip	-15480
▁rentals	-15481
▁sensory	-15482
▁starter	-15483
▁version	-15484
▁Ballroom	-15485
▁Campbell	-15486
▁Hurdling	-15487
▁Pinnacle	-15488
▁Twisting	-15489
▁Zildjian	-15490
▁exciting	-15491
▁marathon	-15492
▁Amsterdam	-15493
▁Delicious	-15494
▁Valentine	-15495
▁engraçado	-15496
▁microscop	-15497
▁seasoning	-15498
▁everything	-15499
▁impossible	-15500
▁Landsailing	-15501
▁Chiropractor	-15502
▁glassblowing	-15503
▁transmission	-15504
PL	-15505
▁α	-15506
005	-15507
aci	-15508
cci	-15509
ech	-15510
oil	-15511
tak	-15512
tap	-15513
zes	-15514
ета	-15515
▁2-	-15516
▁CJ	-15517
▁JA	-15518
▁Oh	-15519
▁TI	-15520
▁YT	-15521
▁ng	-15522
▁zo	-15523
XING	-15524
agar	-15525
alho	-15526
brow	-15527
erek	-15528
feet	-15529
good	-15530
hine	-15531
hode	-15532
prus	-15533
race	-15534
role	-15535
snow	-15536
team	-15537
tile	-15538
vich	-15539
wide	-15540
word	-15541
▁240	-15542
▁CUR	-15543
▁Dob	-15544
▁GIR	-15545
▁Kol	-15546
▁Lis	-15547
▁Rim	-15548
▁SCH	-15549
▁bil	-15550
▁ktm	-15551
acord	-15552
ardin	-15553
aries	-15554
ember	-15555
esame	-15556
fruit	-15557
guing	-15558
ipper	-15559
itoba	-15560
olute	-15561
rafts	-15562
shake	-15563
▁Bake	-15564
▁Come	-15565
▁Crow	-15566
▁Gang	-15567
▁Invi	-15568
▁Kent	-15569
▁Wink	-15570
▁cele	-15571
▁corp	-15572
▁emot	-15573
▁goes	-15574
▁icec	-15575
▁lind	-15576
▁mate	-15577
▁trio	-15578
abella	-15579
aleigh	-15580
glades	-15581
ioneer	-15582
kating	-15583
unicip	-15584
▁Donut	-15585
▁Groom	-15586
▁Grove	-15587
▁Kenya	-15588
▁Mommy	-15589
▁blown	-15590
▁crime	-15591
▁icing	-15592
▁katie	-15593
▁lucky	-15594
▁megan	-15595
▁tramp	-15596
▁verde	-15597
▁vinho	-15598
▁сдела	-15599
orghini	-15600
▁Fender	-15601
▁Garcia	-15602
▁Ladies	-15603
▁Motors	-15604
▁Mowing	-15605
▁Pocket	-15606
▁Roland	-15607
▁Tomato	-15608
▁altern	-15609
▁blocks	-15610
▁boogie	-15611
▁cabelo	-15612
▁carved	-15613
▁eminem	-15614
▁invest	-15615
▁spiral	-15616
▁sprint	-15617
exercise	-15618
rigation	-15619
▁Barbell	-15620
▁Buskers	-15621
▁Factory	-15622
▁Gravity	-15623
▁Heather	-15624
▁Popular	-15625
▁Printer	-15626
▁Ricardo	-15627
▁Whisper	-15628
▁chasing	-15629
▁desktop	-15630
▁textile	-15631
acrobatic	-15632
ustration	-15633
▁Lighting	-15634
▁Progress	-15635
▁memorial	-15636
▁pestañas	-15637
▁superman	-15638
tinguisher	-15639
▁Northwest	-15640
▁Pregnancy	-15641
▁Shredding	-15642
▁beekeeper	-15643
▁excavator	-15644
▁hamstring	-15645
▁hurricane	-15646
▁transform	-15647
▁Government	-15648
▁Ronaldinho	-15649
▁cartwheels	-15650
▁Caterpillar	-15651
▁Environment	-15652
▁sustainable	-15653
▁photographer	-15654
▁prescription	-15655
▁specialevents	-15656
49	-15657
ws	-15658
ющ	-15659
ับ	-15660
▁Ö	-15661
▁ป	-15662
UBA	-15663
dee	-15664
gua	-15665
lag	-15666
tur	-15667
▁Dé	-15668
[...]
