<unk>	0
<s>	0
</s>	0
▁A	-0
de	-1
▁o	-2
vi	-3
▁of	-4
deo	-5
▁vi	-6
▁video	-7
in	-8
ing	-9
an	-10
▁S	-11
er	-12
▁C	-13
ar	-14
▁t	-15
▁B	-16
on	-17
▁T	-18
▁P	-19
le	-20
at	-21
al	-22
st	-23
▁H	-24
or	-25
ow	-26
▁M	-27
he	-28
▁c	-29
▁D	-30
re	-31
▁p	-32
▁F	-33
▁b	-34
▁s	-35
la	-36
it	-37
en	-38
ic	-39
▁-	-40
▁f	-41
▁a	-42
▁R	-43
and	-44
▁W	-45
▁w	-46
as	-47
es	-48
▁L	-49
ro	-50
ac	-51
▁2	-52
▁G	-53
il	-54
ou	-55
▁m	-56
el	-57
▁to	-58
is	-59
et	-60
ol	-61
▁E	-62
ra	-63
▁d	-64
ot	-65
▁the	-66
▁h	-67
ut	-68
all	-69
om	-70
▁J	-71
am	-72
ri	-73
ir	-74
ch	-75
um	-76
▁How	-77
01	-78
▁I	-79
ak	-80
lay	-81
▁in	-82
▁1	-83
▁K	-84
ad	-85
ed	-86
▁N	-87
ion	-88
un	-89
ig	-90
▁O	-91
ge	-92
ur	-93
li	-94
oo	-95
▁g	-96
▁and	-97
▁201	-98
▁St	-99
us	-100
ith	-101
ap	-102
ce	-103
ay	-104
art	-105
ick	-106
ck	-107
▁V	-108
▁(	-109
▁Ch	-110
op	-111
▁e	-112
▁on	-113
▁with	-114
ss	-115
ab	-116
ting	-117
ping	-118
▁de	-119
▁Sh	-120
▁play	-121
ers	-122
ack	-123
ard	-124
im	-125
id	-126
ling	-127
igh	-128
▁at	-129
ent	-130
ng	-131
ve	-132
ip	-133
ine	-134
ul	-135
ast	-136
row	-137
▁U	-138
os	-139
▁n	-140
est	-141
▁k	-142
ball	-143
ly	-144
ie	-145
hing	-146
▁st	-147
og	-148
ag	-149
our	-150
▁The	-151
ving	-152
IN	-153
up	-154
ake	-155
ke	-156
▁sh	-157
ec	-158
ry	-159
qu	-160
king	-161
mb	-162
▁j	-163
ver	-164
▁for	-165
nt	-166
▁3	-167
▁y	-168
▁l	-169
ding	-170
▁Y	-171
ont	-172
ump	-173
▁|	-174
low	-175
ug	-176
ep	-177
air	-178
▁To	-179
der	-180
ong	-181
ff	-182
bo	-183
ub	-184
ew	-185
ight	-186
▁Play	-187
ance	-188
se	-189
!!	-190
▁&	-191
th	-192
one	-193
▁Sp	-194
ain	-195
ating	-196
▁Be	-197
nd	-198
▁playing	-199
aking	-200
age	-201
ant	-202
ire	-203
em	-204
▁Th	-205
ation	-206
lo	-207
ia	-208
oot	-209
ater	-210
now	-211
ail	-212
ach	-213
▁re	-214
ter	-215
▁ch	-216
ill	-217
aby	-218
00	-219
ass	-220
anc	-221
▁Ar	-222
les	-223
ING	-224
ee	-225
ld	-226
ock	-227
eg	-228
ang	-229
▁by	-230
..	-231
▁th	-232
ear	-233
ide	-234
ood	-235
ct	-236
ER	-237
ob	-238
▁ro	-239
AN	-240
ial	-241
oc	-242
▁la	-243
▁Com	-244
▁In	-245
ist	-246
▁Re	-247
▁Sw	-248
sh	-249
act	-250
ice	-251
▁Sk	-252
▁4	-253
pen	-254
ning	-255
ey	-256
▁#	-257
ian	-258
ish	-259
ate	-260
▁v	-261
▁Sc	-262
lean	-263
ess	-264
ook	-265
▁Car	-266
od	-267
if	-268
AR	-269
▁Mar	-270
tle	-271
▁Te	-272
ple	-273
ord	-274
ort	-275
eed	-276
▁sp	-277
▁le	-278
ree	-279
ool	-280
mp	-281
ork	-282
ah	-283
ax	-284
atch	-285
▁5	-286
ile	-287
▁my	-288
▁ri	-289
▁Part	-290
rap	-291
ush	-292
limb	-293
eb	-294
mer	-295
▁do	-296
ime	-297
▁ball	-298
▁"	-299
▁He	-300
av	-301
ust	-302
ON	-303
▁Z	-304
ind	-305
▁Ex	-306
aw	-307
mo	-308
board	-309
▁Playing	-310
▁Par	-311
yle	-312
ud	-313
AL	-314
ES	-315
▁Baby	-316
lip	-317
▁Snow	-318
▁Me	-319
hes	-320
irst	-321
amp	-322
ure	-323
urf	-324
ma	-325
▁My	-326
▁Pro	-327
▁Bas	-328
▁Vi	-329
AS	-330
ath	-331
▁Ball	-332
▁he	-333
ue	-334
▁Tr	-335
ive	-336
▁Che	-337
ike	-338
te	-339
ando	-340
▁throw	-341
umping	-342
▁Tra	-343
ble	-344
▁Al	-345
orial	-346
▁be	-347
ne	-348
rom	-349
led	-350
▁com	-351
▁part	-352
oon	-353
ni	-354
ugg	-355
▁De	-356
utorial	-357
aper	-358
▁car	-359
ount	-360
etting	-361
OR	-362
▁Water	-363
ming	-364
▁An	-365
end	-366
alle	-367
ining	-368
ts	-369
▁how	-370
ade	-371
▁an	-372
ore	-373
ace	-374
gg	-375
▁Dr	-376
▁Throw	-377
oy	-378
ute	-379
▁Ap	-380
▁r	-381
▁:	-382
▁sk	-383
irl	-384
lass	-385
ancing	-386
▁Br	-387
to	-388
ai	-389
ash	-390
▁hair	-391
AT	-392
per	-393
▁Dance	-394
▁your	-395
iving	-396
out	-397
iz	-398
▁Bre	-399
201	-400
ny	-401
▁ar	-402
▁up	-403
oe	-404
▁2013	-405
▁200	-406
iss	-407
ket	-408
▁sw	-409
ull	-410
ite	-411
alking	-412
▁6	-413
EN	-414
utting	-415
▁Pre	-416
▁Ice	-417
ton	-418
ies	-419
ment	-420
io	-421
▁Hand	-422
ross	-423
ome	-424
heel	-425
ina	-426
▁Clean	-427
ov	-428
▁Le	-429
...	-430
hone	-431
▁Q	-432
▁Jump	-433
ft	-434
▁his	-435
uff	-436
▁0	-437
ler	-438
ction	-439
▁from	-440
▁2014	-441
▁Back	-442
ara	-443
old	-444
▁Making	-445
ips	-446
▁2012	-447
rist	-448
uit	-449
▁Video	-450
man	-451
▁High	-452
ity	-453
ond	-454
erc	-455
umb	-456
▁snow	-457
ame	-458
ise	-459
▁old	-460
▁Co	-461
▁Gr	-462
▁Un	-463
▁tr	-464
▁2015	-465
▁baby	-466
ect	-467
lan	-468
als	-469
isc	-470
own	-471
ange	-472
▁te	-473
▁eating	-474
▁Dog	-475
▁Wh	-476
ster	-477
▁/	-478
uck	-479
assage	-480
▁Po	-481
▁Fr	-482
lowing	-483
yc	-484
icking	-485
▁out	-486
mas	-487
LE	-488
inn	-489
▁For	-490
!!!	-491
olf	-492
ats	-493
▁New	-494
loor	-495
/1	-496
OW	-497
IC	-498
▁un	-499
iel	-500
▁Head	-501
▁water	-502
▁Con	-503
cer	-504
day	-505
▁dr	-506
limbing	-507
▁Hair	-508
aving	-509
uil	-510
ids	-511
ound	-512
▁Kn	-513
ich	-514
▁tra	-515
▁7	-516
▁@	-517
att	-518
ica	-519
que	-520
ope	-521
uggling	-522
▁Tutorial	-523
able	-524
▁en	-525
ching	-526
ix	-527
▁Cont	-528
ell	-529
▁her	-530
▁10	-531
-1	-532
▁Go	-533
▁hand	-534
ading	-535
▁sc	-536
sc	-537
ale	-538
ushing	-539
iv	-540
▁Col	-541
ret	-542
room	-543
▁head	-544
▁back	-545
▁jump	-546
▁me	-547
ying	-548
az	-549
lap	-550
IT	-551
achine	-552
▁Cl	-553
ors	-554
lack	-555
▁Pain	-556
are	-557
urfing	-558
▁bas	-559
▁Se	-560
▁2011	-561
me	-562
ger	-563
pening	-564
oes	-565
ower	-566
▁Sn	-567
▁2016	-568
▁Ad	-569
▁pre	-570
▁Tri	-571
ans	-572
▁Cr	-573
ave	-574
raw	-575
rest	-576
ik	-577
▁dance	-578
▁Bo	-579
IL	-580
aul	-581
ishing	-582
▁Fl	-583
gh	-584
▁She	-585
eeding	-586
▁8	-587
▁Day	-588
AC	-589
▁Fire	-590
ph	-591
▁Ac	-592
▁li	-593
ley	-594
ycle	-595
▁Ey	-596
ashing	-597
▁Dri	-598
▁Mo	-599
ards	-600
▁ey	-601
▁Up	-602
opping	-603
▁We	-604
pe	-605
▁La	-606
▁Foot	-607
oun	-608
▁Rec	-609
ooking	-610
ren	-611
ketball	-612
ira	-613
land	-614
▁Fun	-615
den	-616
alk	-617
▁time	-618
▁ex	-619
▁kick	-620
▁plays	-621
ipe	-622
apping	-623
asy	-624
▁Christ	-625
IS	-626
ics	-627
erf	-628
▁With	-629
ins	-630
ition	-631
orld	-632
▁Ro	-633
arm	-634
▁Your	-635
ão	-636
ary	-637
ose	-638
str	-639
▁che	-640
pet	-641
▁year	-642
▁cont	-643
▁Pr	-644
ark	-645
af	-646
RE	-647
▁first	-648
▁Qu	-649
▁Leg	-650
▁bre	-651
▁9	-652
OL	-653
▁Man	-654
ockey	-655
▁make	-656
▁On	-657
▁us	-658
acking	-659
▁Ski	-660
tt	-661
▁wh	-662
iting	-663
che	-664
enn	-665
▁clean	-666
uitar	-667
▁ap	-668
ana	-669
eth	-670
ife	-671
inning	-672
ink	-673
▁Como	-674
▁Squ	-675
▁First	-676
▁X	-677
int	-678
eel	-679
asting	-680
▁sn	-681
▁Jo	-682
aster	-683
▁Int	-684
▁Golf	-685
RA	-686
▁Massage	-687
chool	-688
ield	-689
▁Do	-690
box	-691
▁Bar	-692
▁con	-693
mel	-694
MP	-695
olo	-696
und	-697
▁Sal	-698
HE	-699
ream	-700
▁go	-701
▁2010	-702
lant	-703
ather	-704
▁Rock	-705
OU	-706
ebrow	-707
▁Sand	-708
roke	-709
▁is	-710
▁Egg	-711
▁Kick	-712
▁Rope	-713
eet	-714
▁br	-715
ese	-716
my	-717
▁dog	-718
EL	-719
ottle	-720
▁Eating	-721
ber	-722
▁vs	-723
▁cr	-724
way	-725
ets	-726
▁dri	-727
allen	-728
occer	-729
ailing	-730
▁12	-731
sp	-732
▁pro	-733
OT	-734
▁bo	-735
▁Make	-736
uction	-737
avi	-738
rying	-739
son	-740
▁Ben	-741
▁Girl	-742
allenge	-743
▁And	-744
eball	-745
▁Dancing	-746
ody	-747
▁Time	-748
▁ice	-749
▁Swing	-750
sent	-751
uc	-752
▁off	-753
AD	-754
▁Tie	-755
▁Bl	-756
view	-757
▁Tree	-758
zing	-759
▁Jumping	-760
▁Cross	-761
ammer	-762
▁Long	-763
▁Christmas	-764
ok	-765
ipping	-766
▁no	-767
orse	-768
ho	-769
▁TO	-770
▁Disc	-771
▁DE	-772
iding	-773
▁19	-774
▁You	-775
▁making	-776
kin	-777
ical	-778
▁Bat	-779
enc	-780
▁Cur	-781
▁Training	-782
▁throwing	-783
com	-784
▁fire	-785
▁Wood	-786
▁DI	-787
za	-788
▁Best	-789
ging	-790
▁ride	-791
▁[	-792
ens	-793
▁Gu	-794
▁No	-795
nam	-796
▁Ab	-797
na	-798
gan	-799
over	-800
ott	-801
imming	-802
ze	-803
▁Or	-804
▁girl	-805
ous	-806
▁Throwing	-807
▁Champ	-808
elly	-809
▁or	-810
▁Gre	-811
▁Ind	-812
ino	-813
py	-814
▁Ep	-815
▁El	-816
▁fight	-817
ills	-818
atching	-819
▁riding	-820
ule	-821
dy	-822
hy	-823
ha	-824
▁World	-825
ric	-826
chni	-827
inal	-828
▁Mot	-829
▁Arm	-830
pt	-831
ET	-832
▁foot	-833
▁Buil	-834
aring	-835
ray	-836
▁kn	-837
▁bike	-838
▁Char	-839
restling	-840
AM	-841
ID	-842
▁wax	-843
orm	-844
▁11	-845
▁mo	-846
▁Park	-847
OS	-848
▁paper	-849
olding	-850
utter	-851
▁Har	-852
▁AS	-853
▁fun	-854
▁Jack	-855
OM	-856
ED	-857
▁Tw	-858
ountain	-859
▁Cleaning	-860
▁tie	-861
▁Cooking	-862
urn	-863
AY	-864
▁Cam	-865
▁Can	-866
lower	-867
▁Kids	-868
rol	-869
ence	-870
au	-871
▁Diving	-872
▁Gar	-873
itting	-874
ugh	-875
ase	-876
▁Rol	-877
adm	-878
▁floor	-879
ough	-880
zy	-881
▁Fly	-882
▁cl	-883
vil	-884
▁Juggling	-885
br	-886
ress	-887
▁dancing	-888
▁Art	-889
▁Climbing	-890
unk	-891
▁into	-892
uffle	-893
▁new	-894
lex	-895
▁leg	-896
▁Paper	-897
▁Ser	-898
▁mar	-899
▁rec	-900
▁Sm	-901
▁Mil	-902
▁ST	-903
▁Band	-904
ole	-905
ator	-906
▁cart	-907
hn	-908
las	-909
▁App	-910
UT	-911
▁Ri	-912
icycle	-913
▁Riding	-914
▁ski	-915
▁Is	-916
▁Bow	-917
ALL	-918
ild	-919
line	-920
▁Ne	-921
unge	-922
▁jumping	-923
▁Ph	-924
itch	-925
ern	-926
ank	-927
.1	-928
▁egg	-929
ophone	-930
OV	-931
▁Walking	-932
▁Dem	-933
▁fl	-934
ron	-935
inner	-936
▁IN	-937
▁Cap	-938
iano	-939
icken	-940
▁Ride	-941
▁Blowing	-942
ris	-943
▁Wind	-944
▁Paint	-945
ouse	-946
▁Work	-947
IR	-948
ula	-949
ily	-950
rop	-951
CH	-952
▁cut	-953
ountry	-954
▁At	-955
▁Beer	-956
co	-957
▁Easy	-958
▁ac	-959
▁blowing	-960
ons	-961
ery	-962
▁Min	-963
inger	-964
orn	-965
▁machine	-966
uk	-967
boarding	-968
ston	-969
▁Kit	-970
ube	-971
▁way	-972
actice	-973
▁2009	-974
ena	-975
▁Pol	-976
▁Push	-977
▁x	-978
melon	-979
▁Shot	-980
vers	-981
▁drum	-982
eling	-983
▁pr	-984
▁Feeding	-985
!!!!	-986
▁Fre	-987
▁Fri	-988
▁wood	-989
ign	-990
▁Out	-991
▁Stret	-992
▁gr	-993
lic	-994
ches	-995
ier	-996
▁getting	-997
by	-998
▁Ste	-999
▁Bur	-1000
AP	-1001
ring	-1002
irth	-1003
aus	-1004
▁al	-1005
▁Floor	-1006
anging	-1007
▁School	-1008
▁Cra	-1009
▁climbing	-1010
▁Comp	-1011
▁Rob	-1012
mazing	-1013
ault	-1014
▁Lear	-1015
▁Tips	-1016
ittle	-1017
ird	-1018
icks	-1019
▁Ele	-1020
▁Balloon	-1021
vent	-1022
▁DIY	-1023
▁Tre	-1024
▁Wax	-1025
car	-1026
▁Dec	-1027
▁CH	-1028
ele	-1029
stand	-1030
unt	-1031
▁Bra	-1032
orc	-1033
▁balloon	-1034
dle	-1035
ails	-1036
▁Style	-1037
▁Champion	-1038
▁tri	-1039
▁15	-1040
▁So	-1041
▁#1	-1042
/2	-1043
▁Game	-1044
▁you	-1045
irthday	-1046
▁shot	-1047
rooming	-1048
▁Bag	-1049
▁man	-1050
▁cake	-1051
ado	-1052
less	-1053
▁bag	-1054
actor	-1055
▁wheel	-1056
ada	-1057
iro	-1058
▁Sled	-1059
▁Basketball	-1060
▁Cat	-1061
▁SH	-1062
▁Perf	-1063
ebrows	-1064
rian	-1065
ja	-1066
▁Shar	-1067
▁na	-1068
MR	-1069
ST	-1070
AND	-1071
▁Ed	-1072
▁game	-1073
rape	-1074
▁Front	-1075
▁pain	-1076
IG	-1077
ty	-1078
▁Big	-1079
▁THE	-1080
▁Hockey	-1081
inging	-1082
▁Black	-1083
reet	-1084
▁Step	-1085
▁Drum	-1086
▁Washing	-1087
▁Cook	-1088
▁tree	-1089
uper	-1090
▁John	-1091
AV	-1092
▁se	-1093
▁Mountain	-1094
mv	-1095
yl	-1096
▁Dan	-1097
▁Show	-1098
▁sand	-1099
▁it	-1100
astle	-1101
▁bottle	-1102
▁juggling	-1103
ude	-1104
ames	-1105
▁Mon	-1106
▁app	-1107
▁pool	-1108
ung	-1109
elin	-1110
▁Hur	-1111
▁Exerc	-1112
oga	-1113
▁2017	-1114
wmv	-1115
▁Aw	-1116
▁da	-1117
▁Bike	-1118
▁boy	-1119
▁Funny	-1120
ness	-1121
ennis	-1122
▁Baseball	-1123
▁Football	-1124
▁Cutting	-1125
▁Carving	-1126
ari	-1127
▁high	-1128
irc	-1129
▁Cut	-1130
olin	-1131
allow	-1132
oney	-1133
▁rope	-1134
▁flip	-1135
liding	-1136
ib	-1137
ane	-1138
▁Climb	-1139
ounc	-1140
▁she	-1141
ason	-1142
RO	-1143
hen	-1144
▁player	-1145
ones	-1146
▁cross	-1147
▁Glass	-1148
▁col	-1149
EST	-1150
20	-1151
usic	-1152
▁Break	-1153
ann	-1154
▁Cal	-1155
oul	-1156
ION	-1157
eek	-1158
▁open	-1159
get	-1160
▁mot	-1161
akes	-1162
▁Air	-1163
▁Machine	-1164
▁War	-1165
outh	-1166
▁Wheel	-1167
▁'	-1168
▁tutorial	-1169
▁mont	-1170
▁+	-1171
▁Techni	-1172
ico	-1173
▁Fla	-1174
▁style	-1175
ll	-1176
wn	-1177
▁z	-1178
▁ASMR	-1179
CE	-1180
▁Ass	-1181
▁Pan	-1182
allet	-1183
raphy	-1184
▁Gra	-1185
▁Her	-1186
▁min	-1187
ult	-1188
▁Des	-1189
osh	-1190
oline	-1191
▁Plan	-1192
let	-1193
▁Body	-1194
▁One	-1195
▁#2	-1196
ouble	-1197
▁Horse	-1198
▁HOW	-1199
inking	-1200
rid	-1201
▁ra	-1202
UR	-1203
▁Class	-1204
▁Fight	-1205
▁TV	-1206
▁we	-1207
do	-1208
vel	-1209
ughing	-1210
▁Arch	-1211
AK	-1212
▁Red	-1213
▁Chicken	-1214
▁13	-1215
ett	-1216
boxing	-1217
stall	-1218
awn	-1219
▁Bro	-1220
▁par	-1221
ders	-1222
uz	-1223
ony	-1224
ingers	-1225
▁Ra	-1226
ession	-1227
▁Beach	-1228
▁Guitar	-1229
▁14	-1230
▁It	-1231
ette	-1232
▁work	-1233
her	-1234
aut	-1235
ert	-1236
▁cand	-1237
IM	-1238
lam	-1239
▁Boy	-1240
▁using	-1241
/201	-1242
ational	-1243
acu	-1244
▁By	-1245
▁Battle	-1246
red	-1247
▁po	-1248
▁!	-1249
▁co	-1250
▁Less	-1251
▁Lo	-1252
elebr	-1253
iling	-1254
▁Camp	-1255
▁fall	-1256
▁Sim	-1257
▁Sy	-1258
ura	-1259
SA	-1260
▁HD	-1261
▁Sam	-1262
▁En	-1263
▁es	-1264
▁Championsh	-1265
ento	-1266
▁training	-1267
▁qu	-1268
acuum	-1269
ote	-1270
GE	-1271
▁AN	-1272
▁feeding	-1273
▁football	-1274
▁Opening	-1275
▁basketball	-1276
▁guitar	-1277
▁Skiing	-1278
UN	-1279
moking	-1280
▁Amazing	-1281
....	-1282
▁Test	-1283
izza	-1284
▁shoes	-1285
erk	-1286
▁20	-1287
▁Hot	-1288
ato	-1289
▁100	-1290
▁i	-1291
▁Pot	-1292
inet	-1293
rew	-1294
ves	-1295
ering	-1296
alsa	-1297
▁Rem	-1298
▁Veg	-1299
▁Review	-1300
▁um	-1301
▁Cart	-1302
▁day	-1303
da	-1304
▁Pe	-1305
▁art	-1306
▁Las	-1307
-2	-1308
ighting	-1309
▁Mac	-1310
▁Side	-1311
▁Ge	-1312
mpoline	-1313
UM	-1314
ker	-1315
ual	-1316
stroke	-1317
▁Grand	-1318
ps	-1319
▁fish	-1320
ssing	-1321
etal	-1322
ello	-1323
light	-1324
▁washing	-1325
▁Shoot	-1326
▁Apple	-1327
▁Team	-1328
omb	-1329
ae	-1330
ican	-1331
▁Hammer	-1332
odge	-1333
rowd	-1334
▁soccer	-1335
▁Spinning	-1336
emb	-1337
-0	-1338
▁Chi	-1339
oring	-1340
▁16	-1341
▁Cake	-1342
▁Lake	-1343
▁Nor	-1344
ki	-1345
ars	-1346
tti	-1347
▁18	-1348
▁Swimming	-1349
▁All	-1350
▁Wine	-1351
OP	-1352
encil	-1353
ipes	-1354
ka	-1355
▁Us	-1356
sents	-1357
Pro	-1358
▁diving	-1359
▁Em	-1360
▁Cup	-1361
last	-1362
ango	-1363
ises	-1364
▁:)	-1365
ym	-1366
ions	-1367
lide	-1368
fter	-1369
▁Club	-1370
▁Slow	-1371
▁like	-1372
▁Scra	-1373
▁el	-1374
▁Open	-1375
▁Player	-1376
side	-1377
be	-1378
▁feet	-1379
▁AT	-1380
▁Tap	-1381
▁cutting	-1382
▁Di	-1383
▁squ	-1384
▁walking	-1385
▁Of	-1386
aghe	-1387
▁Beg	-1388
ney	-1389
▁doing	-1390
kg	-1391
ior	-1392
▁Drill	-1393
▁Pin	-1394
▁Rep	-1395
▁Pump	-1396
aghetti	-1397
▁Wrestling	-1398
▁challenge	-1399
ido	-1400
▁Mag	-1401
▁Tire	-1402
petition	-1403
▁Ext	-1404
inton	-1405
IP	-1406
OO	-1407
ama	-1408
▁Tro	-1409
▁Dad	-1410
olog	-1411
▁Mont	-1412
lie	-1413
▁PL	-1414
ops	-1415
rig	-1416
ubble	-1417
uss	-1418
very	-1419
illow	-1420
▁Field	-1421
▁Soccer	-1422
order	-1423
▁Country	-1424
▁Challenge	-1425
mob	-1426
ven	-1427
▁(1	-1428
bs	-1429
▁em	-1430
▁line	-1431
-201	-1432
▁Line	-1433
ally	-1434
wheel	-1435
▁kids	-1436
▁River	-1437
▁Grooming	-1438
▁long	-1439
iso	-1440
▁Lu	-1441
▁Fit	-1442
attoo	-1443
uba	-1444
ache	-1445
▁Wom	-1446
ami	-1447
utt	-1448
▁hockey	-1449
▁Am	-1450
▁Alex	-1451
▁Fish	-1452
▁massage	-1453
ory	-1454
▁RE	-1455
▁Old	-1456
elf	-1457
▁Ju	-1458
ques	-1459
▁Pen	-1460
oly	-1461
omers	-1462
▁PAR	-1463
ooping	-1464
▁climb	-1465
ys	-1466
▁mil	-1467
olley	-1468
▁Men	-1469
▁buil	-1470
50	-1471
▁cleaning	-1472
bee	-1473
▁Power	-1474
ENT	-1475
adli	-1476
▁Building	-1477
▁Off	-1478
ulele	-1479
ral	-1480
.0	-1481
▁Yoga	-1482
▁Belly	-1483
▁can	-1484
met	-1485
▁Nat	-1486
▁Way	-1487
▁Home	-1488
▁101	-1489
▁Mic	-1490
▁Fest	-1491
▁beer	-1492
▁rock	-1493
inter	-1494
ye	-1495
asc	-1496
▁Hel	-1497
unching	-1498
IA	-1499
▁hands	-1500
▁May	-1501
▁down	-1502
ded	-1503
▁Sl	-1504
▁cream	-1505
wood	-1506
▁sal	-1507
econd	-1508
▁para	-1509
▁Kay	-1510
▁Cent	-1511
▁Sword	-1512
▁ab	-1513
▁cur	-1514
▁gar	-1515
idoo	-1516
▁Tex	-1517
arena	-1518
▁Fall	-1519
▁Fishing	-1520
raight	-1521
▁Run	-1522
▁Card	-1523
elt	-1524
ongue	-1525
St	-1526
rench	-1527
kiting	-1528
angnam	-1529
adminton	-1530
▁one	-1531
une	-1532
idger	-1533
▁fr	-1534
▁bur	-1535
icket	-1536
▁break	-1537
▁cam	-1538
▁gu	-1539
▁Stretch	-1540
ierc	-1541
idgeridoo	-1542
▁Painting	-1543
apple	-1544
olleyball	-1545
▁)	-1546
oeira	-1547
▁Iron	-1548
▁driving	-1549
oke	-1550
▁ne	-1551
▁tw	-1552
▁Med	-1553
eeping	-1554
▁Pet	-1555
▁fail	-1556
bles	-1557
▁Pat	-1558
▁Super	-1559
liff	-1560
inners	-1561
▁cat	-1562
US	-1563
▁Eggs	-1564
icep	-1565
▁Bob	-1566
cre	-1567
▁Table	-1568
▁opening	-1569
flip	-1570
▁while	-1571
aj	-1572
chan	-1573
erry	-1574
▁As	-1575
ooter	-1576
▁Sing	-1577
ineapple	-1578
▁month	-1579
▁cup	-1580
▁Davi	-1581
ael	-1582
fer	-1583
▁so	-1584
play	-1585
leston	-1586
ival	-1587
mber	-1588
▁Kid	-1589
▁push	-1590
▁bat	-1591
lee	-1592
▁Pour	-1593
▁Wrap	-1594
▁Oil	-1595
▁Final	-1596
▁Salad	-1597
▁Shuffle	-1598
isode	-1599
▁Tour	-1600
bur	-1601
armon	-1602
othes	-1603
▁Tai	-1604
▁Hard	-1605
IV	-1606
▁San	-1607
▁perf	-1608
▁Ant	-1609
cess	-1610
ited	-1611
ular	-1612
lying	-1613
▁as	-1614
ates	-1615
aves	-1616
▁Pla	-1617
umpet	-1618
▁Driving	-1619
otch	-1620
▁over	-1621
ere	-1622
reme	-1623
phant	-1624
style	-1625
▁Just	-1626
ylophone	-1627
mbone	-1628
▁Easter	-1629
▁Li	-1630
▁ben	-1631
▁Street	-1632
▁Pass	-1633
▁pass	-1634
lapping	-1635
its	-1636
▁Book	-1637
▁Shoe	-1638
aste	-1639
▁Mor	-1640
▁Ty	-1641
eedle	-1642
struction	-1643
ines	-1644
UL	-1645
ther	-1646
ewing	-1647
ausage	-1648
▁Exercise	-1649
▁kid	-1650
▁Headb	-1651
▁Contact	-1652
▁Food	-1653
arn	-1654
▁BB	-1655
▁book	-1656
▁Demo	-1657
aching	-1658
mming	-1659
▁played	-1660
10	-1661
▁Cab	-1662
ungee	-1663
▁phone	-1664
ito	-1665
▁arm	-1666
▁bow	-1667
irt	-1668
riend	-1669
▁Mich	-1670
▁put	-1671
▁Knot	-1672
etball	-1673
▁Bee	-1674
armonica	-1675
orcycle	-1676
▁Fin	-1677
xe	-1678
onut	-1679
egway	-1680
▁Face	-1681
▁blow	-1682
▁skiing	-1683
▁.	-1684
cord	-1685
▁wind	-1686
odgeball	-1687
▁test	-1688
▁tre	-1689
▁,	-1690
ural	-1691
▁Bus	-1692
lymp	-1693
▁reading	-1694
bble	-1695
▁Mad	-1696
apkin	-1697
rapeze	-1698
▁shoot	-1699
unch	-1700
▁Cor	-1701
▁Learn	-1702
carina	-1703
▁Bal	-1704
▁Mom	-1705
▁Tying	-1706
▁pushing	-1707
AST	-1708
agliding	-1709
AB	-1710
▁best	-1711
▁Spray	-1712
eyboard	-1713
▁Pl	-1714
uffling	-1715
ookah	-1716
asailing	-1717
ings	-1718
▁Pool	-1719
▁Stone	-1720
▁Install	-1721
▁fingers	-1722
▁GoPro	-1723
bb	-1724
ida	-1725
endo	-1726
▁Exc	-1727
▁Tip	-1728
▁air	-1729
va	-1730
era	-1731
▁30	-1732
▁Year	-1733
▁Tom	-1734
▁Double	-1735
ua	-1736
▁II	-1737
opsc	-1738
▁Peel	-1739
▁nose	-1740
▁Little	-1741
▁sm	-1742
▁Speed	-1743
▁Ke	-1744
ushi	-1745
▁gra	-1746
fly	-1747
vin	-1748
len	-1749
▁Aust	-1750
lock	-1751
ishes	-1752
▁Girls	-1753
▁Bottle	-1754
ça	-1755
zer	-1756
▁Cas	-1757
▁Surfing	-1758
▁candles	-1759
▁cook	-1760
▁Pull	-1761
▁piano	-1762
rum	-1763
▁Petting	-1764
ouch	-1765
▁show	-1766
▁Using	-1767
▁Charleston	-1768
▁DAN	-1769
▁bar	-1770
▁spinning	-1771
▁Crazy	-1772
onstr	-1773
▁City	-1774
60	-1775
▁Colle	-1776
▁Change	-1777
▁Lesson	-1778
30	-1779
umbling	-1780
▁disc	-1781
▁Amer	-1782
dd	-1783
▁Land	-1784
▁Neck	-1785
elding	-1786
ora	-1787
▁Bass	-1788
▁Perfect	-1789
/0	-1790
udio	-1791
▁2008	-1792
atic	-1793
cordion	-1794
iti	-1795
▁side	-1796
OG	-1797
▁Inter	-1798
opscotch	-1799
▁watermelon	-1800
▁pe	-1801
▁Matt	-1802
▁Plays	-1803
▁Flip	-1804
▁Beat	-1805
▁Brushing	-1806
ffee	-1807
▁pol	-1808
▁use	-1809
estyle	-1810
▁teeth	-1811
▁Tasting	-1812
▁Aut	-1813
umba	-1814
ffic	-1815
▁Contest	-1816
ouncy	-1817
▁Pole	-1818
▁Practice	-1819
yd	-1820
▁SP	-1821
allig	-1822
ICK	-1823
wich	-1824
▁des	-1825
▁funny	-1826
▁Tapping	-1827
▁Knife	-1828
▁plant	-1829
INE	-1830
lin	-1831
ject	-1832
▁Circ	-1833
▁headb	-1834
▁AR	-1835
crete	-1836
▁Getting	-1837
chen	-1838
ilent	-1839
▁catch	-1840
▁Ballet	-1841
▁Triple	-1842
▁Curling	-1843
▁brushing	-1844
UMP	-1845
ated	-1846
▁Olymp	-1847
▁Marching	-1848
▁FL	-1849
▁Top	-1850
▁ups	-1851
▁Blow	-1852
▁change	-1853
ymb	-1854
work	-1855
▁Fast	-1856
▁South	-1857
ERS	-1858
▁pt	-1859
▁shoe	-1860
▁drums	-1861
surfing	-1862
ene	-1863
ita	-1864
OC	-1865
▁cap	-1866
▁run	-1867
▁Workout	-1868
ces	-1869
illi	-1870
ridge	-1871
▁Fail	-1872
oundation	-1873
ção	-1874
▁Hol	-1875
▁Two	-1876
▁eat	-1877
▁Build	-1878
lash	-1879
▁Sit	-1880
MOV	-1881
▁Down	-1882
ACK	-1883
▁Res	-1884
▁walk	-1885
▁Decor	-1886
▁Salsa	-1887
▁wrestling	-1888
ift	-1889
ict	-1890
utterfly	-1891
▁01	-1892
amento	-1893
▁Unboxing	-1894
▁di	-1895
▁peel	-1896
ARD	-1897
▁50	-1898
▁Ci	-1899
lane	-1900
▁Birthday	-1901
ella	-1902
▁Deck	-1903
▁tongue	-1904
mbled	-1905
▁Over	-1906
▁Folding	-1907
▁Putting	-1908
▁Mc	-1909
apan	-1910
▁Gold	-1911
ftball	-1912
▁Fil	-1913
▁Zoo	-1914
▁Basic	-1915
▁Slack	-1916
▁Jan	-1917
irou	-1918
▁easy	-1919
opoly	-1920
▁Pizza	-1921
▁baseball	-1922
▁surfing	-1923
▁Skipping	-1924
acas	-1925
▁hot	-1926
▁Quick	-1927
▁shuffle	-1928
ala	-1929
▁pot	-1930
▁Swim	-1931
▁Flying	-1932
ata	-1933
▁door	-1934
ople	-1935
▁pump	-1936
EC	-1937
AIL	-1938
alom	-1939
iture	-1940
▁Festival	-1941
ilet	-1942
▁pong	-1943
▁paint	-1944
▁Assemb	-1945
▁faz	-1946
▁less	-1947
▁Sar	-1948
▁Sep	-1949
uddle	-1950
oulder	-1951
▁swimming	-1952
cut	-1953
.201	-1954
▁Music	-1955
han	-1956
down	-1957
urch	-1958
▁Lay	-1959
du	-1960
ner	-1961
▁Sun	-1962
▁att	-1963
adlift	-1964
▁Catch	-1965
▁Episode	-1966
▁practice	-1967
ward	-1968
▁spaghetti	-1969
2)	-1970
EG	-1971
stick	-1972
▁Great	-1973
▁Milking	-1974
▁Watermelon	-1975
▁--	-1976
ville	-1977
osplay	-1978
idget	-1979
▁West	-1980
admill	-1981
▁Check	-1982
rawling	-1983
▁Snowkiting	-1984
avelin	-1985
ero	-1986
mbro	-1987
orts	-1988
▁glass	-1989
▁17	-1990
▁TR	-1991
acks	-1992
▁shar	-1993
▁US	-1994
▁Gro	-1995
▁Bull	-1996
ril	-1997
▁Ma	-1998
▁Waxing	-1999
▁Put	-2000
AVI	-2001
appy	-2002
aging	-2003
arten	-2004
▁David	-2005
▁Paintball	-2006
tery	-2007
▁golf	-2008
▁White	-2009
urniture	-2010
bell	-2011
enact	-2012
yn	-2013
sw	-2014
▁ON	-2015
▁Wall	-2016
▁face	-2017
axophone	-2018
▁Sheep	-2019
▁flute	-2020
▁tapping	-2021
▁without	-2022
▁Lad	-2023
▁Sailing	-2024
rip	-2025
TING	-2026
▁nails	-2027
elo	-2028
▁Rub	-2029
▁Segway	-2030
▁eyebrows	-2031
▁Dodgeball	-2032
orkeling	-2033
▁Skating	-2034
elebrating	-2035
ummer	-2036
▁Bench	-2037
▁Weather	-2038
.2	-2039
▁Ry	-2040
aler	-2041
▁Cow	-2042
▁tro	-2043
▁field	-2044
chair	-2045
▁Race	-2046
uzz	-2047
▁Recipe	-2048
ya	-2049
▁Ped	-2050
▁wall	-2051
▁Window	-2052
▁ag	-2053
athing	-2054
▁Indian	-2055
▁Mal	-2056
▁laughing	-2057
alligraphy	-2058
val	-2059
▁Uk	-2060
▁cards	-2061
▁21	-2062
▁Dig	-2063
acing	-2064
▁Song	-2065
▁ad	-2066
tern	-2067
▁Cop	-2068
▁horse	-2069
enactment	-2070
ona	-2071
chanical	-2072
▁big	-2073
amily	-2074
▁goal	-2075
amb	-2076
▁AND	-2077
▁Eyebrows	-2078
▁Epic	-2079
araoke	-2080
▁bl	-2081
▁Board	-2082
▁Fitness	-2083
▁Ang	-2084
▁kit	-2085
ancake	-2086
▁Cream	-2087
▁Skate	-2088
▁Gangnam	-2089
aiting	-2090
▁carving	-2091
ila	-2092
stem	-2093
▁river	-2094
▁Macarena	-2095
ram	-2096
ecast	-2097
▁Square	-2098
.3	-2099
issors	-2100
illa	-2101
▁Tango	-2102
▁after	-2103
▁cow	-2104
ience	-2105
▁skating	-2106
fl	-2107
uly	-2108
▁ir	-2109
▁pour	-2110
▁Discus	-2111
▁park	-2112
▁Spring	-2113
▁25	-2114
▁Pong	-2115
▁Kr	-2116
▁gum	-2117
▁gets	-2118
▁Picking	-2119
▁birthday	-2120
alf	-2121
▁||	-2122
lace	-2123
▁dad	-2124
▁Walk	-2125
▁Week	-2126
▁fast	-2127
▁motion	-2128
olph	-2129
▁Dom	-2130
ls	-2131
▁bed	-2132
▁Cliff	-2133
rough	-2134
overboard	-2135
▁trampoline	-2136
▁Competition	-2137
▁not	-2138
▁rol	-2139
▁Robot	-2140
▁Rop	-2141
▁lol	-2142
▁Phot	-2143
▁ever	-2144
ón	-2145
walk	-2146
▁cas	-2147
▁22	-2148
▁har	-2149
yster	-2150
▁Green	-2151
ca	-2152
IGH	-2153
moke	-2154
▁Eye	-2155
▁Silent	-2156
▁tennis	-2157
▁bra	-2158
▁mom	-2159
▁recorder	-2160
▁comp	-2161
▁TH	-2162
BALL	-2163
onstration	-2164
▁Laser	-2165
gu	-2166
ano	-2167
▁lo	-2168
ages	-2169
ference	-2170
▁Tricep	-2171
▁Michael	-2172
▁Lawn	-2173
▁sled	-2174
▁Party	-2175
▁Shaving	-2176
▁Imp	-2177
nivers	-2178
▁class	-2179
▁Bungee	-2180
▁contest	-2181
▁board	-2182
▁Sausage	-2183
erob	-2184
▁Flor	-2185
▁Surf	-2186
▁Parasailing	-2187
EM	-2188
pa	-2189
▁control	-2190
▁Snowmob	-2191
▁wine	-2192
▁Att	-2193
▁Tim	-2194
▁knife	-2195
▁school	-2196
▁crossing	-2197
12	-2198
▁Live	-2199
▁front	-2200
BO	-2201
▁Sol	-2202
▁Control	-2203
▁tractor	-2204
▁Tur	-2205
▁Free	-2206
▁Hula	-2207
▁PLAY	-2208
▁years	-2209
mashing	-2210
▁Finger	-2211
▁Hurling	-2212
▁clothes	-2213
▁Kite	-2214
▁North	-2215
rong	-2216
▁step	-2217
▁Night	-2218
▁shaking	-2219
ooth	-2220
uter	-2221
▁Arr	-2222
▁Tor	-2223
▁waxing	-2224
▁Paragliding	-2225
▁Metal	-2226
▁Technique	-2227
▁mon	-2228
▁Thom	-2229
▁Camel	-2230
▁Women	-2231
▁Breast	-2232
▁fishing	-2233
▁Motorcycle	-2234
ini	-2235
▁CR	-2236
▁NY	-2237
▁PR	-2238
▁eyes	-2239
▁stret	-2240
▁Elephant	-2241
▁OF	-2242
▁Don	-2243
utton	-2244
▁Port	-2245
▁Scuba	-2246
oveling	-2247
AG	-2248
▁Jay	-2249
▁Roller	-2250
rope	-2251
▁bro	-2252
▁Pumpkin	-2253
▁Sanding	-2254
aker	-2255
▁ser	-2256
▁Squat	-2257
▁friend	-2258
▁Chris	-2259
▁Civil	-2260
▁chair	-2261
mbroide	-2262
OUN	-2263
erson	-2264
▁Cand	-2265
▁Smoking	-2266
ITH	-2267
▁24	-2268
▁Je	-2269
▁Hom	-2270
▁hel	-2271
▁song	-2272
ulld	-2273
▁Under	-2274
▁Zumba	-2275
anana	-2276
ues	-2277
▁Mel	-2278
▁Prof	-2279
▁House	-2280
▁BE	-2281
atte	-2282
▁Capoeira	-2283
▁del	-2284
▁pan	-2285
vis	-2286
▁Del	-2287
▁Gym	-2288
▁Press	-2289
▁Pillow	-2290
▁Dra	-2291
▁lawn	-2292
▁slow	-2293
nut	-2294
▁ww	-2295
vice	-2296
▁eggs	-2297
▁legs	-2298
▁tire	-2299
▁Japan	-2300
iercing	-2301
▁Breaking	-2302
sled	-2303
▁BAS	-2304
▁Napkin	-2305
▁Ukulele	-2306
esome	-2307
▁tattoo	-2308
▁contact	-2309
IE	-2310
▁sl	-2311
▁Lap	-2312
▁Gong	-2313
▁More	-2314
leeping	-2315
▁Learning	-2316
▁His	-2317
▁pin	-2318
▁singing	-2319
▁Ref	-2320
▁From	-2321
▁Veget	-2322
ives	-2323
▁Cre	-2324
▁como	-2325
bbling	-2326
ounting	-2327
▁Fidget	-2328
▁Techniques	-2329
MA	-2330
ham	-2331
▁Dis	-2332
inese	-2333
▁Polo	-2334
▁Eng	-2335
ixing	-2336
▁Farm	-2337
IDE	-2338
▁SC	-2339
▁Brow	-2340
▁Fris	-2341
▁Sant	-2342
▁Poker	-2343
▁months	-2344
mbroidery	-2345
UB	-2346
acep	-2347
▁ass	-2348
ility	-2349
▁Harp	-2350
▁home	-2351
inding	-2352
umpster	-2353
▁Winter	-2354
▁Sharpen	-2355
▁presents	-2356
▁tap	-2357
▁Blue	-2358
itt	-2359
▁Use	-2360
▁band	-2361
ubbles	-2362
▁Crowd	-2363
▁some	-2364
▁little	-2365
key	-2366
▁BBQ	-2367
▁lad	-2368
spaper	-2369
▁Color	-2370
▁State	-2371
▁Shooting	-2372
een	-2373
▁www	-2374
▁Fold	-2375
▁Vacuum	-2376
nives	-2377
pipes	-2378
▁Life	-2379
▁News	-2380
▁Micro	-2381
lor	-2382
▁Box	-2383
▁Let	-2384
▁Sil	-2385
dance	-2386
▁bull	-2387
▁Flute	-2388
▁castle	-2389
▁pressing	-2390
ewel	-2391
port	-2392
▁wash	-2393
▁Organ	-2394
go	-2395
ugging	-2396
venture	-2397
▁CL	-2398
▁Feet	-2399
▁Needle	-2400
▁Trapeze	-2401
cando	-2402
uring	-2403
▁Hands	-2404
▁table	-2405
▁Straight	-2406
▁LA	-2407
antrum	-2408
▁CON	-2409
▁Sur	-2410
lasting	-2411
ison	-2412
▁July	-2413
▁finger	-2414
▁Championship	-2415
▁sol	-2416
orses	-2417
omersault	-2418
van	-2419
ctric	-2420
▁fold	-2421
OD	-2422
inder	-2423
▁Bott	-2424
raying	-2425
▁DANCE	-2426
▁Frisbee	-2427
▁Tag	-2428
▁Simple	-2429
ology	-2430
▁Tool	-2431
of	-2432
▁ele	-2433
▁fil	-2434
▁Mike	-2435
▁made	-2436
aceplant	-2437
▁Archery	-2438
ushroom	-2439
▁Cards	-2440
▁Lock	-2441
▁WITH	-2442
▁bird	-2443
▁Reading	-2444
▁Trimming	-2445
80	-2446
ky	-2447
The	-2448
avy	-2449
iant	-2450
▁Exp	-2451
▁Jog	-2452
nament	-2453
riting	-2454
▁Apply	-2455
▁folding	-2456
lt	-2457
ffiti	-2458
undry	-2459
▁techni	-2460
▁American	-2461
▁fre	-2462
▁Mart	-2463
des	-2464
ups	-2465
back	-2466
▁Kar	-2467
▁Jerk	-2468
▁belly	-2469
▁Motion	-2470
▁Bowling	-2471
▁Per	-2472
▁Cover	-2473
▁Tennis	-2474
▁Leather	-2475
ister	-2476
▁Mini	-2477
▁card	-2478
▁Shoes	-2479
▁swing	-2480
▁AC	-2481
▁Max	-2482
▁Meg	-2483
▁ge	-2484
Part	-2485
ascara	-2486
▁Flower	-2487
mov	-2488
▁#3	-2489
▁pl	-2490
▁Guy	-2491
15	-2492
ILL	-2493
▁du	-2494
▁Flat	-2495
▁PART	-2496
▁Drills	-2497
▁SN	-2498
▁exc	-2499
▁Kites	-2500
▁Decorating	-2501
▁petting	-2502
▁Championships	-2503
lapse	-2504
▁Stand	-2505
apel	-2506
▁Drop	-2507
ording	-2508
▁sword	-2509
▁Weaving	-2510
▁Scrambled	-2511
▁Pipe	-2512
▁Brush	-2513
▁Sewing	-2514
ox	-2515
ANG	-2516
▁Full	-2517
▁Shearing	-2518
ium	-2519
olk	-2520
ormance	-2521
log	-2522
▁TE	-2523
alth	-2524
▁lock	-2525
▁Roasting	-2526
▁Wash	-2527
▁second	-2528
▁stroke	-2529
chet	-2530
leep	-2531
▁Star	-2532
▁Piano	-2533
▁Carpet	-2534
ize	-2535
shm	-2536
fire	-2537
bar	-2538
▁champ	-2539
▁DR	-2540
▁ph	-2541
▁beg	-2542
▁Boys	-2543
▁beat	-2544
▁build	-2545
▁09	-2546
utes	-2547
▁Bay	-2548
▁Bor	-2549
▁Saw	-2550
▁Series	-2551
▁Anch	-2552
▁Island	-2553
▁Pencil	-2554
▁flying	-2555
▁spinner	-2556
▁talking	-2557
ESS	-2558
▁Ocarina	-2559
res	-2560
▁Auction	-2561
PS	-2562
▁SL	-2563
rool	-2564
▁James	-2565
▁drill	-2566
▁exerc	-2567
▁Didgeridoo	-2568
▁Snorkeling	-2569
▁drop	-2570
▁Pineapple	-2571
Sh	-2572
bage	-2573
▁Dining	-2574
▁trying	-2575
▁Hitting	-2576
▁Netball	-2577
▁keyboard	-2578
cul	-2579
▁eats	-2580
▁Lunge	-2581
TS	-2582
▁EN	-2583
iles	-2584
▁Cro	-2585
▁cra	-2586
▁Cymb	-2587
▁Packing	-2588
▁Exper	-2589
▁Cheese	-2590
▁Eyebrow	-2591
ippy	-2592
▁Ash	-2593
▁bus	-2594
▁cab	-2595
▁neck	-2596
▁apple	-2597
▁apply	-2598
▁chips	-2599
dog	-2600
▁Jon	-2601
▁two	-2602
edding	-2603
▁Light	-2604
▁Foundation	-2605
000	-2606
▁Draw	-2607
ations	-2608
▁carro	-2609
▁02	-2610
▁Ups	-2611
▁Helmet	-2612
▁picking	-2613
any	-2614
▁Pig	-2615
▁Cheer	-2616
▁Vault	-2617
▁Catching	-2618
▁Crossing	-2619
▁Volleyball	-2620
▁CAR	-2621
▁pull	-2622
eliner	-2623
▁Sledge	-2624
▁Thomas	-2625
fe	-2626
ital	-2627
▁Mark	-2628
▁Award	-2629
▁Child	-2630
▁money	-2631
▁vacuum	-2632
▁Swinging	-2633
▁Ag	-2634
▁UN	-2635
▁Pri	-2636
▁Beard	-2637
▁Sushi	-2638
▁Slackline	-2639
▁*	-2640
uch	-2641
cial	-2642
▁uma	-2643
round	-2644
▁Moon	-2645
umbia	-2646
▁violin	-2647
KE	-2648
eep	-2649
ght	-2650
ots	-2651
wing	-2652
▁Master	-2653
boe	-2654
ped	-2655
▁199	-2656
▁our	-2657
▁Chest	-2658
▁Beginners	-2659
▁harmonica	-2660
▁BL	-2661
▁What	-2662
▁Stitch	-2663
emp	-2664
arts	-2665
▁Axe	-2666
bog	-2667
imp	-2668
▁esp	-2669
udent	-2670
▁fazer	-2671
nast	-2672
▁iron	-2673
▁balls	-2674
ape	-2675
▁Phil	-2676
shmallow	-2677
▁Cartwheel	-2678
▁SK	-2679
▁Bed	-2680
▁cricket	-2681
▁~	-2682
▁Pal	-2683
▁Sch	-2684
▁girls	-2685
ru	-2686
esta	-2687
▁kicking	-2688
ocol	-2689
rapb	-2690
▁Poi	-2691
orking	-2692
oop	-2693
▁COM	-2694
boggan	-2695
owing	-2696
▁Cute	-2697
▁Coffee	-2698
▁Laughing	-2699
elle	-2700
reek	-2701
▁hooping	-2702
11	-2703
▁are	-2704
▁Cour	-2705
▁waxed	-2706
▁putting	-2707
▁Softball	-2708
▁ve	-2709
ista	-2710
▁Ent	-2711
▁kicks	-2712
▁bubble	-2713
irouette	-2714
▁Project	-2715
▁Butterfly	-2716
▁Sharpening	-2717
xy	-2718
▁Josh	-2719
▁surf	-2720
oconut	-2721
▁moving	-2722
▁Chinese	-2723
▁Freestyle	-2724
TR	-2725
rd	-2726
gon	-2727
▁Dive	-2728
▁dishes	-2729
▁falling	-2730
▁trumpet	-2731
ait	-2732
hed	-2733
ador	-2734
▁Luc	-2735
▁eye	-2736
▁Goal	-2737
▁Stock	-2738
OB	-2739
ago	-2740
bor	-2741
▁Ult	-2742
ondon	-2743
▁Meet	-2744
▁Sound	-2745
▁ladder	-2746
▁scooter	-2747
▁National	-2748
▁xylophone	-2749
▁Ever	-2750
▁Drive	-2751
HD	-2752
QU	-2753
vie	-2754
OUR	-2755
ford	-2756
fore	-2757
▁Cosplay	-2758
▁watching	-2759
▁AL	-2760
▁NE	-2761
head	-2762
▁gre	-2763
verse	-2764
ewelry	-2765
▁April	-2766
▁Moving	-2767
▁hammer	-2768
▁Javelin	-2769
▁Kitchen	-2770
anda	-2771
▁hur	-2772
▁Ital	-2773
▁painting	-2774
uzzle	-2775
▁Miss	-2776
▁that	-2777
▁Beaut	-2778
▁Extreme	-2779
▁Pouring	-2780
del	-2781
rog	-2782
ueb	-2783
▁MY	-2784
▁Shoulder	-2785
inc	-2786
▁Kat	-2787
▁pipe	-2788
▁Short	-2789
▁Univers	-2790
▁Pop	-2791
ables	-2792
▁Plant	-2793
▁Jet	-2794
ancer	-2795
ilation	-2796
▁Summer	-2797
▁smoking	-2798
▁Trombone	-2799
mon	-2800
▁am	-2801
▁Disco	-2802
▁Lapse	-2803
▁Calligraphy	-2804
TA	-2805
ible	-2806
▁Bubble	-2807
▁Natural	-2808
▁Watering	-2809
bow	-2810
ror	-2811
▁lip	-2812
▁Paul	-2813
▁Ryan	-2814
atue	-2815
▁2007	-2816
▁This	-2817
▁Esp	-2818
▁hug	-2819
▁Hunt	-2820
▁Shed	-2821
oughnut	-2822
▁Instruction	-2823
oug	-2824
▁Ann	-2825
▁oil	-2826
▁under	-2827
▁Proper	-2828
▁Footage	-2829
iner	-2830
▁Snatch	-2831
gy	-2832
▁FR	-2833
alent	-2834
▁Weight	-2835
ONG	-2836
arinet	-2837
empt	-2838
oves	-2839
▁bal	-2840
▁ste	-2841
▁food	-2842
▁Happy	-2843
▁beach	-2844
▁Olympic	-2845
▁cooking	-2846
▁Hopscotch	-2847
bot	-2848
surf	-2849
▁Hug	-2850
▁dec	-2851
ument	-2852
▁Fried	-2853
▁March	-2854
▁goats	-2855
▁Hookah	-2856
▁Aug	-2857
▁Legs	-2858
▁Roll	-2859
▁Single	-2860
part	-2861
asing	-2862
▁body	-2863
▁crowd	-2864
▁music	-2865
▁Gutter	-2866
▁System	-2867
▁Pinball	-2868
▁Badminton	-2869
▁Set	-2870
▁kite	-2871
▁Scall	-2872
▁Trick	-2873
▁speed	-2874
illy	-2875
▁Tractor	-2876
▁rem	-2877
▁Fist	-2878
ocolate	-2879
▁Pedido	-2880
vo	-2881
ota	-2882
▁tv	-2883
▁Dub	-2884
▁FOR	-2885
athan	-2886
emade	-2887
▁Snap	-2888
▁Mid	-2889
▁Good	-2890
▁Daddy	-2891
▁trick	-2892
▁haircut	-2893
fa	-2894
AIR	-2895
aran	-2896
scope	-2897
▁Chef	-2898
▁Deadlift	-2899
▁00	-2900
inho	-2901
▁Oct	-2902
▁milking	-2903
mercial	-2904
▁Monopoly	-2905
oph	-2906
eeze	-2907
▁Feb	-2908
▁Oli	-2909
▁Barten	-2910
▁Bicycle	-2911
▁Punching	-2912
40	-2913
IAN	-2914
▁Af	-2915
▁Like	-2916
▁Magic	-2917
▁Pushing	-2918
▁Concrete	-2919
▁Presents	-2920
▁badminton	-2921
▁Conference	-2922
▁CO	-2923
▁Eli	-2924
ement	-2925
▁Tight	-2926
▁present	-2927
▁world	-2928
▁Castle	-2929
▁Tumbling	-2930
▁Demonstration	-2931
els	-2932
▁Mr	-2933
▁King	-2934
▁hard	-2935
▁Count	-2936
▁Round	-2937
▁Daniel	-2938
▁Welding	-2939
udok	-2940
ulldo	-2941
▁June	-2942
loading	-2943
▁Stroke	-2944
▁EX	-2945
▁SE	-2946
LING	-2947
▁Haw	-2948
▁Tack	-2949
▁bend	-2950
▁cover	-2951
▁organ	-2952
▁Get	-2953
▁Russ	-2954
▁swim	-2955
fting	-2956
▁Whist	-2957
▁sharpen	-2958
▁Adventure	-2959
eat	-2960
ful	-2961
▁Not	-2962
▁fla	-2963
▁Raise	-2964
▁bench	-2965
▁Burger	-2966
▁Karaoke	-2967
▁punching	-2968
▁Rod	-2969
▁lay	-2970
▁Climbers	-2971
ij	-2972
ACH	-2973
aces	-2974
▁Door	-2975
▁roll	-2976
▁pencil	-2977
▁Cookies	-2978
IF	-2979
ta	-2980
▁Orig	-2981
▁stand	-2982
▁Hooping	-2983
▁Snowboarding	-2984
▁Dry	-2985
-10	-2986
▁Mus	-2987
▁again	-2988
▁London	-2989
ande	-2990
oman	-2991
▁lap	-2992
dling	-2993
▁harp	-2994
▁Intro	-2995
▁Center	-2996
▁perfect	-2997
▁Reenactment	-2998
IAL	-2999
▁BR	-3000
▁Dy	-3001
▁Ger	-3002
▁poi	-3003
▁Ping	-3004
▁Flash	-3005
oth	-3006
ener	-3007
rawl	-3008
read	-3009
▁Austral	-3010
▁Backflip	-3011
no	-3012
▁à	-3013
▁Pt	-3014
▁Det	-3015
ecial	-3016
▁Juli	-3017
arning	-3018
▁cartwheel	-3019
ONE	-3020
▁Du	-3021
▁Remote	-3022
▁Forecast	-3023
▁Planting	-3024
BA	-3025
AKE	-3026
has	-3027
▁26	-3028
via	-3029
▁Bird	-3030
▁slap	-3031
▁Drums	-3032
▁chess	-3033
▁house	-3034
▁Family	-3035
▁Violin	-3036
▁Bobsled	-3037
ilt	-3038
▁Bla	-3039
▁Reg	-3040
▁drive	-3041
ams	-3042
ión	-3043
▁ma	-3044
▁wrap	-3045
issing	-3046
▁snowman	-3047
.5	-3048
▁Lou	-3049
▁guy	-3050
udoku	-3051
▁Sports	-3052
DS	-3053
rub	-3054
sta	-3055
iful	-3056
▁Meat	-3057
▁Nick	-3058
▁Cello	-3059
▁Kayak	-3060
▁lesson	-3061
essional	-3062
▁PA	-3063
▁Sea	-3064
▁Hun	-3065
▁Son	-3066
imate	-3067
▁Tricks	-3068
▁Unicycle	-3069
▁Trampoline	-3070
ken	-3071
oup	-3072
uge	-3073
ethod	-3074
▁Slalom	-3075
▁Tea	-3076
▁Dying	-3077
▁Archae	-3078
▁ed	-3079
angu	-3080
▁slide	-3081
▁Garden	-3082
▁Dumpster	-3083
▁unicycle	-3084
ersion	-3085
▁Accordion	-3086
3)	-3087
urs	-3088
utch	-3089
▁cor	-3090
riança	-3091
▁Jacks	-3092
▁Church	-3093
▁(2	-3094
▁Guide	-3095
▁Huddle	-3096
ка	-3097
▁Fel	-3098
▁set	-3099
ution	-3100
▁Studio	-3101
▁window	-3102
ns	-3103
▁Py	-3104
▁pen	-3105
▁Stom	-3106
ouncing	-3107
▁Concer	-3108
▁Parkour	-3109
▁Geor	-3110
duction	-3111
▁Squash	-3112
▁Cabinet	-3113
▁country	-3114
▁shuffling	-3115
ASH	-3116
▁Chess	-3117
▁Handstand	-3118
▁circ	-3119
/15	-3120
▁Mah	-3121
▁Setting	-3122
▁Pit	-3123
▁Pra	-3124
▁this	-3125
▁Texas	-3126
▁colle	-3127
▁Jam	-3128
▁box	-3129
▁get	-3130
ional	-3131
▁Clip	-3132
▁Geoc	-3133
nastics	-3134
▁Ham	-3135
▁all	-3136
▁race	-3137
▁Justin	-3138
▁players	-3139
/12	-3140
aint	-3141
▁ATM	-3142
▁Bri	-3143
▁Jun	-3144
▁Sen	-3145
▁gas	-3146
▁las	-3147
▁Road	-3148
▁Aerob	-3149
▁Awesome	-3150
▁catching	-3151
IST	-3152
ious	-3153
▁Inc	-3154
▁Joe	-3155
▁Dunk	-3156
▁Solo	-3157
▁When	-3158
▁York	-3159
▁Design	-3160
▁Driver	-3161
▁around	-3162
▁street	-3163
▁learning	-3164
--	-3165
▁uk	-3166
▁pig	-3167
▁plan	-3168
omatic	-3169
▁Brick	-3170
▁Friend	-3171
▁breaking	-3172
▁Jumpstyle	-3173
gar	-3174
▁Eu	-3175
eter	-3176
yard	-3177
▁Bel	-3178
▁jog	-3179
▁Prep	-3180
▁Trail	-3181
▁Drumming	-3182
ال	-3183
icc	-3184
ente	-3185
▁Wild	-3186
▁Games	-3187
-12	-3188
OOT	-3189
▁2)	-3190
lish	-3191
▁Jord	-3192
▁dunk	-3193
▁check	-3194
▁tantrum	-3195
VER	-3196
▁40	-3197
just	-3198
▁lapse	-3199
▁Waiting	-3200
▁stacking	-3201
other	-3202
▁jerk	-3203
▁Shark	-3204
▁snake	-3205
▁Basket	-3206
▁Kicking	-3207
▁snapping	-3208
lax	-3209
iece	-3210
▁Saf	-3211
▁kay	-3212
▁pla	-3213
▁Dogs	-3214
▁milk	-3215
▁Dolph	-3216
▁Bouncy	-3217
▁crying	-3218
▁through	-3219
14	-3220
acay	-3221
▁Comb	-3222
▁Plaster	-3223
▁Pottery	-3224
▁backflip	-3225
▁Er	-3226
▁Gas	-3227
▁zoo	-3228
▁plants	-3229
▁Pup	-3230
▁Made	-3231
▁robot	-3232
ndo	-3233
uri	-3234
▁Act	-3235
ative	-3236
▁when	-3237
anguage	-3238
▁Bottling	-3239
HS	-3240
uer	-3241
▁Cle	-3242
▁Sign	-3243
ald	-3244
har	-3245
lab	-3246
▁rep	-3247
▁rip	-3248
▁Acade	-3249
▁Track	-3250
▁shots	-3251
▁workout	-3252
▁Exercises	-3253
azz	-3254
▁03	-3255
▁Es	-3256
▁fin	-3257
▁Hoverboard	-3258
▁volleyball	-3259
▁SW	-3260
gest	-3261
▁Sup	-3262
IO	-3263
How	-3264
ied	-3265
▁Mex	-3266
aping	-3267
ucking	-3268
▁Skills	-3269
▁Beatbox	-3270
▁Jewelry	-3271
uel	-3272
▁28	-3273
▁pick	-3274
▁Texting	-3275
▁Scallops	-3276
EP	-3277
ux	-3278
jack	-3279
▁Gab	-3280
ddler	-3281
iller	-3282
▁Real	-3283
▁metal	-3284
▁spray	-3285
▁Saxophone	-3286
▁ep	-3287
IGHT	-3288
kins	-3289
▁Gal	-3290
▁Baking	-3291
▁building	-3292
▁Backstroke	-3293
13	-3294
▁ext	-3295
antoc	-3296
▁crack	-3297
▁Wrapping	-3298
▁crawling	-3299
▁!!	-3300
▁dogs	-3301
▁Roast	-3302
▁Cricket	-3303
▁Present	-3304
▁trombone	-3305
▁...	-3306
▁Nov	-3307
▁Tick	-3308
▁week	-3309
▁brush	-3310
▁Pressing	-3311
ipp	-3312
saw	-3313
▁27	-3314
▁Rot	-3315
▁Lego	-3316
▁Trans	-3317
▁Young	-3318
▁French	-3319
▁Cracking	-3320
▁balloons	-3321
▁sticking	-3322
▁Embroidery	-3323
we	-3324
uta	-3325
▁Lar	-3326
▁Abse	-3327
▁Curl	-3328
▁Trip	-3329
▁fist	-3330
▁move	-3331
▁cello	-3332
▁Rolling	-3333
▁Headstand	-3334
SC	-3335
yr	-3336
▁Clam	-3337
▁knot	-3338
▁India	-3339
▁Tattoo	-3340
▁Assembly	-3341
▁shooting	-3342
▁didgeridoo	-3343
acer	-3344
▁Vol	-3345
▁Hill	-3346
▁Nail	-3347
▁Quest	-3348
▁shake	-3349
▁grooming	-3350
▁DO	-3351
ulpt	-3352
▁Sec	-3353
lights	-3354
▁chest	-3355
▁swinging	-3356
▁et	-3357
lime	-3358
▁Jac	-3359
▁Mir	-3360
▁Cast	-3361
▁Milk	-3362
▁Stir	-3363
▁goat	-3364
▁team	-3365
▁truck	-3366
▁Scrabble	-3367
▁Smashing	-3368
▁technique	-3369
ba	-3370
ANT	-3371
hew	-3372
ustom	-3373
▁Five	-3374
▁Carry	-3375
▁Running	-3376
KING	-3377
▁pop	-3378
▁Scott	-3379
▁Andrew	-3380
▁Intern	-3381
▁Shuffling	-3382
▁Tournament	-3383
▁23	-3384
▁Bi	-3385
▁MAR	-3386
▁saw	-3387
lowers	-3388
▁learn	-3389
▁Sandwich	-3390
UC	-3391
UG	-3392
eta	-3393
fts	-3394
ola	-3395
▁HE	-3396
water	-3397
▁demo	-3398
▁Computer	-3399
▁Headbanging	-3400
FF	-3401
zz	-3402
▁AB	-3403
Tube	-3404
ante	-3405
▁Ear	-3406
field	-3407
▁Boat	-3408
▁FAIL	-3409
▁Love	-3410
▁Phone	-3411
▁Truck	-3412
▁Ir	-3413
agne	-3414
ounce	-3415
▁Mary	-3416
▁Health	-3417
▁Peeling	-3418
▁Scissors	-3419
▁drinking	-3420
▁Dribbling	-3421
▁08	-3422
▁Form	-3423
▁falls	-3424
▁light	-3425
▁Orange	-3426
▁Spraying	-3427
ISH	-3428
kes	-3429
ague	-3430
shop	-3431
▁!!!	-3432
▁Shave	-3433
▁Taste	-3434
▁Players	-3435
▁Furniture	-3436
FL	-3437
/16	-3438
ANDO	-3439
▁Stick	-3440
▁Trumpet	-3441
▁Electric	-3442
▁Shopping	-3443
▁Xylophone	-3444
UP	-3445
ROW	-3446
▁SM	-3447
▁Ari	-3448
▁Mule	-3449
eezing	-3450
hammer	-3451
▁Gator	-3452
▁bowling	-3453
iley	-3454
▁Cer	-3455
▁Mat	-3456
▁tricks	-3457
▁casamento	-3458
▁pineapple	-3459
aca	-3460
kee	-3461
▁60	-3462
▁Fat	-3463
▁sit	-3464
▁stone	-3465
ilts	-3466
▁USA	-3467
▁white	-3468
▁Oyster	-3469
▁Smooth	-3470
▁stretch	-3471
med	-3472
anch	-3473
uman	-3474
▁Ros	-3475
▁Ter	-3476
▁Wal	-3477
▁sem	-3478
▁Nose	-3479
▁Cheerle	-3480
▁Cleaner	-3481
▁Session	-3482
▁Commercial	-3483
bal	-3484
▁//	-3485
▁Ber	-3486
▁Fair	-3487
▁drumming	-3488
▁Installation	-3489
oor	-3490
ander	-3491
plane	-3492
unges	-3493
wards	-3494
▁more	-3495
ailand	-3496
▁Rubik	-3497
▁camel	-3498
▁burger	-3499
ст	-3500
▁Mi	-3501
▁Jim	-3502
▁que	-3503
▁Coin	-3504
▁Prin	-3505
▁pizza	-3506
1)	-3507
▁Eat	-3508
▁fix	-3509
ident	-3510
▁curl	-3511
encing	-3512
▁Doing	-3513
▁power	-3514
▁Garbage	-3515
▁Jackson	-3516
▁own	-3517
▁Prog	-3518
esse	-3519
▁dig	-3520
anced	-3521
haler	-3522
tingu	-3523
▁JUMP	-3524
▁Rich	-3525
▁Ropes	-3526
▁Scooter	-3527
▁pumping	-3528
▁Chipping	-3529
ras	-3530
▁04	-3531
▁FI	-3532
▁PC	-3533
▁Cla	-3534
▁Lip	-3535
▁Past	-3536
▁hula	-3537
▁Campfire	-3538
▁Mechanical	-3539
/13	-3540
TER	-3541
yon	-3542
atro	-3543
ries	-3544
▁Dumb	-3545
▁camp	-3546
▁cube	-3547
utches	-3548
▁Toilet	-3549
lit	-3550
oll	-3551
▁AP	-3552
ique	-3553
▁Far	-3554
▁char	-3555
▁hunt	-3556
▁bouncy	-3557
▁Japanese	-3558
▁newspaper	-3559
ety	-3560
min	-3561
▁Our	-3562
▁Roy	-3563
▁Basics	-3564
▁Horses	-3565
▁CA	-3566
▁Da	-3567
▁pat	-3568
actic	-3569
▁Base	-3570
barrow	-3571
dition	-3572
ability	-3573
rapbook	-3574
alloween	-3575
omersaul	-3576
isa	-3577
▁ME	-3578
▁Ob	-3579
▁Bad	-3580
ooden	-3581
▁Makeup	-3582
▁Classic	-3583
▁Pancake	-3584
▁YouTube	-3585
SE	-3586
ste	-3587
▁Pa	-3588
ffer	-3589
self	-3590
andom	-3591
anger	-3592
ening	-3593
▁cort	-3594
▁Shred	-3595
▁birds	-3596
▁Living	-3597
▁chicken	-3598
▁tasting	-3599
kers	-3600
▁WAT	-3601
▁mac	-3602
▁Slap	-3603
▁Snake	-3604
▁Ultimate	-3605
▁competition	-3606
ko	-3607
/14	-3608
cle	-3609
ures	-3610
annah	-3611
▁Stop	-3612
▁Ther	-3613
▁stop	-3614
▁Second	-3615
▁Chopping	-3616
LD	-3617
UD	-3618
▁UK	-3619
▁Tay	-3620
alley	-3621
uggle	-3622
▁boys	-3623
▁double	-3624
▁Arrange	-3625
▁Ironing	-3626
▁ukulele	-3627
▁Compilation	-3628
pes	-3629
ider	-3630
rick	-3631
▁BASE	-3632
▁maracas	-3633
▁Treadmill	-3634
▁Celebrating	-3635
16	-3636
TV	-3637
ays	-3638
hand	-3639
▁sur	-3640
lease	-3641
ecting	-3642
▁discus	-3643
70	-3644
ads	-3645
▁sim	-3646
▁Tile	-3647
▁being	-3648
▁Laying	-3649
▁People	-3650
IVE	-3651
die	-3652
▁kr	-3653
▁Gum	-3654
▁just	-3655
▁Shaking	-3656
▁Beginner	-3657
▁exercise	-3658
▁treadmill	-3659
IZ	-3660
vol	-3661
▁Ca	-3662
door	-3663
▁Adam	-3664
▁good	-3665
▁phot	-3666
▁Brand	-3667
▁Domin	-3668
▁Grape	-3669
▁review	-3670
▁Academy	-3671
ani	-3672
▁Sem	-3673
▁Cave	-3674
▁tips	-3675
▁Santa	-3676
▁Jordan	-3677
▁Polish	-3678
▁basket	-3679
▁people	-3680
▁Wedding	-3681
▁piercing	-3682
▁skipping	-3683
▁watering	-3684
▁accordion	-3685
▁wheelchair	-3686
CA	-3687
▁Luge	-3688
▁straight	-3689
▁sweeping	-3690
▁dry	-3691
ushes	-3692
▁parte	-3693
▁Florida	-3694
▁chopping	-3695
LY	-3696
END	-3697
ents	-3698
▁dem	-3699
▁Trying	-3700
▁College	-3701
▁Writing	-3702
▁Shoveling	-3703
▁Performance	-3704
▁iP	-3705
▁black	-3706
▁hookah	-3707
/10	-3708
pipe	-3709
▁Blueb	-3710
▁Sudoku	-3711
▁med	-3712
▁Corn	-3713
▁bass	-3714
▁five	-3715
▁Event	-3716
▁remote	-3717
▁Homemade	-3718
▁07	-3719
▁GR	-3720
▁jo	-3721
inky	-3722
▁Eth	-3723
▁Sab	-3724
▁mor	-3725
ATION	-3726
▁Care	-3727
▁Leaf	-3728
▁Repair	-3729
▁Professional	-3730
-11	-3731
▁Log	-3732
aling	-3733
▁scra	-3734
▁After	-3735
▁Watch	-3736
/11	-3737
ader	-3738
resso	-3739
▁Oboe	-3740
▁comb	-3741
▁Coloring	-3742
ali	-3743
▁Ret	-3744
▁tag	-3745
▁Knit	-3746
▁final	-3747
▁Lighting	-3748
TE	-3749
aha	-3750
ely	-3751
quid	-3752
stal	-3753
▁Adv	-3754
▁ent	-3755
▁Bath	-3756
▁Tech	-3757
▁Vict	-3758
▁bath	-3759
▁bubbles	-3760
▁snowmob	-3761
boy	-3762
mar	-3763
aters	-3764
▁Cool	-3765
▁Move	-3766
▁Drunk	-3767
▁seconds	-3768
▁Knitting	-3769
Ch	-3770
▁1.	-3771
▁2.	-3772
▁Dep	-3773
▁fly	-3774
▁red	-3775
▁East	-3776
▁Rain	-3777
▁Excav	-3778
▁Shine	-3779
▁crazy	-3780
▁party	-3781
▁Mushroom	-3782
▁Snowmobiling	-3783
▁06	-3784
ctor	-3785
▁Dye	-3786
▁Acro	-3787
▁Pack	-3788
▁Vlog	-3789
▁tack	-3790
orcion	-3791
▁Children	-3792
▁Toboggan	-3793
OOD	-3794
▁Hen	-3795
▁Ken	-3796
▁Mer	-3797
▁NEW	-3798
▁Rap	-3799
▁fris	-3800
▁Krump	-3801
▁Record	-3802
▁Thailand	-3803
▁celebrating	-3804
-3	-3805
una	-3806
▁1)	-3807
▁360	-3808
▁Mas	-3809
▁ping	-3810
ection	-3811
▁Willi	-3812
25	-3813
di	-3814
ks	-3815
ASS	-3816
ancy	-3817
▁sandwich	-3818
▁shearing	-3819
▁Chocolate	-3820
▁does	-3821
▁Smoke	-3822
ulldozer	-3823
▁Bending	-3824
/3	-3825
??	-3826
inha	-3827
lers	-3828
▁PRO	-3829
▁Sub	-3830
▁mag	-3831
▁por	-3832
▁Goat	-3833
▁HAIR	-3834
iccolo	-3835
▁about	-3836
▁skate	-3837
▁Mascara	-3838
▁Die	-3839
▁Fix	-3840
▁Lim	-3841
▁Low	-3842
▁Conn	-3843
▁Rout	-3844
▁clip	-3845
▁Harmonica	-3846
▁=	-3847
▁aut	-3848
abies	-3849
phones	-3850
▁Start	-3851
▁breast	-3852
rography	-3853
ms	-3854
itos	-3855
jong	-3856
unny	-3857
▁Deep	-3858
▁Comment	-3859
ias	-3860
▁Mix	-3861
▁Caps	-3862
▁child	-3863
▁August	-3864
▁Season	-3865
▁Boracay	-3866
▁Snowman	-3867
ATE	-3868
▁Sa	-3869
rier	-3870
▁ear	-3871
▁cast	-3872
▁Brian	-3873
▁mower	-3874
▁salsa	-3875
iana	-3876
atoes	-3877
▁Emma	-3878
▁Creek	-3879
▁before	-3880
▁roller	-3881
▁frisbee	-3882
▁install	-3883
SP	-3884
lbs	-3885
indo	-3886
▁Bet	-3887
▁tea	-3888
▁shopping	-3889
▁Breathing	-3890
▁breathing	-3891
TO	-3892
apy	-3893
gri	-3894
use	-3895
▁Sky	-3896
anded	-3897
▁Dice	-3898
▁Toss	-3899
▁Crack	-3900
▁Racing	-3901
▁Singing	-3902
▁Talking	-3903
▁Eyeliner	-3904
▁Graffiti	-3905
▁Recording	-3906
▁furniture	-3907
mpg	-3908
ost	-3909
▁Lav	-3910
earing	-3911
▁kites	-3912
▁Polishing	-3913
ORD	-3914
▁29	-3915
cher	-3916
▁rub	-3917
cting	-3918
▁Self	-3919
▁draw	-3920
▁snap	-3921
▁press	-3922
▁Police	-3923
▁Clapping	-3924
▁Pressure	-3925
ен	-3926
▁ال	-3927
▁Fab	-3928
▁Fry	-3929
▁Ver	-3930
▁Latte	-3931
▁Nails	-3932
▁stick	-3933
▁super	-3934
▁proper	-3935
▁waving	-3936
▁Longboard	-3937
▁Wheelchair	-3938
▁Hat	-3939
▁SAL	-3940
▁Sat	-3941
▁top	-3942
ocking	-3943
▁Money	-3944
▁Shake	-3945
▁toilet	-3946
▁Halloween	-3947
olly	-3948
ship	-3949
▁Jos	-3950
!!!!!	-3951
ettes	-3952
▁Soph	-3953
▁Will	-3954
achute	-3955
▁Separ	-3956
▁Slide	-3957
▁beard	-3958
▁County	-3959
▁Traffic	-3960
▁Counting	-3961
ga	-3962
xt	-3963
▁Hy	-3964
oker	-3965
▁hugging	-3966
▁Stacking	-3967
UST	-3968
ios	-3969
▁#4	-3970
▁ty	-3971
▁cro	-3972
▁deck	-3973
▁take	-3974
▁Plate	-3975
▁Point	-3976
▁Steve	-3977
▁Twist	-3978
▁plane	-3979
▁Reverse	-3980
▁Routine	-3981
shmallows	-3982
▁tumbling	-3983
omersaults	-3984
▁Microscope	-3985
AH	-3986
guing	-3987
▁Dire	-3988
▁Mass	-3989
aranja	-3990
ausages	-3991
▁Snowball	-3992
hi	-3993
▁п	-3994
▁yr	-3995
▁Que	-3996
▁sep	-3997
▁Clay	-3998
▁Sarah	-3999
▁Banana	-4000
▁sanding	-4001
ores	-4002
▁Van	-4003
▁sab	-4004
▁Tyler	-4005
▁grass	-4006
ailando	-4007
ditional	-4008
▁flipping	-4009
▁sleeping	-4010
▁;	-4011
nda	-4012
▁05	-4013
▁Cort	-4014
▁flat	-4015
▁Action	-4016
▁during	-4017
lication	-4018
▁Lee	-4019
etski	-4020
▁Half	-4021
▁Some	-4022
▁boat	-4023
▁solo	-4024
▁Train	-4025
▁pillow	-4026
▁Crawling	-4027
TM	-4028
cel	-4029
burg	-4030
ific	-4031
ober	-4032
▁Bry	-4033
▁cute	-4034
▁moon	-4035
▁Relax	-4036
▁laundry	-4037
▁Spaghetti	-4038
▁Kitesurfing	-4039
▁Windsurfing	-4040
EI	-4041
orda	-4042
vert	-4043
▁1/2	-4044
▁Anim	-4045
▁inter	-4046
▁Collection	-4047
/4	-4048
ants	-4049
▁Arg	-4050
awning	-4051
▁knives	-4052
▁popping	-4053
▁running	-4054
▁Kickball	-4055
▁Pushdown	-4056
▁mechanical	-4057
▁BY	-4058
▁EP	-4059
vity	-4060
▁COUN	-4061
▁mini	-4062
▁Franc	-4063
▁Fresh	-4064
▁Group	-4065
▁Smith	-4066
▁Digging	-4067
▁pancake	-4068
▁fighting	-4069
ét	-4070
▁pit	-4071
▁Chip	-4072
▁Jess	-4073
▁lama	-4074
▁remo	-4075
▁Falls	-4076
▁Jason	-4077
▁Shots	-4078
▁Student	-4079
▁Watching	-4080
▁Flashlight	-4081
YLE	-4082
▁Why	-4083
▁Wil	-4084
▁Mult	-4085
▁Cable	-4086
▁Peter	-4087
▁Small	-4088
▁lipstick	-4089
▁son	-4090
▁una	-4091
▁Answ	-4092
adeira	-4093
▁grand	-4094
▁salad	-4095
▁smoke	-4096
▁Ladder	-4097
▁sewing	-4098
▁skills	-4099
▁attempt	-4100
▁beginners	-4101
▁LE	-4102
▁Ni	-4103
▁VS	-4104
atty	-4105
ells	-4106
▁Sexy	-4107
▁VIDE	-4108
▁yard	-4109
▁Balls	-4110
▁Hawai	-4111
▁Taylor	-4112
▁Popping	-4113
▁–	-4114
zen	-4115
▁AM	-4116
▁IR	-4117
▁cal	-4118
ublic	-4119
▁BEST	-4120
▁Chic	-4121
▁prep	-4122
▁kayak	-4123
▁their	-4124
▁Anchor	-4125
▁minutes	-4126
▁Bagpipes	-4127
▁Unloading	-4128
INT	-4129
ove	-4130
rey	-4131
ume	-4132
anks	-4133
oose	-4134
▁Den	-4135
▁BALL	-4136
▁Impro	-4137
▁Vegas	-4138
▁Custom	-4139
▁Puzzle	-4140
▁carpet	-4141
▁Lessons	-4142
▁Process	-4143
▁amazing	-4144
USH	-4145
▁Key	-4146
▁Pur	-4147
▁pole	-4148
▁Brown	-4149
▁daddy	-4150
▁sister	-4151
▁Gymnastics	-4152
lyn	-4153
▁SA	-4154
dest	-4155
lies	-4156
mont	-4157
▁NYC	-4158
▁Pad	-4159
▁WOR	-4160
stone	-4161
▁very	-4162
▁Woman	-4163
lashing	-4164
▁League	-4165
▁button	-4166
▁squash	-4167
▁Service	-4168
▁sailing	-4169
▁Blackjack	-4170
▁Faceplant	-4171
▁International	-4172
dge	-4173
ugar	-4174
▁per	-4175
uning	-4176
▁night	-4177
ulpture	-4178
▁Celebr	-4179
▁Played	-4180
▁Fingers	-4181
▁welding	-4182
▁clapping	-4183
jo	-4184
hel	-4185
▁Are	-4186
▁LED	-4187
▁Trim	-4188
▁papel	-4189
▁Wrench	-4190
▁Maracas	-4191
▁friends	-4192
▁hopscotch	-4193
▁University	-4194
ет	-4195
▁Ba	-4196
▁NO	-4197
▁Bear	-4198
▁Lute	-4199
▁Crash	-4200
▁Grace	-4201
▁Trees	-4202
▁Origami	-4203
▁shaving	-4204
▁Keyboard	-4205
▁Sharpener	-4206
▁Vegetable	-4207
▁saxophone	-4208
▁Dar	-4209
▁dom	-4210
works	-4211
▁Thai	-4212
▁gold	-4213
▁Emily	-4214
▁Ethan	-4215
▁Giant	-4216
▁Kevin	-4217
▁brother	-4218
▁mountain	-4219
▁Fe	-4220
rica	-4221
▁Bud	-4222
▁Esc	-4223
▁mic	-4224
sters	-4225
▁tick	-4226
▁Canyon	-4227
▁stitch	-4228
▁Jogging	-4229
▁Pirouette	-4230
▁Vacuuming	-4231
ef	-4232
mm	-4233
на	-4234
duct	-4235
▁Ali	-4236
house	-4237
▁Steel	-4238
▁sound	-4239
18	-4240
REE	-4241
ómo	-4242
▁Met	-4243
berry	-4244
▁Jeff	-4245
▁start	-4246
▁candle	-4247
ÃO	-4248
gle	-4249
ared	-4250
hind	-4251
▁Est	-4252
▁cer	-4253
iforn	-4254
▁Pick	-4255
▁Jacob	-4256
▁squat	-4257
▁Indoor	-4258
09	-4259
oli	-4260
▁Kim	-4261
▁cop	-4262
▁SNOW	-4263
▁free	-4264
oupage	-4265
▁Sweet	-4266
▁wrong	-4267
▁beatbox	-4268
gp	-4269
lb	-4270
hill	-4271
▁hit	-4272
▁tight	-4273
▁blower	-4274
▁Candles	-4275
▁Drinking	-4276
▁Stability	-4277
ati	-4278
oda	-4279
▁Inf	-4280
▁Bang	-4281
▁dive	-4282
▁Mowing	-4283
▁snatch	-4284
▁somersault	-4285
▁BO	-4286
arth	-4287
▁Hit	-4288
▁Nik	-4289
▁Toy	-4290
▁Skyd	-4291
▁Highlights	-4292
▁Mu	-4293
PING	-4294
hony	-4295
aphone	-4296
ughter	-4297
▁raise	-4298
▁Raises	-4299
▁banana	-4300
▁waking	-4301
AI	-4302
ICE	-4303
iah	-4304
▁Ha	-4305
▁fa	-4306
▁Ins	-4307
▁nail	-4308
▁sing	-4309
▁tour	-4310
▁drool	-4311
▁whist	-4312
ancakes	-4313
▁German	-4314
▁plaster	-4315
▁traffic	-4316
▁Somersault	-4317
ра	-4318
afe	-4319
▁kg	-4320
UTOR	-4321
mble	-4322
▁198	-4323
▁Los	-4324
▁Rece	-4325
▁arch	-4326
ifornia	-4327
▁Austin	-4328
▁Caving	-4329
▁racing	-4330
▁Pumping	-4331
▁eyebrow	-4332
▁ocarina	-4333
▁capoeira	-4334
▁concrete	-4335
▁handstand	-4336
▁Snowmobile	-4337
▁Stretching	-4338
▁backstroke	-4339
▁headbanging	-4340
▁Breaststroke	-4341
ved	-4342
▁Flint	-4343
▁decor	-4344
▁small	-4345
walking	-4346
▁Falling	-4347
▁Grandma	-4348
▁excited	-4349
▁Language	-4350
▁Bartending	-4351
INA	-4352
uary	-4353
gling	-4354
riger	-4355
▁Comm	-4356
▁Dave	-4357
▁land	-4358
▁meat	-4359
▁Junior	-4360
▁Valley	-4361
▁needle	-4362
▁weight	-4363
▁bending	-4364
nes	-4365
ments	-4366
▁Jake	-4367
▁Spin	-4368
▁Steam	-4369
▁bicycle	-4370
▁Australia	-4371
▁Timelapse	-4372
CC	-4373
apa	-4374
aya	-4375
inks	-4376
▁Jen	-4377
▁LEG	-4378
▁men	-4379
▁Four	-4380
▁Tools	-4381
▁sheep	-4382
▁PLAYING	-4383
▁Toddler	-4384
▁Sleeping	-4385
▁cracking	-4386
▁Geocaching	-4387
ко	-4388
▁Str	-4389
▁gym	-4390
▁Lind	-4391
▁Marc	-4392
▁bott	-4393
▁taste	-4394
▁ballet	-4395
▁triple	-4396
▁weaving	-4397
flv	-4398
rir	-4399
umin	-4400
▁Bon	-4401
▁Tam	-4402
ellow	-4403
▁Wire	-4404
▁meet	-4405
▁Every	-4406
▁shave	-4407
▁Blower	-4408
▁Special	-4409
▁ripping	-4410
▁Circular	-4411
UE	-4412
▁?	-4413
rie	-4414
▁Ath	-4415
▁Syd	-4416
▁Wel	-4417
owder	-4418
▁Gift	-4419
▁trip	-4420
▁VIDEO	-4421
▁poker	-4422
▁Knives	-4423
▁arrest	-4424
▁Drawing	-4425
▁Sweeping	-4426
▁macarena	-4427
▁IS	-4428
▁WH	-4429
iger	-4430
▁Lat	-4431
grima	-4432
cident	-4433
▁tying	-4434
▁Lunges	-4435
▁Potato	-4436
▁orange	-4437
▁carrots	-4438
▁trimming	-4439
anna	-4440
rect	-4441
▁port	-4442
▁watch	-4443
▁Breakdance	-4444
Sp	-4445
▁Dun	-4446
▁det	-4447
▁Take	-4448
ancers	-4449
▁Honey	-4450
▁Excited	-4451
▁hitting	-4452
▁Advanced	-4453
▁jumpstyle	-4454
▁Skateboarding	-4455
los	-4456
isha	-4457
▁TRA	-4458
▁Mower	-4459
UTORIAL	-4460
▁Clothes	-4461
▁Morning	-4462
▁packing	-4463
cade	-4464
▁Mem	-4465
▁Vie	-4466
▁Eyes	-4467
▁Hero	-4468
▁Rice	-4469
▁fans	-4470
▁rece	-4471
▁Chair	-4472
▁Match	-4473
▁cartas	-4474
volution	-4475
▁Cartwheeling	-4476
-13	-4477
OLD	-4478
rel	-4479
aron	-4480
ismo	-4481
igsaw	-4482
▁Into	-4483
▁Barbe	-4484
▁Frank	-4485
▁Youth	-4486
▁Cheering	-4487
▁Dumbbell	-4488
▁shoveling	-4489
In	-4490
▁с	-4491
ikes	-4492
▁Core	-4493
▁live	-4494
▁Kicks	-4495
▁Teeth	-4496
▁Three	-4497
▁Course	-4498
▁Cymbal	-4499
▁Stretches	-4500
).	-4501
-14	-4502
▁Jer	-4503
▁Eats	-4504
▁China	-4505
▁Victor	-4506
▁Climber	-4507
▁faceplant	-4508
IB	-4509
ex	-4510
aved	-4511
ient	-4512
▁pri	-4513
▁While	-4514
▁slack	-4515
fferent	-4516
ury	-4517
▁Ale	-4518
ising	-4519
▁love	-4520
ulling	-4521
▁carry	-4522
▁simple	-4523
▁monopoly	-4524
▁u	-4525
▁EL	-4526
▁(2)	-4527
▁Blo	-4528
▁Fer	-4529
achos	-4530
▁Rose	-4531
▁pack	-4532
reland	-4533
▁Heavy	-4534
▁Sport	-4535
▁short	-4536
▁hotdog	-4537
ban	-4538
ense	-4539
orth	-4540
ación	-4541
▁Italian	-4542
▁elephant	-4543
▁Beautiful	-4544
je	-4545
pr	-4546
és	-4547
ças	-4548
▁UP	-4549
dles	-4550
▁Bul	-4551
▁Bridge	-4552
▁Panning	-4553
▁mopping	-4554
▁peeling	-4555
▁Vegetables	-4556
IME	-4557
▁Kh	-4558
bour	-4559
elda	-4560
ould	-4561
▁Ren	-4562
amond	-4563
▁Luke	-4564
castle	-4565
▁round	-4566
▁gangnam	-4567
kk	-4568
OUT	-4569
oof	-4570
▁Oh	-4571
▁ju	-4572
raft	-4573
▁Pun	-4574
▁meg	-4575
▁ref	-4576
umber	-4577
▁Cymbals	-4578
▁coconut	-4579
fast	-4580
▁Gam	-4581
▁axe	-4582
▁exp	-4583
▁pal	-4584
AKING	-4585
ivers	-4586
▁Sail	-4587
▁Groom	-4588
▁exper	-4589
▁sushi	-4590
▁Canada	-4591
antoches	-4592
▁Friends	-4593
▁pinball	-4594
▁Aerobics	-4595
AX	-4596
VI	-4597
ao	-4598
ros	-4599
▁1:	-4600
▁ft	-4601
▁Aud	-4602
▁bet	-4603
▁ind	-4604
▁war	-4605
.....	-4606
urant	-4607
▁Fort	-4608
keeping	-4609
▁battle	-4610
▁Crochet	-4611
▁cookies	-4612
▁Sledgehammer	-4613
OOK	-4614
▁Bu	-4615
▁PO	-4616
▁Su	-4617
▁aw	-4618
eech	-4619
▁Glo	-4620
▁Ten	-4621
ension	-4622
▁sippy	-4623
!!!!!!!!	-4624
▁trapeze	-4625
75	-4626
TRY	-4627
gie	-4628
men	-4629
iden	-4630
▁Dal	-4631
▁Mak	-4632
▁Mur	-4633
blower	-4634
▁slime	-4635
▁Sydney	-4636
▁assemb	-4637
▁coffee	-4638
▁Laundry	-4639
▁Flipping	-4640
▁Pyrography	-4641
kn	-4642
joy	-4643
▁Fa	-4644
▁Gol	-4645
▁Hip	-4646
▁Post	-4647
▁Fencing	-4648
▁scissors	-4649
▁Aqu	-4650
▁tim	-4651
aders	-4652
▁Clap	-4653
▁Cube	-4654
▁Hall	-4655
▁Kore	-4656
▁Roping	-4657
▁Ripping	-4658
▁rolling	-4659
▁Bandaging	-4660
ART	-4661
iva	-4662
oud	-4663
▁Ko	-4664
icas	-4665
igar	-4666
▁Hay	-4667
▁2006	-4668
▁hole	-4669
▁appla	-4670
▁Nathan	-4671
▁Statue	-4672
▁tocando	-4673
▁Clarinet	-4674
▁Automatic	-4675
▁California	-4676
▁EM	-4677
ales	-4678
ites	-4679
▁Ven	-4680
ALLEN	-4681
rigerator	-4682
▁Smoothie	-4683
22	-4684
vit	-4685
▁2:	-4686
cept	-4687
gers	-4688
▁Ray	-4689
▁imp	-4690
▁met	-4691
▁try	-4692
nique	-4693
▁(201	-4694
▁Drool	-4695
▁COUNTRY	-4696
▁Flowers	-4697
▁Triceps	-4698
▁Piercing	-4699
ño	-4700
IND	-4701
ORE	-4702
UMB	-4703
ges	-4704
pel	-4705
▁Hop	-4706
▁Soc	-4707
ached	-4708
▁Town	-4709
▁Asian	-4710
▁quick	-4711
▁garden	-4712
▁Shaping	-4713
▁Therapy	-4714
▁holding	-4715
▁Doughnut	-4716
▁Recorder	-4717
▁Standing	-4718
▁TUTORIAL	-4719
19	-4720
cc	-4721
▁Ho	-4722
igan	-4723
▁Raz	-4724
ATING	-4725
ether	-4726
umble	-4727
▁Bean	-4728
ifting	-4729
▁Crying	-4730
▁Friday	-4731
▁Method	-4732
▁deadlift	-4733
▁hoverboard	-4734
asse	-4735
illo	-4736
ried	-4737
rown	-4738
▁God	-4739
▁Tar	-4740
▁Tem	-4741
▁Win	-4742
thers	-4743
▁Apre	-4744
▁EVER	-4745
▁Flex	-4746
▁form	-4747
▁lake	-4748
▁roup	-4749
▁Paris	-4750
▁Smart	-4751
▁Space	-4752
▁Villa	-4753
▁cliff	-4754
▁crawl	-4755
▁Silver	-4756
▁Bandage	-4757
▁Bubbles	-4758
YE	-4759
▁$	-4760
rab	-4761
▁OR	-4762
▁sy	-4763
airs	-4764
▁CLE	-4765
▁dan	-4766
▁LINE	-4767
▁pierc	-4768
ALLENGE	-4769
reading	-4770
▁Adjust	-4771
LA	-4772
▁31	-4773
▁Ol	-4774
anche	-4775
ifies	-4776
▁Bend	-4777
▁Rest	-4778
▁Heart	-4779
▁Royal	-4780
▁Hawaii	-4781
▁Person	-4782
▁stilts	-4783
▁session	-4784
?!	-4785
CO	-4786
pre	-4787
ario	-4788
▁Equ	-4789
▁pup	-4790
phone	-4791
▁toss	-4792
cember	-4793
▁sleep	-4794
oughing	-4795
▁huddle	-4796
▁Chicago	-4797
▁Hugging	-4798
eons	-4799
obomb	-4800
▁Dust	-4801
▁Noah	-4802
▁Shop	-4803
▁cour	-4804
▁road	-4805
arious	-4806
▁great	-4807
▁rides	-4808
▁vault	-4809
▁Cumbia	-4810
▁Coconut	-4811
▁English	-4812
▁Blasting	-4813
▁Scrapbook	-4814
▁Experience	-4815
ác	-4816
gin	-4817
ria	-4818
the	-4819
▁Ze	-4820
ught	-4821
osing	-4822
▁Carro	-4823
▁Surve	-4824
▁Teach	-4825
▁Criança	-4826
▁Moonwalk	-4827
▁counting	-4828
neu	-4829
ardo	-4830
▁arr	-4831
achel	-4832
▁Boot	-4833
▁Slam	-4834
▁life	-4835
▁Upper	-4836
▁couch	-4837
▁separ	-4838
▁solve	-4839
▁George	-4840
▁record	-4841
ological	-4842
▁cleaner	-4843
▁CHALLENGE	-4844
NY	-4845
▁К	-4846
wan	-4847
rada	-4848
▁Lab	-4849
▁gro	-4850
BOARD	-4851
ector	-4852
vices	-4853
▁COMO	-4854
▁Gear	-4855
▁train	-4856
▁church	-4857
▁Edition	-4858
▁Piccolo	-4859
▁Hurdling	-4860
2.	-4861
ondo	-4862
▁BAB	-4863
▁FUN	-4864
▁Isa	-4865
▁Mob	-4866
▁Hole	-4867
▁Lady	-4868
▁tool	-4869
▁Mason	-4870
▁Stilt	-4871
▁brick	-4872
▁Hannah	-4873
-4	-4874
IKE	-4875
▁Vs	-4876
▁im	-4877
adas	-4878
▁CUT	-4879
▁Mud	-4880
▁Ram	-4881
▁Vis	-4882
▁bad	-4883
iness	-4884
▁Look	-4885
▁Right	-4886
▁Finals	-4887
▁flower	-4888
▁Matthew	-4889
▁Passing	-4890
▁Staring	-4891
ASY	-4892
MPG	-4893
lim	-4894
▁Rom	-4895
▁bob	-4896
▁win	-4897
▁Bill	-4898
▁trees	-4899
▁sledge	-4900
▁Bouncing	-4901
▁Colorado	-4902
▁bagpipes	-4903
▁Longboarding	-4904
HA	-4905
-15	-4906
OCK	-4907
rad	-4908
made	-4909
▁CHE	-4910
▁Mod	-4911
▁real	-4912
ysters	-4913
▁Quart	-4914
▁Range	-4915
▁hacer	-4916
▁right	-4917
▁sliding	-4918
hs	-4919
▁PS	-4920
EIRA	-4921
▁Lil	-4922
▁rod	-4923
▁Kyle	-4924
ateral	-4925
▁Human	-4926
▁driver	-4927
▁Busking	-4928
▁Concerto	-4929
▁Olympics	-4930
▁doughnut	-4931
▁graffiti	-4932
4)	-4933
ORT	-4934
vec	-4935
case	-4936
reng	-4937
▁gone	-4938
▁Teatro	-4939
▁slalom	-4940
▁waiting	-4941
▁smashing	-4942
▁Archaeology	-4943
enna	-4944
ieve	-4945
▁Oak	-4946
icine	-4947
▁Mack	-4948
lastic	-4949
▁Block	-4950
▁laugh	-4951
dancing	-4952
▁Artist	-4953
▁polish	-4954
▁Felting	-4955
▁Applying	-4956
Fit	-4957
ete	-4958
ien	-4959
▁FE	-4960
VING	-4961
neck	-4962
onto	-4963
opro	-4964
▁Aid	-4965
▁End	-4966
▁was	-4967
▁Dist	-4968
▁Braid	-4969
▁Diego	-4970
▁Circus	-4971
▁Waving	-4972
▁statue	-4973
▁morning	-4974
▁Changing	-4975
▁headstand	-4976
▁vacuuming	-4977
!)	-4978
17	-4979
▁KN	-4980
▁Si	-4981
▁Ron	-4982
▁Scot	-4983
▁Stain	-4984
▁match	-4985
▁sausage	-4986
▁champion	-4987
▁motorcycle	-4988
so	-4989
ATH	-4990
osa	-4991
agem	-4992
berg	-4993
▁mule	-4994
▁Chase	-4995
▁award	-4996
▁Lipstick	-4997
IK	-4998
SH	-4999
▁П	-5000
iff	-5001
▁au	-5002
ummy	-5003
▁Fac	-5004
▁MAN	-5005
▁tip	-5006
▁Arms	-5007
▁Nove	-5008
▁That	-5009
▁YOUR	-5010
▁goes	-5011
igator	-5012
▁trail	-5013
▁Disney	-5014
▁Healthy	-5015
▁October	-5016
▁Russian	-5017
▁Balloons	-5018
▁mushroom	-5019
▁Excavation	-5020
▁300	-5021
▁Les	-5022
▁Jazz	-5023
▁Sean	-5024
ycling	-5025
▁Andre	-5026
▁Fruit	-5027
▁Laure	-5028
lifting	-5029
▁Minute	-5030
▁napkin	-5031
▁January	-5032
irouettes	-5033
▁Blueberry	-5034
cia	-5035
iga	-5036
▁Ur	-5037
▁Por	-5038
▁Vir	-5039
▁glo	-5040
▁lav	-5041
▁lbs	-5042
apore	-5043
▁Anna	-5044
▁Eric	-5045
▁Goats	-5046
▁Katie	-5047
▁Arranging	-5048
▁AD	-5049
▁cre	-5050
otion	-5051
▁Grip	-5052
▁Turn	-5053
▁View	-5054
▁Angel	-5055
▁color	-5056
▁Arrest	-5057
▁Brandon	-5058
▁Station	-5059
▁curling	-5060
▁mascara	-5061
▁Shuffleboard	-5062
▁DJ	-5063
▁WE	-5064
iper	-5065
▁Joy	-5066
▁Rel	-5067
▁bor	-5068
▁mud	-5069
▁Level	-5070
osition	-5071
▁sneeze	-5072
▁Anthony	-5073
▁Kissing	-5074
▁winking	-5075
▁softball	-5076
zo	-5077
BOX	-5078
iny	-5079
ser	-5080
▁36	-5081
▁80	-5082
core	-5083
inja	-5084
ized	-5085
quina	-5086
▁Copy	-5087
▁Craft	-5088
▁Grill	-5089
▁Saree	-5090
▁laying	-5091
▁Dolphin	-5092
▁Whistling	-5093
▁butterfly	-5094
90	-5095
gn	-5096
IES	-5097
aki	-5098
off	-5099
▁Fo	-5100
▁GU	-5101
iest	-5102
yles	-5103
▁Own	-5104
▁PER	-5105
▁Pie	-5106
▁Gran	-5107
▁avec	-5108
▁CLEAN	-5109
▁Resta	-5110
▁Random	-5111
▁apples	-5112
▁version	-5113
▁Newspaper	-5114
esh	-5115
▁90	-5116
▁WR	-5117
auce	-5118
ovel	-5119
▁int	-5120
▁sec	-5121
▁Brit	-5122
▁coin	-5123
▁Coast	-5124
ression	-5125
▁Mahjong	-5126
▁foundation	-5127
-5	-5128
SU	-5129
alt	-5130
ief	-5131
▁PE	-5132
dern	-5133
▁Ide	-5134
▁bee	-5135
▁est	-5136
▁mir	-5137
▁nar	-5138
▁Tony	-5139
▁shed	-5140
▁view	-5141
▁Parte	-5142
▁roast	-5143
▁Casino	-5144
▁Europe	-5145
▁chewing	-5146
▁December	-5147
▁Hardwood	-5148
▁Tightrope	-5149
Re	-5150
chi	-5151
sey	-5152
reen	-5153
stra	-5154
▁Ban	-5155
▁Gets	-5156
▁Rick	-5157
▁Wake	-5158
▁Chips	-5159
▁Onion	-5160
▁micro	-5161
▁bungee	-5162
▁Charity	-5163
▁arguing	-5164
▁clarinet	-5165
▁Plastering	-5166
To	-5167
acy	-5168
aux	-5169
▁Bol	-5170
▁Inst	-5171
▁Ross	-5172
▁Vine	-5173
▁Aaron	-5174
▁Movie	-5175
▁Liquid	-5176
▁Ut	-5177
ocal	-5178
▁Pil	-5179
▁Arts	-5180
▁Carol	-5181
▁latte	-5182
▁steel	-5183
▁Pruning	-5184
24	-5185
Ar	-5186
ME	-5187
ер	-5188
ла	-5189
fish	-5190
issa	-5191
mond	-5192
vest	-5193
▁Dam	-5194
▁Fra	-5195
▁Nic	-5196
▁him	-5197
aches	-5198
rende	-5199
▁2018	-5200
▁jack	-5201
▁Today	-5202
▁WATER	-5203
▁dolph	-5204
▁Charlie	-5205
▁Winking	-5206
▁laranja	-5207
▁November	-5208
▁freestyle	-5209
ACE	-5210
ICA	-5211
ilo	-5212
▁Mt	-5213
▁esc	-5214
paper	-5215
rylic	-5216
▁Andy	-5217
▁BABY	-5218
▁HAND	-5219
▁Pink	-5220
▁Skin	-5221
▁yolk	-5222
▁krump	-5223
▁Tackling	-5224
5)	-5225
uan	-5226
▁Def	-5227
▁Mosh	-5228
▁desc	-5229
▁turn	-5230
▁Sleep	-5231
▁Fridge	-5232
▁Burning	-5233
▁Diamond	-5234
▁parkour	-5235
▁airplane	-5236
Up	-5237
loe	-5238
ran	-5239
▁#5	-5240
▁45	-5241
acqu	-5242
omen	-5243
▁Alp	-5244
▁Der	-5245
▁Hor	-5246
▁ter	-5247
▁Barb	-5248
▁Cork	-5249
▁Kiss	-5250
▁caps	-5251
▁cool	-5252
friend	-5253
▁flash	-5254
▁crutches	-5255
▁forecast	-5256
▁polishing	-5257
▁Traditional	-5258
AW	-5259
ji	-5260
BLE	-5261
dam	-5262
lot	-5263
set	-5264
uro	-5265
▁BM	-5266
iled	-5267
isco	-5268
▁Slo	-5269
▁Most	-5270
▁Room	-5271
▁full	-5272
▁action	-5273
▁cheese	-5274
▁family	-5275
▁ironing	-5276
▁headbutt	-5277
▁Anchoring	-5278
▁dribbling	-5279
▁Fro	-5280
▁los	-5281
▁sub	-5282
▁vid	-5283
▁read	-5284
▁Market	-5285
▁pumpkin	-5286
▁Bodysurfing	-5287
ов	-5288
oco	-5289
▁(3	-5290
olla	-5291
ules	-5292
▁Cry	-5293
▁Gun	-5294
▁Cómo	-5295
▁wake	-5296
▁Punch	-5297
▁Stomp	-5298
▁Athlet	-5299
▁Fastest	-5300
▁javelin	-5301
▁karaoke	-5302
▁Workshop	-5303
AZ	-5304
NE	-5305
-16	-5306
LES	-5307
ULL	-5308
itz	-5309
raf	-5310
▁70	-5311
▁Op	-5312
▁ca	-5313
elho	-5314
▁dye	-5315
▁pun	-5316
anish	-5317
ature	-5318
▁Call	-5319
▁trim	-5320
▁Chain	-5321
▁Henry	-5322
▁Zelda	-5323
rianças	-5324
▁Brother	-5325
▁Grandpa	-5326
▁Without	-5327
▁Alligator	-5328
cho	-5329
umm	-5330
▁..	-5331
▁35	-5332
▁Gl	-5333
atre	-5334
ácil	-5335
▁dis	-5336
overs	-5337
▁cymb	-5338
▁spin	-5339
▁Wooden	-5340
▁Ireland	-5341
▁Johnson	-5342
▁licking	-5343
▁properly	-5344
▁snowkiting	-5345
PA	-5346
▁MI	-5347
YING	-5348
aded	-5349
ille	-5350
onda	-5351
▁NOT	-5352
▁Val	-5353
▁ban	-5354
andem	-5355
▁Fill	-5356
▁Soft	-5357
▁look	-5358
▁Bread	-5359
▁Sippy	-5360
▁THROW	-5361
▁Squats	-5362
▁Tackle	-5363
▁master	-5364
▁Christian	-5365
▁controller	-5366
-09	-5367
009	-5368
ATT	-5369
cha	-5370
con	-5371
▁DAY	-5372
▁MOV	-5373
▁REC	-5374
▁HEAD	-5375
▁clap	-5376
▁lute	-5377
action	-5378
▁Steps	-5379
▁Golden	-5380
▁extingu	-5381
▁Backyard	-5382
▁Kitesurf	-5383
▁roasting	-5384
▁Singapore	-5385
▁slackline	-5386
▁Application	-5387
26	-5388
ISS	-5389
anz	-5390
▁Ow	-5391
bert	-5392
▁fac	-5393
cture	-5394
ental	-5395
▁EASY	-5396
▁Read	-5397
▁club	-5398
restle	-5399
▁Logan	-5400
▁veget	-5401
▁Abseil	-5402
▁horses	-5403
▁Another	-5404
▁cosplay	-5405
ía	-5406
.11	-5407
hys	-5408
aven	-5409
iday	-5410
time	-5411
▁Rad	-5412
▁act	-5413
▁hom	-5414
▁ped	-5415
▁ver	-5416
▁vis	-5417
hando	-5418
▁Alas	-5419
▁Felt	-5420
▁Mast	-5421
▁Mexico	-5422
▁Sticking	-5423
▁Introduction	-5424
▁cartwheeling	-5425
23	-5426
BC	-5427
eso	-5428
ova	-5429
▁MAS	-5430
▁Bach	-5431
▁Cord	-5432
▁Very	-5433
▁cent	-5434
▁Blind	-5435
▁Plane	-5436
▁Razor	-5437
▁jacks	-5438
▁Button	-5439
▁Dragon	-5440
allowing	-5441
▁Product	-5442
▁pouring	-5443
▁eyeliner	-5444
▁Questions	-5445
▁collection	-5446
ELL	-5447
cean	-5448
with	-5449
▁Pep	-5450
▁Scrub	-5451
▁rocks	-5452
ography	-5453
▁Candle	-5454
▁climbs	-5455
▁Burping	-5456
▁lighting	-5457
▁pirouette	-5458
het	-5459
aleb	-5460
cast	-5461
▁Alb	-5462
▁COL	-5463
▁Fan	-5464
▁MON	-5465
▁Mop	-5466
▁Web	-5467
aland	-5468
asily	-5469
right	-5470
▁Must	-5471
▁cous	-5472
▁orig	-5473
utters	-5474
▁Bella	-5475
▁Dylan	-5476
▁Queen	-5477
▁Touch	-5478
▁beaut	-5479
▁roupa	-5480
▁Mixing	-5481
▁Outdoor	-5482
▁Fighting	-5483
▁Shredder	-5484
▁embroidery	-5485
ан	-5486
.12	-5487
nie	-5488
▁IT	-5489
▁Jr	-5490
▁cu	-5491
acho	-5492
▁Hil	-5493
▁POL	-5494
▁Tae	-5495
▁Bras	-5496
▁Left	-5497
▁Ways	-5498
▁fest	-5499
▁mass	-5500
▁abrir	-5501
▁braid	-5502
▁Around	-5503
▁Babies	-5504
▁Beauty	-5505
▁Hotdog	-5506
▁Mirror	-5507
▁person	-5508
▁kissing	-5509
▁staring	-5510
▁Champagne	-5511
45	-5512
uy	-5513
uce	-5514
uco	-5515
▁Hi	-5516
▁KR	-5517
▁Ky	-5518
▁Na	-5519
lage	-5520
▁let	-5521
▁Cold	-5522
▁Spir	-5523
▁base	-5524
uminum	-5525
▁Irish	-5526
▁aerob	-5527
▁plate	-5528
▁Butter	-5529
▁Robert	-5530
▁Inhaler	-5531
▁leather	-5532
▁pierced	-5533
▁recording	-5534
.10	-5535
ARA	-5536
alo	-5537
sor	-5538
foot	-5539
▁Deb	-5540
▁ICE	-5541
▁Maj	-5542
▁ang	-5543
▁Lily	-5544
▁dire	-5545
▁yoga	-5546
▁Promo	-5547
▁quest	-5548
▁Travel	-5549
▁helmet	-5550
▁potato	-5551
acticing	-5552
▁Hunting	-5553
▁Recipes	-5554
▁pottery	-5555
▁project	-5556
▁Steering	-5557
mi	-5558
▁в	-5559
▁GO	-5560
form	-5561
▁CAP	-5562
▁fit	-5563
/2013	-5564
ruary	-5565
▁Pear	-5566
▁Tenn	-5567
▁mosh	-5568
▁Brook	-5569
▁Dough	-5570
▁Maria	-5571
▁shine	-5572
▁woman	-5573
▁Atlant	-5574
▁roping	-5575
▁Central	-5576
▁Mopping	-5577
▁Checkers	-5578
▁Bulldozer	-5579
po	-5580
oca	-5581
ucc	-5582
▁su	-5583
▁eng	-5584
▁les	-5585
▁mop	-5586
▁tor	-5587
▁Evan	-5588
▁Hugs	-5589
▁near	-5590
tember	-5591
▁darts	-5592
▁mommy	-5593
▁Biking	-5594
▁Puppet	-5595
▁Videos	-5596
▁square	-5597
▁crochet	-5598
kw	-5599
ACT	-5600
ADO	-5601
lem	-5602
▁MD	-5603
▁ni	-5604
acon	-5605
ares	-5606
rael	-5607
▁tur	-5608
onder	-5609
▁Cell	-5610
▁other	-5611
▁Awards	-5612
▁Bounce	-5613
▁flauta	-5614
▁Chasing	-5615
▁Sculpture	-5616
▁paintball	-5617
RY	-5618
ña	-5619
aco	-5620
▁Id	-5621
aked	-5622
ocket	-5623
ooper	-5624
usion	-5625
▁Wave	-5626
▁eyed	-5627
▁Coach	-5628
▁Comple	-5629
▁Floors	-5630
▁Martin	-5631
▁Tongue	-5632
▁Wading	-5633
▁Waking	-5634
▁Grinder	-5635
▁setting	-5636
▁Kayaking	-5637
▁marshmallows	-5638
/5	-5639
IRL	-5640
URF	-5641
ima	-5642
▁Ay	-5643
acht	-5644
amic	-5645
ffle	-5646
lade	-5647
leta	-5648
▁Lem	-5649
▁Mun	-5650
▁mel	-5651
ordar	-5652
▁Bowl	-5653
▁CONT	-5654
▁Greg	-5655
▁Zach	-5656
▁half	-5657
▁Boxing	-5658
▁Rachel	-5659
▁drills	-5660
▁fridge	-5661
▁Bagpipe	-5662
▁Company	-5663
▁Trailer	-5664
▁against	-5665
▁sharpening	-5666
eon	-5667
rio	-5668
▁MA	-5669
▁Bos	-5670
▁Sav	-5671
▁Sus	-5672
uerto	-5673
▁Buck	-5674
▁COMP	-5675
▁Vint	-5676
▁kiss	-5677
▁leaf	-5678
▁pare	-5679
▁prof	-5680
▁room	-5681
unking	-5682
▁Finish	-5683
▁Senior	-5684
▁having	-5685
▁Concert	-5686
▁Barbeque	-5687
▁steering	-5688
▁unboxing	-5689
▁Decoupage	-5690
-6	-5691
Th	-5692
▁é	-5693
▁Av	-5694
inets	-5695
▁Dubai	-5696
▁Louis	-5697
▁Remov	-5698
▁rubik	-5699
▁Manual	-5700
▁Sneeze	-5701
▁Sunday	-5702
▁Patrick	-5703
▁student	-5704
▁parasailing	-5705
21	-5706
TH	-5707
OME	-5708
▁CC	-5709
▁ol	-5710
iser	-5711
▁Ore	-5712
▁chi	-5713
essee	-5714
▁Buff	-5715
▁Fans	-5716
▁Place	-5717
▁dough	-5718
▁Working	-5719
▁bandage	-5720
▁criança	-5721
▁Espresso	-5722
▁bouncing	-5723
▁Snowboard	-5724
▁Controller	-5725
▁paragliding	-5726
▁reenactment	-5727
/6	-5728
PH	-5729
VE	-5730
ие	-5731
LOG	-5732
ius	-5733
▁NC	-5734
UMBA	-5735
bury	-5736
▁cou	-5737
▁vol	-5738
-2013	-5739
▁Ange	-5740
▁Film	-5741
▁clay	-5742
▁pneu	-5743
▁Theme	-5744
▁bread	-5745
▁Boston	-5746
▁Jetski	-5747
▁Marble	-5748
▁Online	-5749
▁christ	-5750
▁concer	-5751
▁repair	-5752
▁Windsurf	-5753
▁sneezing	-5754
▁scrambled	-5755
▁Wheelbarrow	-5756
uf	-5757
gue	-5758
vas	-5759
arks	-5760
▁Cub	-5761
▁Kil	-5762
▁Sax	-5763
▁Wor	-5764
▁too	-5765
Style	-5766
▁Auto	-5767
▁Beef	-5768
▁Warm	-5769
▁luge	-5770
▁Donut	-5771
▁Maint	-5772
▁green	-5773
▁Altern	-5774
▁Talent	-5775
▁mowing	-5776
▁bailando	-5777
▁calligraphy	-5778
MG	-5779
▁С	-5780
PEN	-5781
▁DC	-5782
aser	-5783
most	-5784
▁pra	-5785
ASTER	-5786
▁Brad	-5787
▁Cole	-5788
▁past	-5789
▁Laura	-5790
▁Arcade	-5791
▁Spider	-5792
▁Vintage	-5793
▁cadeira	-5794
▁Dolphins	-5795
▁Headbutt	-5796
▁Sausages	-5797
03	-5798
:)	-5799
PL	-5800
aly	-5801
tie	-5802
uts	-5803
▁Ak	-5804
▁Ja	-5805
▁Ta	-5806
aden	-5807
ados	-5808
alys	-5809
rack	-5810
▁Han	-5811
▁PAP	-5812
rinho	-5813
▁Edge	-5814
▁Hist	-5815
▁feat	-5816
▁tile	-5817
▁Grass	-5818
▁steps	-5819
▁weeks	-5820
▁Olivia	-5821
▁Stinky	-5822
blasting	-5823
▁Dribble	-5824
▁snowball	-5825
▁Washington	-5826
▁Refrigerator	-5827
▁😂	-5828
▁3)	-5829
▁BC	-5830
culo	-5831
gypt	-5832
▁don	-5833
▁toe	-5834
▁Burn	-5835
▁Salt	-5836
▁hugs	-5837
▁block	-5838
▁ropes	-5839
▁Jigsaw	-5840
for	-5841
▁Má	-5842
ints	-5843
outs	-5844
▁KID	-5845
▁Raw	-5846
▁Toe	-5847
▁mix	-5848
▁rap	-5849
▁rot	-5850
▁Days	-5851
▁Yard	-5852
▁Yawn	-5853
▁yawn	-5854
▁Photo	-5855
▁Waters	-5856
▁cumbia	-5857
▁floors	-5858
▁method	-5859
▁Docking	-5860
▁Properly	-5861
▁Threading	-5862
▁Contorcion	-5863
7)	-5864
edy	-5865
ika	-5866
edge	-5867
rafa	-5868
▁Fox	-5869
▁NFL	-5870
annel	-5871
▁Dirt	-5872
▁Stri	-5873
laying	-5874
▁Appla	-5875
▁Mommy	-5876
▁Rocks	-5877
▁loves	-5878
▁Africa	-5879
▁boards	-5880
▁puzzle	-5881
▁Buskers	-5882
▁Medicine	-5883
▁Teaching	-5884
▁electric	-5885
YM	-5886
sa	-5887
éc	-5888
icy	-5889
uth	-5890
win	-5891
▁BAR	-5892
▁nat	-5893
▁ret	-5894
▁vin	-5895
ersey	-5896
▁Chop	-5897
▁Dart	-5898
▁Dead	-5899
▁Mail	-5900
▁Palm	-5901
▁sale	-5902
rength	-5903
▁Straw	-5904
▁Lauren	-5905
▁recipe	-5906
▁spring	-5907
▁system	-5908
▁Removal	-5909
▁Sliding	-5910
▁Version	-5911
▁archery	-5912
▁burning	-5913
▁chasing	-5914
▁February	-5915
▁Abseiling	-5916
BR	-5917
ih	-5918
ин	-5919
ask	-5920
lon	-5921
▁NA	-5922
icic	-5923
irty	-5924
mart	-5925
pers	-5926
rimp	-5927
▁Vin	-5928
anner	-5929
ieber	-5930
orkel	-5931
▁Dark	-5932
▁Liam	-5933
▁chop	-5934
▁last	-5935
ITTING	-5936
alysis	-5937
▁Grade	-5938
▁Natal	-5939
▁Offic	-5940
▁Roman	-5941
▁Swiss	-5942
▁place	-5943
▁Argent	-5944
▁Engine	-5945
▁Hunter	-5946
▁leaves	-5947
▁Services	-5948
▁Installing	-5949
cl	-5950
ор	-5951
▁DV	-5952
▁Im	-5953
▁PH	-5954
step	-5955
▁ASL	-5956
▁Faz	-5957
▁III	-5958
▁farm	-5959
▁toes	-5960
uckles	-5961
▁Crawl	-5962
▁Dream	-5963
▁Storm	-5964
▁Nation	-5965
▁Bagging	-5966
▁Esgrima	-5967
▁weather	-5968
▁Tennessee	-5969
▁Somersaults	-5970
28	-5971
EE	-5972
bi	-5973
OST	-5974
gia	-5975
iki	-5976
uto	-5977
zie	-5978
zil	-5979
load	-5980
rict	-5981
ucky	-5982
upid	-5983
▁BACK	-5984
▁Batt	-5985
▁FIRE	-5986
▁Tyre	-5987
▁Wool	-5988
▁Arrow	-5989
▁Miami	-5990
▁games	-5991
▁nariz	-5992
▁Ashley	-5993
▁Dishes	-5994
▁Legend	-5995
▁minute	-5996
▁tricep	-5997
▁Filling	-5998
▁computer	-5999
▁spraying	-6000
▁techniques	-6001
MAN	-6002
fit	-6003
lad	-6004
ssa	-6005
uli	-6006
▁Ka	-6007
▁CAT	-6008
▁Pho	-6009
▁Belt	-6010
enance	-6011
ground	-6012
▁Races	-6013
▁Simon	-6014
▁cheer	-6015
▁sabão	-6016
▁thing	-6017
▁Deadli	-6018
▁Dinner	-6019
▁design	-6020
▁Keeping	-6021
▁Toronto	-6022
▁Village	-6023
-)	-6024
kt	-6025
awa	-6026
lac	-6027
leg	-6028
ões	-6029
▁DOG	-6030
▁Flag	-6031
▁Twin	-6032
▁have	-6033
▁lego	-6034
erries	-6035
▁Deere	-6036
▁Mario	-6037
▁sweep	-6038
binding	-6039
▁digging	-6040
▁kickball	-6041
▁snowmobile	-6042
▁snowboarding	-6043
OWN	-6044
rar	-6045
rim	-6046
irar	-6047
ired	-6048
itan	-6049
kick	-6050
▁150	-6051
▁Aer	-6052
▁CRA	-6053
▁Try	-6054
▁end	-6055
▁mal	-6056
emale	-6057
▁Army	-6058
▁Pier	-6059
▁Prot	-6060
▁blue	-6061
inando	-6062
▁About	-6063
▁Patty	-6064
▁drink	-6065
▁punch	-6066
▁track	-6067
▁Pattern	-6068
▁circular	-6069
▁pancakes	-6070
▁September	-6071
▁sharpener	-6072
/09	-6073
ITE	-6074
aka	-6075
bie	-6076
▁GL	-6077
▁BIG	-6078
▁Bah	-6079
▁Lol	-6080
▁but	-6081
▁fat	-6082
▁sar	-6083
chich	-6084
▁Last	-6085
▁anim	-6086
▁wave	-6087
ortion	-6088
▁every	-6089
▁iPhone	-6090
▁writing	-6091
▁parachute	-6092
sk	-6093
ECT	-6094
UTE	-6095
net	-6096
oto	-6097
▁3.	-6098
▁Fi	-6099
▁QU	-6100
▁Ens	-6101
▁Ian	-6102
▁Laz	-6103
▁Wet	-6104
▁avi	-6105
▁hun	-6106
▁lar	-6107
▁Desc	-6108
▁Hack	-6109
▁Semi	-6110
▁only	-6111
▁wear	-6112
▁Close	-6113
▁Gabri	-6114
▁count	-6115
▁crash	-6116
▁disco	-6117
▁onion	-6118
▁Alaska	-6119
▁Alpine	-6120
▁Inside	-6121
▁Safety	-6122
▁camera	-6123
▁Capsize	-6124
▁Sledging	-6125
▁breakdance	-6126
▁Cheerleading	-6127
▁(4	-6128
▁2-	-6129
▁HS	-6130
rain	-6131
▁110	-6132
▁120	-6133
▁BRE	-6134
▁Cru	-6135
▁McC	-6136
illed	-6137
lider	-6138
▁bomb	-6139
oulders	-6140
▁Annual	-6141
▁Juggle	-6142
▁Turkey	-6143
▁Chewing	-6144
▁William	-6145
▁kitchen	-6146
▁Younique	-6147
▁toboggan	-6148
acquetball	-6149
▁Headphones	-6150
//	-6151
eph	-6152
ige	-6153
▁AW	-6154
enix	-6155
ware	-6156
▁(1)	-6157
▁Gen	-6158
▁res	-6159
ouver	-6160
▁abse	-6161
▁boss	-6162
▁Again	-6163
ippines	-6164
▁Apples	-6165
▁Connor	-6166
▁Fixing	-6167
▁Middle	-6168
▁Sharks	-6169
▁splash	-6170
▁studio	-6171
▁thread	-6172
▁auction	-6173
▁Stomping	-6174
▁Arrangement	-6175
▁demonstration	-6176
Be	-6177
GA	-6178
MO	-6179
PC	-6180
hu	-6181
ás	-6182
DER	-6183
INO	-6184
Mar	-6185
▁#6	-6186
▁;)	-6187
▁BU	-6188
▁Cy	-6189
▁Ly	-6190
▁os	-6191
aily	-6192
orge	-6193
▁Amy	-6194
▁Dor	-6195
▁Fig	-6196
▁Row	-6197
▁tem	-6198
pting	-6199
▁epic	-6200
lining	-6201
▁Lucas	-6202
▁Marsh	-6203
▁Multi	-6204
▁faire	-6205
▁stack	-6206
▁young	-6207
▁Camera	-6208
▁Centre	-6209
▁Plants	-6210
▁Powder	-6211
▁Splash	-6212
rendendo	-6213
▁Holiday	-6214
▁European	-6215
▁longboard	-6216
▁Beekeeping	-6217
▁Restaurant	-6218
▁wheelbarrow	-6219
AF	-6220
BS	-6221
mph	-6222
pro	-6223
▁JO	-6224
▁Ve	-6225
isel	-6226
iter	-6227
▁Add	-6228
▁bol	-6229
▁cle	-6230
▁hat	-6231
▁Cats	-6232
▁Ella	-6233
▁HIGH	-6234
▁Mess	-6235
▁Ring	-6236
▁Tube	-6237
▁Zero	-6238
▁answ	-6239
▁gong	-6240
▁Julia	-6241
▁Puppy	-6242
▁domin	-6243
▁happy	-6244
▁shred	-6245
▁Yellow	-6246
▁throws	-6247
▁Licking	-6248
▁Relaxing	-6249
▁performance	-6250
▁Instructions	-6251
▁Archaeological	-6252
vy	-6253
(1)	-6254
vid	-6255
elli	-6256
year	-6257
▁GAM	-6258
iendo	-6259
isted	-6260
▁Does	-6261
▁Give	-6262
▁Hang	-6263
▁Jama	-6264
▁Vari	-6265
ipment	-6266
outing	-6267
▁Birds	-6268
▁Years	-6269
▁makes	-6270
▁trans	-6271
▁Letter	-6272
▁MAKING	-6273
▁awesome	-6274
▁moonwalk	-6275
OLL	-6276
ism	-6277
date	-6278
host	-6279
▁Sad	-6280
▁WIN	-6281
▁has	-6282
▁Mach	-6283
▁polo	-6284
▁Kelly	-6285
▁Split	-6286
▁drunk	-6287
▁scuba	-6288
ocument	-6289
▁Sounds	-6290
▁mirror	-6291
igarette	-6292
▁Balance	-6293
▁Holding	-6294
▁Zealand	-6295
▁checkers	-6296
▁Megaphone	-6297
-8	-6298
99	-6299
ILE	-6300
aso	-6301
▁je	-6302
adow	-6303
▁Emp	-6304
▁got	-6305
▁pad	-6306
▁sup	-6307
▁GIRL	-6308
▁Wing	-6309
▁than	-6310
▁Techn	-6311
▁Acting	-6312
▁Speech	-6313
▁bounce	-6314
knapping	-6315
▁Attempt	-6316
▁Casting	-6317
▁Extingu	-6318
▁Tantrum	-6319
▁jogging	-6320
FC	-6321
uj	-6322
gio	-6323
ono	-6324
▁RO	-6325
▁CAN	-6326
▁Cou	-6327
▁Jas	-6328
▁Who	-6329
▁age	-6330
▁beb	-6331
▁mão	-6332
▁une	-6333
ograp	-6334
▁Alto	-6335
▁lens	-6336
▁oboe	-6337
bourne	-6338
▁Chloe	-6339
▁Dress	-6340
▁Flair	-6341
▁Large	-6342
▁Maker	-6343
▁Walker	-6344
▁inside	-6345
▁parede	-6346
ancouver	-6347
▁Redneck	-6348
▁acordar	-6349
▁Assemble	-6350
▁shoulder	-6351
1.	-6352
DA	-6353
▁д	-6354
OSS	-6355
hoe	-6356
Ball	-6357
andy	-6358
stic	-6359
well	-6360
▁180	-6361
▁AMA	-6362
▁DIS	-6363
▁Dow	-6364
▁Jes	-6365
▁MIN	-6366
▁Nar	-6367
▁dos	-6368
lando	-6369
oodle	-6370
▁chip	-6371
▁cork	-6372
▁rout	-6373
atches	-6374
▁STYLE	-6375
▁groom	-6376
ination	-6377
▁Joshua	-6378
▁Praise	-6379
▁cortar	-6380
▁single	-6381
▁winter	-6382
inishing	-6383
▁Haircut	-6384
▁Through	-6385
▁fazendo	-6386
▁Casamento	-6387
▁champagne	-6388
▁Assembling	-6389
▁и	-6390
abe	-6391
aro	-6392
awk	-6393
eng	-6394
▁pap	-6395
▁sun	-6396
▁tex	-6397
ateur	-6398
▁FOOT	-6399
▁SAND	-6400
▁VLOG	-6401
!!!!!!	-6402
itches	-6403
▁Egypt	-6404
▁Krist	-6405
▁Ocean	-6406
▁Sugar	-6407
▁ZUMBA	-6408
▁Salute	-6409
▁Virgin	-6410
▁process	-6411
▁Michigan	-6412
Te	-6413
OLF	-6414
OON	-6415
URE	-6416
hem	-6417
▁PT	-6418
NING	-6419
▁Ava	-6420
▁Boo	-6421
▁GET	-6422
▁Pir	-6423
▁pie	-6424
▁van	-6425
attle	-6426
▁Simp	-6427
▁Slot	-6428
▁corn	-6429
▁Lower	-6430
▁Nancy	-6431
▁Ninja	-6432
▁Situp	-6433
▁goals	-6434
▁heavy	-6435
▁times	-6436
▁handed	-6437
ceptance	-6438
▁Dancers	-6439
▁Mexican	-6440
▁garrafa	-6441
▁children	-6442
27	-6443
35	-6444
nn	-6445
esa	-6446
hor	-6447
fall	-6448
tail	-6449
▁Lor	-6450
▁TAP	-6451
lipop	-6452
rican	-6453
▁Heat	-6454
▁Kate	-6455
▁clam	-6456
▁know	-6457
▁news	-6458
▁then	-6459
illing	-6460
▁Mount	-6461
▁Stack	-6462
▁America	-6463
▁Poached	-6464
▁exercises	-6465
▁instruction	-6466
29	-6467
IPS	-6468
col	-6469
idi	-6470
▁DB	-6471
alen	-6472
lain	-6473
acion	-6474
akist	-6475
▁Viet	-6476
▁star	-6477
▁will	-6478
▁wink	-6479
unning	-6480
▁Isaac	-6481
▁outside	-6482
▁flashlight	-6483
ки	-6484
can	-6485
lah	-6486
pin	-6487
▁1,	-6488
▁3:	-6489
ZING	-6490
anta	-6491
iate	-6492
uffy	-6493
▁500	-6494
▁Cho	-6495
▁Hal	-6496
▁tom	-6497
/2012	-6498
ances	-6499
shire	-6500
▁Jour	-6501
▁Keep	-6502
kwondo	-6503
▁KRUMP	-6504
▁Motor	-6505
▁Squad	-6506
▁cough	-6507
▁desen	-6508
▁Dancer	-6509
▁Johnny	-6510
▁String	-6511
▁juggle	-6512
▁learns	-6513
▁Release	-6514
▁BASEBALL	-6515
▁Williams	-6516
▁dumpster	-6517
04	-6518
KS	-6519
ço	-6520
ANA	-6521
EAR	-6522
aff	-6523
mes	-6524
vic	-6525
▁DA	-6526
▁Et	-6527
▁TW	-6528
agan	-6529
▁Ast	-6530
▁Ohio	-6531
lashes	-6532
▁Danny	-6533
▁Strip	-6534
▁women	-6535
▁Oregon	-6536
▁combing	-6537
▁panning	-6538
▁wedding	-6539
▁yawning	-6540
▁Breakfast	-6541
MS	-6542
iw	-6543
oma	-6544
▁Cu	-6545
▁ce	-6546
ians	-6547
obre	-6548
ocks	-6549
▁DEC	-6550
▁EYE	-6551
▁Gil	-6552
lotte	-6553
ounds	-6554
uding	-6555
unity	-6556
▁Calf	-6557
▁Cond	-6558
▁Mill	-6559
▁stom	-6560
▁what	-6561
▁wild	-6562
▁Stage	-6563
▁basic	-6564
▁donut	-6565
▁three	-6566
issance	-6567
oration	-6568
▁Miller	-6569
▁Parade	-6570
▁Thanks	-6571
▁shaved	-6572
icicleta	-6573
▁Headbang	-6574
▁Knapping	-6575
▁Sneezing	-6576
▁christmas	-6577
▁snowmobiling	-6578
05	-6579
06	-6580
OVER	-6581
anie	-6582
avin	-6583
ects	-6584
ifer	-6585
undo	-6586
▁Aly	-6587
▁Lon	-6588
▁Tot	-6589
▁sax	-6590
ences	-6591
▁EPIC	-6592
▁Mall	-6593
▁Sear	-6594
▁Wear	-6595
▁left	-6596
▁self	-6597
▁Harry	-6598
▁Scene	-6599
▁dying	-6600
▁Before	-6601
▁Brazil	-6602
▁Israel	-6603
▁cabelo	-6604
▁celebr	-6605
▁Barbell	-6606
▁Lateral	-6607
▁Program	-6608
▁routine	-6609
▁Personal	-6610
▁planting	-6611
▁potatoes	-6612
▁sledging	-6613
▁tackling	-6614
▁Skydiving	-6615
app	-6616
bon	-6617
oni	-6618
vor	-6619
▁fe	-6620
OUND	-6621
amas	-6622
▁Eag	-6623
iment	-6624
leigh	-6625
▁Bake	-6626
▁Bomb	-6627
▁Hind	-6628
▁Yarn	-6629
▁tyre	-6630
ending	-6631
▁Canad	-6632
▁FIGHT	-6633
▁balão	-6634
▁range	-6635
working	-6636
▁Brasil	-6637
▁police	-6638
▁really	-6639
▁Spanish	-6640
▁working	-6641
▁Victoria	-6642
▁beautiful	-6643
▁Construction	-6644
/8	-6645
ZA	-6646
át	-6647
ICO	-6648
ILD	-6649
uet	-6650
▁2,	-6651
▁sa	-6652
nica	-6653
rait	-6654
rett	-6655
▁FIN	-6656
▁Liz	-6657
▁MOT	-6658
▁Net	-6659
▁hol	-6660
▁mad	-6661
/2015	-6662
rando	-6663
▁2005	-6664
▁Jenn	-6665
▁KICK	-6666
▁Lens	-6667
▁sign	-6668
▁Italy	-6669
▁Model	-6670
▁Tiger	-6671
▁Twins	-6672
▁piece	-6673
▁Fabric	-6674
▁France	-6675
▁Social	-6676
▁wooden	-6677
▁Decking	-6678
▁espelho	-6679
▁lessons	-6680
▁daughter	-6681
▁unloading	-6682
▁Revolution	-6683
▁Cheerleaders	-6684
ALS	-6685
bit	-6686
ski	-6687
ours	-6688
▁Kel	-6689
▁Vid	-6690
▁dra	-6691
▁mus	-6692
rapes	-6693
▁Feat	-6694
▁Shel	-6695
▁anch	-6696
▁Caleb	-6697
▁Darts	-6698
▁Instr	-6699
▁Jones	-6700
▁Riley	-6701
▁Shuck	-6702
▁excav	-6703
▁lunge	-6704
▁Joseph	-6705
▁Acrylic	-6706
▁Carrots	-6707
▁Rainbow	-6708
▁Vancouver	-6709
▁Australian	-6710
▁snorkeling	-6711
IX	-6712
ée	-6713
▁【	-6714
(2)	-6715
Con	-6716
uki	-6717
▁NJ	-6718
▁bi	-6719
amin	-6720
gles	-6721
ropr	-6722
▁Mos	-6723
▁POV	-6724
▁Pul	-6725
▁sam	-6726
▁Dish	-6727
▁Fine	-6728
▁Ford	-6729
▁MAKE	-6730
▁TIME	-6731
▁USPS	-6732
▁Xbox	-6733
▁case	-6734
▁Dynam	-6735
▁teach	-6736
▁tries	-6737
▁Domino	-6738
▁Forest	-6739
▁opener	-6740
destrian	-6741
▁Aprenda	-6742
▁arrange	-6743
▁cabinet	-6744
▁Crutches	-6745
08	-6746
ол	-6747
ERO	-6748
bac	-6749
bre	-6750
ugu	-6751
▁kk	-6752
ADEM	-6753
ifts	-6754
pret	-6755
ucks	-6756
▁Ket	-6757
▁MVI	-6758
▁Rog	-6759
▁Bees	-6760
▁Prem	-6761
▁fill	-6762
making	-6763
sident	-6764
▁Tires	-6765
▁Tickle	-6766
▁barten	-6767
▁oyster	-6768
▁Aerobic	-6769
▁pigeons	-6770
▁Handling	-6771
▁climbers	-6772
rapbooking	-6773
▁Bartender	-6774
▁Horseback	-6775
▁Adventures	-6776
▁microscope	-6777
fr	-6778
▁_	-6779
/08	-6780
AMP	-6781
apt	-6782
upo	-6783
▁ED	-6784
▁MU	-6785
OWER	-6786
ager	-6787
▁CUR	-6788
▁Hus	-6789
▁Now	-6790
▁Ont	-6791
edish	-6792
▁1080	-6793
▁MACH	-6794
▁Oper	-6795
▁Pork	-6796
▁lady	-6797
▁need	-6798
ussion	-6799
▁Holly	-6800
▁Salto	-6801
▁Mother	-6802
▁Steven	-6803
▁Monster	-6804
▁Oysters	-6805
▁Windsor	-6806
▁Tickling	-6807
▁contorcion	-6808
):	-6809
6)	-6810
95	-6811
TRE	-6812
isy	-6813
▁Fu	-6814
▁Os	-6815
idge	-6816
iers	-6817
▁WAX	-6818
▁fel	-6819
asail	-6820
mower	-6821
uckle	-6822
urday	-6823
▁Hold	-6824
▁Sale	-6825
▁Scar	-6826
▁Whis	-6827
▁feed	-6828
▁gear	-6829
actory	-6830
▁Jerem	-6831
▁grade	-6832
chanics	-6833
▁Amanda	-6834
▁Carter	-6835
▁Valent	-6836
▁Jessica	-6837
▁Yawning	-6838
▁filling	-6839
▁Celebration	-6840
▁windsurfing	-6841
.4	-6842
ii	-6843
ww	-6844
áp	-6845
/17	-6846
MER	-6847
aga	-6848
oss	-6849
▁EG	-6850
▁JB	-6851
ords	-6852
▁Eff	-6853
▁Nep	-6854
▁Vac	-6855
▁ant	-6856
ified	-6857
ograf	-6858
orter	-6859
▁Crew	-6860
▁Lick	-6861
▁Qual	-6862
giving	-6863
▁Davis	-6864
▁Elite	-6865
▁Jamie	-6866
▁Jimmy	-6867
▁fried	-6868
▁jumps	-6869
▁Bieber	-6870
▁Michel	-6871
▁Oliver	-6872
▁Opener	-6873
▁Report	-6874
▁Sophia	-6875
▁Tandem	-6876
▁summer	-6877
▁Phoenix	-6878
▁station	-6879
▁Scotland	-6880
▁Shucking	-6881
▁Students	-6882
▁Parachute	-6883
▁Universal	-6884
▁Tobogganing	-6885
▁Weightlifting	-6886
Mo	-6887
sy	-6888
hos	-6889
izz	-6890
jas	-6891
▁32	-6892
quet	-6893
ript	-6894
▁2/2	-6895
▁ART	-6896
▁IND	-6897
▁Jud	-6898
▁OLD	-6899
▁Seg	-6900
overy	-6901
▁Arab	-6902
▁Bell	-6903
▁Holy	-6904
▁Male	-6905
▁Relo	-6906
▁hits	-6907
▁roof	-6908
▁them	-6909
▁ways	-6910
▁Ranch	-6911
▁ACADEM	-6912
▁Busker	-6913
▁Dublin	-6914
▁giving	-6915
▁segway	-6916
▁tackle	-6917
▁AMAZING	-6918
▁burping	-6919
▁Braiding	-6920
▁drooling	-6921
▁wrapping	-6922
▁Francisco	-6923
▁Maintenance	-6924
▁Philippines	-6925
CT	-6926
GP	-6927
Vi	-6928
▁М	-6929
100	-6930
LEM	-6931
MAS	-6932
ili	-6933
rot	-6934
oven	-6935
▁COR	-6936
▁Flo	-6937
▁Rou	-6938
▁Six	-6939
burgh	-6940
culos	-6941
emony	-6942
ierra	-6943
▁Abby	-6944
▁Chor	-6945
▁sail	-6946
chendo	-6947
ertain	-6948
▁Anton	-6949
▁Elect	-6950
▁group	-6951
▁finish	-6952
▁Forward	-6953
▁HITTING	-6954
▁Rotation	-6955
ZY	-6956
▁]	-6957
Day	-6958
asp	-6959
erd	-6960
icle	-6961
rows	-6962
uras	-6963
▁DVD	-6964
▁Fol	-6965
▁GRA	-6966
▁Got	-6967
▁LOL	-6968
▁MET	-6969
▁Mai	-6970
▁SQU	-6971
▁Tan	-6972
▁see	-6973
▁sil	-6974
▁Dest	-6975
▁city	-6976
▁hill	-6977
ission	-6978
▁Hotel	-6979
▁Sweep	-6980
▁fácil	-6981
itching	-6982
▁Cattle	-6983
▁Harris	-6984
▁Malays	-6985
▁Trainer	-6986
▁dribble	-6987
▁Cabinets	-6988
▁Downhill	-6989
▁Princess	-6990
▁Interview	-6991
HO	-6992
▁г	-6993
▁♥	-6994
AVE	-6995
don	-6996
igo	-6997
onde	-6998
▁Law	-6999
▁Som	-7000
/2014	-7001
duino	-7002
▁LEGO	-7003
▁Spot	-7004
▁Stud	-7005
▁days	-7006
▁Court	-7007
itation	-7008
▁Behind	-7009
▁Korean	-7010
▁Morgan	-7011
▁Sophie	-7012
▁cousin	-7013
▁pushes	-7014
▁Animals	-7015
▁Channel	-7016
▁madeira	-7017
▁accident	-7018
▁coughing	-7019
▁Charlotte	-7020
▁Melbourne	-7021
▁Flintknapping	-7022
ui	-7023
ivo	-7024
▁SO	-7025
inic	-7026
iste	-7027
pens	-7028
▁FIR	-7029
▁Fal	-7030
▁Gri	-7031
▁Jar	-7032
▁Leo	-7033
▁PAN	-7034
▁PSA	-7035
▁Reb	-7036
▁SIL	-7037
▁emp	-7038
▁jay	-7039
ender	-7040
▁Aren	-7041
▁Fern	-7042
▁Hats	-7043
▁Nice	-7044
▁Vert	-7045
▁prog	-7046
▁reps	-7047
▁sans	-7048
▁slam	-7049
▁Lemon	-7050
▁Steak	-7051
▁Tiles	-7052
▁gives	-7053
▁shirt	-7054
aulting	-7055
istance	-7056
▁Mobile	-7057
▁Nachos	-7058
▁Thread	-7059
▁Madison	-7060
▁inhaler	-7061
▁pressure	-7062
▁splashing	-7063
-9	-7064
gi	-7065
ál	-7066
.09	-7067
GER	-7068
IMB	-7069
bas	-7070
avor	-7071
ency	-7072
fest	-7073
itar	-7074
▁Bir	-7075
▁CAS	-7076
▁HOT	-7077
▁Mau	-7078
under	-7079
▁CUMB	-7080
▁Hong	-7081
▁Phys	-7082
▁Quad	-7083
arsity	-7084
▁Billy	-7085
▁Bunny	-7086
▁Reloj	-7087
▁guide	-7088
▁stain	-7089
antoche	-7090
▁Public	-7091
▁Taking	-7092
▁blasting	-7093
▁Splashing	-7094
▁dodgeball	-7095
▁Bookbinding	-7096
▁somersaults	-7097
-7	-7098
/7	-7099
Le	-7100
Don	-7101
hol	-7102
oln	-7103
▁на	-7104
ANGO	-7105
CING	-7106
ação	-7107
ocop	-7108
▁BAL	-7109
▁PEN	-7110
▁Ree	-7111
▁1000	-7112
▁Doug	-7113
▁GOLF	-7114
▁Guys	-7115
▁Isab	-7116
▁Juan	-7117
▁Nich	-7118
▁PAINT	-7119
▁straw	-7120
▁Situps	-7121
▁videos	-7122
▁ACADEMY	-7123
▁Improve	-7124
▁garbage	-7125
▁Airplane	-7126
▁Krumping	-7127
▁Slapping	-7128
▁marching	-7129
▁Surveying	-7130
▁decorating	-7131
85	-7132
II	-7133
▁В	-7134
OMB	-7135
ede	-7136
pos	-7137
ause	-7138
bing	-7139
itas	-7140
▁Seb	-7141
▁See	-7142
▁toy	-7143
-2014	-7144
aindo	-7145
izado	-7146
quila	-7147
▁dice	-7148
▁iPad	-7149
▁lick	-7150
▁tube	-7151
acelet	-7152
▁Crafts	-7153
▁Modern	-7154
▁Worlds	-7155
▁remove	-7156
▁Masters	-7157
▁bobsled	-7158
FT	-7159
PE	-7160
-08	-7161
bra	-7162
▁CE	-7163
▁ML	-7164
▁TD	-7165
enes	-7166
west	-7167
▁Ess	-7168
▁OFF	-7169
▁Rio	-7170
akers	-7171
mouth	-7172
▁Jose	-7173
▁Lisa	-7174
▁Maya	-7175
▁Owen	-7176
▁Rena	-7177
▁deep	-7178
▁wool	-7179
ashion	-7180
asiest	-7181
▁Couch	-7182
▁Earth	-7183
▁Ellie	-7184
▁Story	-7185
▁giant	-7186
▁impro	-7187
actical	-7188
amiento	-7189
litting	-7190
▁EATING	-7191
▁baking	-7192
▁wheels	-7193
▁Arduino	-7194
▁Vietnam	-7195
▁grinder	-7196
▁hunting	-7197
▁netball	-7198
▁Analysis	-7199
▁festival	-7200
▁kitesurf	-7201
▁Underwater	-7202
07	-7203
sm	-7204
ру	-7205
ADE	-7206
Man	-7207
▁Az	-7208
aver	-7209
dale	-7210
eron	-7211
ween	-7212
▁Lex	-7213
▁REV	-7214
▁jet	-7215
▁Mick	-7216
▁Roof	-7217
▁Talk	-7218
▁Wars	-7219
▁bowl	-7220
imento	-7221
▁Passo	-7222
▁event	-7223
▁tango	-7224
▁Calcul	-7225
▁Answers	-7226
▁another	-7227
▁passing	-7228
▁pulling	-7229
▁Aluminum	-7230
▁Pinching	-7231
▁hurdling	-7232
▁Different	-7233
▁whistling	-7234
MC	-7235
PER	-7236
bod	-7237
eez	-7238
▁3,	-7239
▁::	-7240
▁GA	-7241
▁Ga	-7242
▁BUR	-7243
▁DES	-7244
▁Fut	-7245
▁TOP	-7246
itary	-7247
▁Come	-7248
▁Knee	-7249
▁dirt	-7250
▁sexy	-7251
celona	-7252
▁Doors	-7253
▁Rides	-7254
▁close	-7255
▁enjoy	-7256
▁Dallas	-7257
▁Female	-7258
▁Indust	-7259
▁Seconds	-7260
▁busking	-7261
▁Potatoes	-7262
▁Photobomb	-7263
▁bulldozer	-7264
▁Instructional	-7265
ADA	-7266
ced	-7267
▁WW	-7268
▁vo	-7269
asty	-7270
irts	-7271
▁PRE	-7272
▁Pap	-7273
▁Bron	-7274
▁Capt	-7275
▁Sara	-7276
▁Sour	-7277
▁Stan	-7278
▁Yang	-7279
▁keep	-7280
▁Gopro	-7281
▁Major	-7282
▁Skill	-7283
▁sings	-7284
▁twist	-7285
itement	-7286
▁Filter	-7287
▁Puerto	-7288
▁Wonder	-7289
▁season	-7290
▁Binding	-7291
▁MACHINE	-7292
▁Canadian	-7293
PT	-7294
ños	-7295
▁CD	-7296
▁GT	-7297
BROW	-7298
asha	-7299
idas	-7300
inas	-7301
▁APP	-7302
▁Enc	-7303
▁Pay	-7304
▁who	-7305
/2016	-7306
ights	-7307
▁....	-7308
▁BEAT	-7309
▁Bare	-7310
▁Bush	-7311
▁call	-7312
▁cell	-7313
ebolla	-7314
isters	-7315
mellow	-7316
outube	-7317
ursday	-7318
▁Costa	-7319
▁Death	-7320
▁FIRST	-7321
▁Honda	-7322
▁Invit	-7323
▁Shirt	-7324
▁chain	-7325
▁tocar	-7326
▁carrot	-7327
▁African	-7328
▁Richard	-7329
▁cheerle	-7330
▁Gargling	-7331
▁Geocache	-7332
▁Jonathan	-7333
▁Original	-7334
▁bottling	-7335
▁contacts	-7336
▁dolphins	-7337
▁tightrope	-7338
▁experience	-7339
▁vegetables	-7340
▁Thanksgiving	-7341
36	-7342
.14	-7343
ANE	-7344
ORS	-7345
sen	-7346
uno	-7347
▁er	-7348
anas	-7349
cent	-7350
▁Abs	-7351
▁Eve	-7352
▁Kam	-7353
▁ONE	-7354
▁Ric	-7355
▁Tab	-7356
uting	-7357
▁Brew	-7358
▁Cafe	-7359
▁LIVE	-7360
▁PUMP	-7361
▁Sher	-7362
▁Slic	-7363
▁Whit	-7364
▁cows	-7365
▁post	-7366
▁rain	-7367
▁smel	-7368
▁yarn	-7369
▁Monkey	-7370
▁fixing	-7371
▁wrench	-7372
▁Minutes	-7373
▁Testing	-7374
▁Carolina	-7375
▁Southern	-7376
▁Strength	-7377
▁Fantoches	-7378
▁Sandblasting	-7379
,,	-7380
Bo	-7381
ит	-7382
OPE	-7383
lia	-7384
uma	-7385
▁Ce	-7386
▁HAR	-7387
▁Mam	-7388
▁POR	-7389
▁Pac	-7390
▁SUP	-7391
▁Wed	-7392
▁das	-7393
▁Cash	-7394
▁Glen	-7395
▁Tall	-7396
▁slab	-7397
▁warm	-7398
▁doors	-7399
▁fresh	-7400
▁Jersey	-7401
▁Resort	-7402
▁comple	-7403
▁drying	-7404
▁British	-7405
▁Designs	-7406
▁Skydive	-7407
▁Weekend	-7408
▁cymbals	-7409
▁Interpre	-7410
▁Saturday	-7411
▁chocolate	-7412
▁kitesurfing	-7413
RI	-7414
IFE	-7415
ISE	-7416
osp	-7417
▁Ax	-7418
anca	-7419
born	-7420
roll	-7421
▁Alt	-7422
▁Avi	-7423
▁Kai	-7424
▁Mig	-7425
▁log	-7426
▁pet	-7427
OEIRA	-7428
atues	-7429
screw	-7430
▁Bern	-7431
▁Cass	-7432
▁Gary	-7433
▁Insp	-7434
▁Mens	-7435
▁Mond	-7436
▁Oven	-7437
▁STRE	-7438
▁Slab	-7439
▁Stor	-7440
▁cave	-7441
▁guys	-7442
uccess	-7443
▁Moves	-7444
▁tiles	-7445
mediate	-7446
▁Tipper	-7447
▁attemp	-7448
▁Orlando	-7449
▁Swedish	-7450
▁charity	-7451
▁concert	-7452
▁extreme	-7453
▁Finishing	-7454
▁backwards	-7455
▁different	-7456
▁Acceptance	-7457
ел	-7458
▁(5	-7459
▁1-	-7460
▁Bh	-7461
▁Zo	-7462
Hive	-7463
real	-7464
▁Smo	-7465
▁Yam	-7466
▁saf	-7467
World	-7468
achor	-7469
ycles	-7470
▁Lamb	-7471
▁Loom	-7472
▁SHOT	-7473
▁Utah	-7474
▁cups	-7475
ically	-7476
▁Gener	-7477
▁Ghost	-7478
▁Megan	-7479
▁Sauce	-7480
▁Tommy	-7481
▁Uncle	-7482
▁bolin	-7483
▁magic	-7484
▁point	-7485
▁Gargle	-7486
▁Gabriel	-7487
▁windows	-7488
▁Business	-7489
▁Cordless	-7490
▁Scottish	-7491
▁Wireless	-7492
▁separate	-7493
▁Nationals	-7494
▁Sandcastle	-7495
▁plastering	-7496
▁installation	-7497
-07	-7498
.13	-7499
ITY	-7500
dry	-7501
kyo	-7502
rem	-7503
umn	-7504
▁ur	-7505
▁Gay	-7506
▁Kne	-7507
▁Rab	-7508
▁SHO	-7509
▁any	-7510
▁may	-7511
▁Doll	-7512
▁Gord	-7513
▁Help	-7514
▁Lucy	-7515
▁Papa	-7516
▁Pine	-7517
▁Reel	-7518
▁SHOW	-7519
▁WASH	-7520
cealer	-7521
inting	-7522
irando	-7523
▁Extra	-7524
▁Hills	-7525
chestra	-7526
▁DIVING	-7527
▁babies	-7528
▁Crystal	-7529
▁correct	-7530
▁Skateboard	-7531
De	-7532
No	-7533
ür	-7534
2015	-7535
Back	-7536
▁CHR	-7537
▁Lot	-7538
▁Ton	-7539
/2011	-7540
ester	-7541
lands	-7542
▁COOK	-7543
▁Chap	-7544
▁Cost	-7545
▁Joey	-7546
▁gude	-7547
▁wins	-7548
oustic	-7549
quette	-7550
▁Crist	-7551
▁Daily	-7552
▁Thing	-7553
▁Wrong	-7554
▁avião	-7555
▁movie	-7556
redible	-7557
▁Cookie	-7558
▁across	-7559
▁taking	-7560
▁Snorkel	-7561
▁origami	-7562
▁whistle	-7563
▁Thursday	-7564
▁coloring	-7565
▁sausages	-7566
▁Athletics	-7567
▁Tipperary	-7568
▁VideoHive	-7569
▁extinguish	-7570
**	-7571
NC	-7572
ны	-7573
roy	-7574
vey	-7575
▁ig	-7576
boat	-7577
▁Ana	-7578
▁Bit	-7579
▁SKI	-7580
▁fol	-7581
▁fry	-7582
-2012	-7583
CHING	-7584
cular	-7585
▁Cock	-7586
▁Dual	-7587
▁FING	-7588
▁Need	-7589
▁OPEN	-7590
▁ROCK	-7591
▁hold	-7592
gether	-7593
▁beats	-7594
▁going	-7595
▁shows	-7596
aration	-7597
▁CUMBIA	-7598
▁Purple	-7599
▁Harvest	-7600
▁Hurdles	-7601
▁Ontario	-7602
ercussion	-7603
▁Creative	-7604
▁Question	-7605
▁beginner	-7606
▁changing	-7607
▁chipping	-7608
▁pushdown	-7609
▁teaching	-7610
▁Taekwondo	-7611
OTT	-7612
gum	-7613
how	-7614
▁3-	-7615
▁AF	-7616
▁AJ	-7617
▁Pi	-7618
rets	-7619
▁AIR	-7620
▁Cob	-7621
▁DEL	-7622
▁Hob	-7623
▁Kal	-7624
▁Lag	-7625
▁OUT	-7626
▁Rat	-7627
estre	-7628
inity	-7629
ulito	-7630
▁Bead	-7631
▁Cant	-7632
▁Fant	-7633
▁Lift	-7634
▁Wide	-7635
▁most	-7636
▁Arena	-7637
▁Shape	-7638
▁Slime	-7639
▁Waxed	-7640
▁Better	-7641
▁Insane	-7642
▁Karate	-7643
▁Parker	-7644
▁Sawing	-7645
▁behind	-7646
▁random	-7647
▁Windows	-7648
▁Bailando	-7649
▁Bathroom	-7650
▁knitting	-7651
▁language	-7652
▁Community	-7653
▁Deadlifts	-7654
▁Tutorials	-7655
▁automatic	-7656
▁fantoches	-7657
▁fireworks	-7658
▁Pirouettes	-7659
▁stretching	-7660
▁Marshmallows	-7661
JA	-7662
PR	-7663
wa	-7664
ар	-7665
UCK	-7666
uns	-7667
▁GS	-7668
▁NH	-7669
▁SB	-7670
amon	-7671
ched	-7672
roid	-7673
▁BRA	-7674
▁Cos	-7675
▁Rip	-7676
alada	-7677
craft	-7678
▁Alan	-7679
▁Mist	-7680
▁give	-7681
motion	-7682
▁Blues	-7683
▁Goals	-7684
▁Ideas	-7685
▁tires	-7686
▁zumba	-7687
sailing	-7688
▁Ground	-7689
▁Pakist	-7690
▁Stilts	-7691
▁Stones	-7692
▁manual	-7693
▁raises	-7694
▁Drummer	-7695
▁Varsity	-7696
▁drawing	-7697
▁toddler	-7698
▁Drooling	-7699
▁together	-7700
▁windsurf	-7701
▁questions	-7702
▁timelapse	-7703
▁gymnastics	-7704
▁Renaissance	-7705
▁Breakdancing	-7706
YS	-7707
от	-7708
LET	-7709
New	-7710
ONT	-7711
QUE	-7712
uda	-7713
▁MS	-7714
anth	-7715
here	-7716
icia	-7717
rent	-7718
▁Any	-7719
▁ESP	-7720
▁Lin	-7721
▁pir	-7722
▁pur	-7723
avier	-7724
oming	-7725
▁Fake	-7726
▁Feed	-7727
▁Minn	-7728
▁away	-7729
▁belt	-7730
▁pint	-7731
ugando	-7732
ultura	-7733
▁Amber	-7734
▁Benef	-7735
▁Clear	-7736
▁Pitch	-7737
▁SHOOT	-7738
▁rodas	-7739
▁Relief	-7740
▁Secret	-7741
▁Sister	-7742
▁adjust	-7743
▁jetski	-7744
▁Correct	-7745
▁EYEBROW	-7746
▁Science	-7747
▁Stephen	-7748
▁Whistle	-7749
▁Checking	-7750
▁Necklace	-7751
▁Overhead	-7752
▁crianças	-7753
▁Barcelona	-7754
▁Mushrooms	-7755
▁testifies	-7756
▁Snowblower	-7757
▁Swallowing	-7758
▁Springboard	-7759
NA	-7760
On	-7761
▁ó	-7762
200	-7763
LED	-7764
eda	-7765
sea	-7766
▁MT	-7767
▁Vo	-7768
▁yo	-7769
draw	-7770
veja	-7771
▁:-)	-7772
▁Ade	-7773
▁Inn	-7774
▁Ker	-7775
▁Lyn	-7776
▁Mik	-7777
▁Nap	-7778
▁seu	-7779
ushed	-7780
▁Boss	-7781
▁Cris	-7782
▁FISH	-7783
▁Kent	-7784
▁Kong	-7785
▁LONG	-7786
▁Linc	-7787
▁Nico	-7788
▁Plus	-7789
▁Sept	-7790
▁tech	-7791
ETBALL	-7792
angers	-7793
▁Woods	-7794
▁sheet	-7795
lington	-7796
▁Champs	-7797
▁puppet	-7798
▁Pilates	-7799
▁Theatre	-7800
▁grandma	-7801
▁reverse	-7802
▁Accident	-7803
▁Memorial	-7804
▁Alexander	-7805
▁Testifies	-7806
▁bicicleta	-7807
▁Slacklining	-7808
02	-7809
.01	-7810
ICH	-7811
IER	-7812
lue	-7813
owa	-7814
▁ES	-7815
▁EV	-7816
▁MO	-7817
▁NZ	-7818
▁SF	-7819
▁Wr	-7820
▁op	-7821
MING	-7822
essa	-7823
inar	-7824
▁225	-7825
▁ALL	-7826
▁Ble	-7827
▁But	-7828
▁Dev	-7829
▁Hyd	-7830
▁Lew	-7831
▁Pom	-7832
▁Spa	-7833
▁Ted	-7834
▁dar	-7835
▁ens	-7836
.2013	-7837
/2010	-7838
illar	-7839
izing	-7840
▁BAND	-7841
▁Emer	-7842
▁Nate	-7843
▁Sele	-7844
▁knit	-7845
▁Colin	-7846
▁FUNNY	-7847
▁Jesse	-7848
▁Kayla	-7849
▁Salon	-7850
▁Stars	-7851
▁dress	-7852
▁laces	-7853
▁level	-7854
▁mouth	-7855
allower	-7856
▁Answer	-7857
▁Frozen	-7858
▁Office	-7859
▁Strong	-7860
specting	-7861
▁Batting	-7862
▁footage	-7863
▁Grinding	-7864
46	-7865
YC	-7866
-06	-7867
ENA	-7868
IEW	-7869
KIN	-7870
cur	-7871
eld	-7872
hma	-7873
ked	-7874
▁(:	-7875
acle	-7876
ades	-7877
ices	-7878
mark	-7879
uito	-7880
ulla	-7881
▁GOP	-7882
▁Ply	-7883
▁seg	-7884
-2015	-7885
.2014	-7886
ascar	-7887
bacco	-7888
ingle	-7889
thing	-7890
▁Flow	-7891
▁Teen	-7892
▁Yolk	-7893
▁lift	-7894
▁much	-7895
▁slot	-7896
▁Billi	-7897
▁Desen	-7898
▁Guard	-7899
▁Jesus	-7900
▁Prank	-7901
▁fruit	-7902
▁stuff	-7903
▁sweet	-7904
achment	-7905
▁Bulgar	-7906
▁Carlos	-7907
▁Shrimp	-7908
▁Temper	-7909
▁shaves	-7910
▁Preview	-7911
▁casting	-7912
anchester	-7913
▁Malaysia	-7914
▁aerobics	-7915
▁headbang	-7916
▁standing	-7917
.7	-7918
ek	-7919
fi	-7920
UFF	-7921
gas	-7922
jer	-7923
kok	-7924
urt	-7925
▁AZ	-7926
▁Ev	-7927
▁Gi	-7928
▁Rh	-7929
etta	-7930
▁EGG	-7931
▁Hou	-7932
▁Lan	-7933
▁ham	-7934
-2011	-7935
amboo	-7936
angle	-7937
inkle	-7938
▁Bank	-7939
▁Dude	-7940
▁Kenn	-7941
▁WORK	-7942
▁boot	-7943
▁care	-7944
▁cold	-7945
▁film	-7946
▁mach	-7947
▁Bruce	-7948
▁Times	-7949
▁fails	-7950
▁heart	-7951
▁theme	-7952
ulpting	-7953
▁Expert	-7954
▁Lashes	-7955
▁better	-7956
▁passar	-7957
▁wading	-7958
▁Atlanta	-7959
▁History	-7960
▁helping	-7961
▁natural	-7962
▁perform	-7963
▁texting	-7964
▁CAPOEIRA	-7965
▁Dominoes	-7966
▁desenhar	-7967
▁espresso	-7968
▁krumping	-7969
▁snowblower	-7970
''	-7971
(:	-7972
32	-7973
He	-7974
но	-7975
ARE	-7976
CHE	-7977
RED	-7978
adi	-7979
▁55	-7980
▁65	-7981
ists	-7982
more	-7983
oche	-7984
rial	-7985
▁197	-7986
▁Cay	-7987
▁Hon	-7988
▁Ill	-7989
▁Mia	-7990
▁Tow	-7991
▁WAL	-7992
▁far	-7993
▁gun	-7994
▁key	-7995
▁mah	-7996
▁san	-7997
amous	-7998
athon	-7999
▁Burp	-8000
▁Gone	-8001
▁Loop	-8002
▁Mort	-8003
▁Remo	-8004
▁Rico	-8005
▁Wink	-8006
▁Wolf	-8007
▁help	-8008
▁must	-8009
▁rice	-8010
▁shop	-8011
▁wire	-8012
onesia	-8013
uesday	-8014
▁Tokyo	-8015
avorite	-8016
▁Nicole	-8017
▁series	-8018
▁Montage	-8019
▁capsize	-8020
▁students	-8021
▁Fireworks	-8022
▁Hilarious	-8023
▁compilation	-8024
.6	-8025
▁к	-8026
.02	-8027
OOR	-8028
lar	-8029
ori	-8030
▁SI	-8031
▁fo	-8032
aple	-8033
iago	-8034
ione	-8035
▁001	-8036
▁CAM	-8037
▁Opt	-8038
▁POP	-8039
▁Scr	-8040
▁Sir	-8041
▁Cody	-8042
▁Huge	-8043
▁Pint	-8044
▁bolo	-8045
▁grip	-8046
▁stri	-8047
▁Allen	-8048
▁Blake	-8049
▁Month	-8050
▁Relay	-8051
▁Rolls	-8052
▁Slice	-8053
▁Weird	-8054
▁laser	-8055
▁visit	-8056
▁Animal	-8057
▁Cambod	-8058
▁Cooper	-8059
▁Jeremy	-8060
▁Remove	-8061
▁Seated	-8062
▁biking	-8063
▁bridge	-8064
▁course	-8065
▁trains	-8066
▁Chiropr	-8067
▁fastest	-8068
▁removal	-8069
▁Movement	-8070
▁Shoulders	-8071
▁cigarette	-8072
▁scrapbook	-8073
▁Cartwheels	-8074
▁Production	-8075
▁Invitational	-8076
GR	-8077
cu	-8078
mr	-8079
án	-8080
ERY	-8081
NAM	-8082
cat	-8083
dom	-8084
www	-8085
▁lb	-8086
▁py	-8087
ASMR	-8088
band	-8089
mine	-8090
olas	-8091
onge	-8092
▁(19	-8093
▁ARM	-8094
▁Eri	-8095
▁Non	-8096
issor	-8097
prise	-8098
rings	-8099
▁Case	-8100
▁Hung	-8101
▁Pete	-8102
▁YEAR	-8103
▁butt	-8104
▁cars	-8105
▁talk	-8106
......	-8107
assemb	-8108
▁Brows	-8109
▁CLIMB	-8110
▁Rodeo	-8111
▁living	-8112
▁makeup	-8113
▁nachos	-8114
▁perfor	-8115
▁walker	-8116
▁Angeles	-8117
▁flowers	-8118
▁marbles	-8119
▁wrestle	-8120
▁homemade	-8121
▁Blueberries	-8122
▁Refinishing	-8123
31	-8124
Go	-8125
ро	-8126
-03	-8127
OND	-8128
Tra	-8129
aks	-8130
bin	-8131
hal	-8132
oso	-8133
rin	-8134
zab	-8135
▁ax	-8136
SAGE	-8137
anga	-8138
ials	-8139
ided	-8140
vern	-8141
▁Nut	-8142
▁Rug	-8143
▁Spr	-8144
▁jam	-8145
▁mit	-8146
▁str	-8147
▁ult	-8148
-2010	-8149
ansas	-8150
dough	-8151
issue	-8152
video	-8153
▁2000	-8154
▁Bent	-8155
▁FAST	-8156
▁KIDS	-8157
▁arms	-8158
▁mail	-8159
▁Aiden	-8160
▁Allan	-8161
▁Bryan	-8162
▁CRACK	-8163
▁Nacho	-8164
▁Pearl	-8165
▁WATCH	-8166
ensions	-8167
washing	-8168
▁Bottom	-8169
▁Galway	-8170
▁Ceramic	-8171
▁Combing	-8172
▁Georgia	-8173
▁Gravity	-8174
▁Pulling	-8175
▁episode	-8176
▁felting	-8177
▁Northern	-8178
▁Equipment	-8179
▁adventure	-8180
▁Jaywalking	-8181
▁Marshmallow	-8182
▁Restoration	-8183
84	-8184
GH	-8185
SW	-8186
ес	-8187
▁{	-8188
▁♡	-8189
ANS	-8190
Box	-8191
CHO	-8192
Com	-8193
ITO	-8194
bro	-8195
eca	-8196
gre	-8197
iza	-8198
nic	-8199
oro	-8200
▁4-	-8201
▁KE	-8202
IVER	-8203
mpit	-8204
▁Beb	-8205
▁Bub	-8206
▁Pav	-8207
▁ROB	-8208
▁Tun	-8209
▁arg	-8210
▁ide	-8211
▁kar	-8212
▁sea	-8213
adise	-8214
asure	-8215
▁Beck	-8216
▁Beth	-8217
▁Lion	-8218
▁Para	-8219
▁dart	-8220
▁inch	-8221
▁Maine	-8222
▁Molly	-8223
▁Papel	-8224
▁dunks	-8225
▁Berlin	-8226
▁Harley	-8227
▁teatro	-8228
▁JUMPING	-8229
▁cheering	-8230
▁Strawberry	-8231
Al	-8232
ICS	-8233
OSE	-8234
imo	-8235
kle	-8236
rez	-8237
away	-8238
star	-8239
▁ABC	-8240
▁Sha	-8241
▁Zoe	-8242
▁cry	-8243
▁mid	-8244
laces	-8245
ronic	-8246
▁Butt	-8247
▁Cous	-8248
▁Dock	-8249
▁Know	-8250
▁Main	-8251
▁Suit	-8252
▁pink	-8253
▁sofa	-8254
▁Aidan	-8255
▁Elbow	-8256
▁Laugh	-8257
▁Mixed	-8258
▁Piece	-8259
▁Sharp	-8260
▁touch	-8261
▁Circle	-8262
▁Figure	-8263
▁Floral	-8264
▁easily	-8265
▁talent	-8266
▁temper	-8267
▁Lincoln	-8268
▁fitness	-8269
▁Michelle	-8270
▁Pancakes	-8271
▁́	-8272
▁م	-8273
▁❤	-8274
.15	-8275
AGE	-8276
gen	-8277
▁75	-8278
▁Ah	-8279
▁Yo	-8280
▁tu	-8281
inda	-8282
ways	-8283
▁Bec	-8284
▁Cit	-8285
▁Fur	-8286
▁Kir	-8287
▁Sac	-8288
▁Tal	-8289
▁eff	-8290
IDING	-8291
arian	-8292
ormal	-8293
▁Bali	-8294
▁Fore	-8295
▁GAME	-8296
▁Pict	-8297
▁Sams	-8298
▁Slip	-8299
▁Smel	-8300
▁Todd	-8301
▁cond	-8302
▁fake	-8303
▁want	-8304
string	-8305
▁Blade	-8306
▁Books	-8307
▁Dutch	-8308
▁EXTRE	-8309
▁Knots	-8310
▁meter	-8311
▁motor	-8312
▁Giving	-8313
▁ground	-8314
▁liquid	-8315
▁Glasses	-8316
▁Lifting	-8317
▁Partner	-8318
▁pattern	-8319
▁release	-8320
▁service	-8321
▁Battling	-8322
▁Brothers	-8323
▁Document	-8324
▁Printing	-8325
▁assemble	-8326
▁braiding	-8327
▁knuckles	-8328
▁pinching	-8329
▁Backwards	-8330
▁stretches	-8331
-05	-8332
qui	-8333
rac	-8334
tra	-8335
body	-8336
orig	-8337
utts	-8338
▁720	-8339
▁BBC	-8340
▁BMW	-8341
▁Duo	-8342
▁Ing	-8343
▁Ori	-8344
▁WAY	-8345
▁bex	-8346
▁reg	-8347
▁ráp	-8348
▁vil	-8349
ampoo	-8350
▁!!!!	-8351
▁Barn	-8352
▁Cong	-8353
▁Fred	-8354
▁Ivan	-8355
▁Mama	-8356
▁Peru	-8357
▁Zone	-8358
▁core	-8359
▁skin	-8360
▁CHAMP	-8361
▁Comic	-8362
▁Cough	-8363
▁Eagle	-8364
▁Frame	-8365
▁Gavin	-8366
▁Jumps	-8367
▁Obama	-8368
▁Sheet	-8369
▁grito	-8370
▁large	-8371
▁lavar	-8372
▁scene	-8373
▁shape	-8374
sterdam	-8375
▁Cardio	-8376
▁Leaves	-8377
▁Throws	-8378
▁Germany	-8379
▁bagging	-8380
▁cebolla	-8381
▁closing	-8382
▁winning	-8383
▁Separate	-8384
▁Standard	-8385
▁carrying	-8386
▁President	-8387
▁Racquetball	-8388
▁Straightening	-8389
iy	-8390
▁м	-8391
-17	-8392
101	-8393
alp	-8394
ten	-8395
wic	-8396
zzy	-8397
аст	-8398
▁#7	-8399
▁IV	-8400
▁MC	-8401
▁má	-8402
agon	-8403
▁Mit	-8404
▁Nav	-8405
▁Sor	-8406
▁Tah	-8407
▁mod	-8408
▁tar	-8409
INING	-8410
fight	-8411
ipple	-8412
▁2004	-8413
▁BLOW	-8414
▁Belg	-8415
▁DRUM	-8416
▁Euro	-8417
▁Jugg	-8418
▁Maui	-8419
▁PERF	-8420
▁Queb	-8421
▁Tail	-8422
▁alto	-8423
▁nice	-8424
▁Grito	-8425
▁Never	-8426
▁Whole	-8427
▁sobre	-8428
burning	-8429
chichas	-8430
▁Hurdle	-8431
▁stinky	-8432
angerous	-8433
▁Charles	-8434
▁Longest	-8435
▁Seattle	-8436
▁backyard	-8437
▁scrabble	-8438
▁Extension	-8439
▁snowboard	-8440
▁Aprendendo	-8441
▁tournament	-8442
.08	-8443
/07	-8444
HAR	-8445
ego	-8446
jah	-8447
lus	-8448
par	-8449
umo	-8450
▁48	-8451
▁LG	-8452
▁SY	-8453
▁TX	-8454
anne	-8455
etch	-8456
icos	-8457
iler	-8458
pack	-8459
▁250	-8460
▁315	-8461
▁CRE	-8462
▁Gur	-8463
▁its	-8464
ators	-8465
eback	-8466
kenny	-8467
▁Bloc	-8468
▁john	-8469
▁prot	-8470
▁ring	-8471
arella	-8472
▁Cheap	-8473
▁PAPER	-8474
▁Rider	-8475
▁Saint	-8476
▁Total	-8477
▁Wings	-8478
▁state	-8479
entando	-8480
▁Adrian	-8481
▁Claire	-8482
▁Colour	-8483
▁Prince	-8484
▁smooth	-8485
▁Natalie	-8486
niversary	-8487
▁Hardcore	-8488
▁Directing	-8489
▁Incredible	-8490
▁Practicing	-8491
▁conference	-8492
An	-8493
SS	-8494
hr	-8495
ак	-8496
▁CP	-8497
▁WI	-8498
▁Wy	-8499
▁ho	-8500
ENTO	-8501
Jump	-8502
erox	-8503
ised	-8504
vian	-8505
ídeo	-8506
▁CAL	-8507
▁Lam	-8508
▁MMA	-8509
▁Sof	-8510
▁Var	-8511
▁bye	-8512
▁fab	-8513
Video	-8514
asana	-8515
enzie	-8516
night	-8517
rindo	-8518
▁Deli	-8519
▁Drew	-8520
▁Hope	-8521
▁Kath	-8522
▁Prim	-8523
▁Sick	-8524
▁TEAM	-8525
▁2010.	-8526
▁Dunks	-8527
▁Korea	-8528
▁Tread	-8529
▁books	-8530
▁elbow	-8531
▁flips	-8532
▁photo	-8533
picking	-8534
▁Corner	-8535
▁Stupid	-8536
▁boxing	-8537
▁waters	-8538
▁Cameron	-8539
▁Fazendo	-8540
▁Planing	-8541
▁keeping	-8542
▁CrossFit	-8543
▁Position	-8544
▁Scrapbooking	-8545
33	-8546
DC	-8547
FA	-8548
Un	-8549
ju	-8550
▁Б	-8551
▁Д	-8552
CER	-8553
OUS	-8554
aix	-8555
imi	-8556
oos	-8557
ÇÃO	-8558
▁Om	-8559
▁WA	-8560
▁ao	-8561
ANGE	-8562
achi	-8563
aton	-8564
blem	-8565
eral	-8566
lete	-8567
pool	-8568
▁KIT	-8569
▁MAC	-8570
▁Raf	-8571
▁SAN	-8572
▁Sew	-8573
▁Swe	-8574
▁TIE	-8575
▁bel	-8576
▁bit	-8577
ahawk	-8578
anges	-8579
dlers	-8580
eline	-8581
▁Cape	-8582
▁Carl	-8583
▁Cows	-8584
▁Only	-8585
▁Pers	-8586
▁Roda	-8587
▁Rome	-8588
▁fair	-8589
▁mess	-8590
derson	-8591
elling	-8592
icious	-8593
vision	-8594
▁Bacon	-8595
▁Corte	-8596
▁Grant	-8597
▁Rober	-8598
▁WORLD	-8599
▁helps	-8600
▁races	-8601
▁scrub	-8602
▁Clinic	-8603
▁Colomb	-8604
▁Garage	-8605
▁Kettle	-8606
▁Maddie	-8607
▁Marine	-8608
▁Monday	-8609
▁Spinner	-8610
▁Tuesday	-8611
▁Greatest	-8612
▁Parasail	-8613
▁Whistler	-8614
▁assembly	-8615
▁Entertain	-8616
▁headphones	-8617
Ne	-8618
Sc	-8619
-01	-8620
APP	-8621
LEY	-8622
ava	-8623
nal	-8624
oci	-8625
лет	-8626
▁**	-8627
▁33	-8628
▁Ok	-8629
▁VA	-8630
▁xD	-8631
ANCE	-8632
Step	-8633
alho	-8634
deon	-8635
scar	-8636
▁Gem	-8637
▁Idi	-8638
inale	-8639
velop	-8640
▁Deaf	-8641
▁FREE	-8642
▁Gray	-8643
▁Sold	-8644
▁TAST	-8645
▁TEST	-8646
▁TREE	-8647
▁mult	-8648
▁soft	-8649
▁Makes	-8650
▁Smash	-8651
▁corda	-8652
▁space	-8653
achorro	-8654
▁Facial	-8655
▁Norway	-8656
▁Sonata	-8657
▁Venice	-8658
▁stones	-8659
zzarella	-8660
▁Amateur	-8661
▁cerveja	-8662
▁Firework	-8663
▁Pushdowns	-8664
▁directing	-8665
▁cartwheels	-8666
▁sandcastle	-8667
ив	-8668
ATS	-8669
IDO	-8670
ils	-8671
ñas	-8672
ABLE	-8673
Time	-8674
buil	-8675
ears	-8676
zona	-8677
▁MIL	-8678
▁Nam	-8679
▁add	-8680
▁die	-8681
▁dob	-8682
▁fra	-8683
▁gig	-8684
▁ins	-8685
erman	-8686
nival	-8687
ories	-8688
▁Jane	-8689
▁each	-8690
▁gift	-8691
OOKING	-8692
iscina	-8693
nesday	-8694
▁Grupo	-8695
▁Media	-8696
▁Rules	-8697
▁Stare	-8698
▁along	-8699
▁chase	-8700
▁Alyssa	-8701
▁Rodrig	-8702
▁dinner	-8703
▁gutter	-8704
▁Dynamic	-8705
▁Houston	-8706
▁Martial	-8707
▁Quarter	-8708
▁Samsung	-8709
▁fencing	-8710
▁Auctions	-8711
▁Bracelet	-8712
▁Military	-8713
▁workshop	-8714
▁Interpret	-8715
▁Stainless	-8716
▁megaphone	-8717
▁sculpture	-8718
▁Manchester	-8719
▁Separating	-8720
▁Alternating	-8721
▁Bricklaying	-8722
▁championship	-8723
AMA	-8724
Car	-8725
INN	-8726
▁RA	-8727
▁RC	-8728
▁UC	-8729
2014	-8730
BANG	-8731
anut	-8732
arta	-8733
erra	-8734
▁Pic	-8735
▁SER	-8736
▁SOL	-8737
▁TRE	-8738
▁bri	-8739
▁cla	-8740
andra	-8741
otton	-8742
▁Aula	-8743
▁BIKE	-8744
▁Chan	-8745
▁Cult	-8746
▁FOOD	-8747
▁Muse	-8748
▁PARK	-8749
▁RIDE	-8750
▁SING	-8751
▁bare	-8752
▁cant	-8753
▁felt	-8754
▁geoc	-8755
▁mais	-8756
▁Avery	-8757
▁Being	-8758
▁Hello	-8759
▁SKATE	-8760
▁Shane	-8761
▁Tower	-8762
▁arrow	-8763
▁prank	-8764
▁stage	-8765
▁Muscle	-8766
▁Pastry	-8767
▁stairs	-8768
▁Plastic	-8769
▁prepare	-8770
▁special	-8771
▁Virginia	-8772
▁receives	-8773
▁tickling	-8774
▁Mechanics	-8775
▁breaststroke	-8776
ASA	-8777
ATO	-8778
Boy	-8779
ENS	-8780
URA	-8781
bel	-8782
ITAR	-8783
TION	-8784
edar	-8785
edia	-8786
eira	-8787
eman	-8788
inds	-8789
ocus	-8790
vata	-8791
ение	-8792
▁BAT	-8793
▁GAR	-8794
▁Gor	-8795
▁STE	-8796
▁Sid	-8797
▁Sne	-8798
▁Suz	-8799
▁VEG	-8800
▁VID	-8801
.2012	-8802
ITION	-8803
IVING	-8804
ision	-8805
uerda	-8806
▁BASK	-8807
▁Cons	-8808
▁Elli	-8809
▁Goes	-8810
▁Orch	-8811
vening	-8812
▁Curly	-8813
▁Local	-8814
▁Plank	-8815
▁Poach	-8816
▁Worst	-8817
▁Boards	-8818
▁Crunch	-8819
▁Ladies	-8820
▁Toyota	-8821
▁drinks	-8822
▁Entrada	-8823
▁glasses	-8824
▁hurling	-8825
▁slapping	-8826
▁packaging	-8827
▁pirouettes	-8828
oh	-8829
од	-8830
-04	-8831
UGG	-8832
aho	-8833
jar	-8834
rib	-8835
▁#9	-8836
▁EZ	-8837
▁MG	-8838
▁ry	-8839
aila	-8840
ands	-8841
lude	-8842
mann	-8843
▁Age	-8844
▁Say	-8845
▁Sin	-8846
▁equ	-8847
▁mob	-8848
▁sin	-8849
▁wet	-8850
adora	-8851
eltic	-8852
ieval	-8853
niest	-8854
ntown	-8855
treme	-8856
▁Hook	-8857
▁Iowa	-8858
▁Leon	-8859
▁ROPE	-8860
▁WOOD	-8861
▁deli	-8862
▁dorm	-8863
▁onto	-8864
ooters	-8865
uzzles	-8866
weight	-8867
▁Along	-8868
▁Dirty	-8869
▁Lewis	-8870
▁Pipes	-8871
▁SALSA	-8872
▁Stuff	-8873
▁banho	-8874
▁saree	-8875
▁tools	-8876
ospital	-8877
▁CHRIST	-8878
▁Julian	-8879
▁United	-8880
▁Perform	-8881
▁Teacher	-8882
▁buskers	-8883
▁Snapping	-8884
▁Beginning	-8885
▁Pedestrian	-8886
▁Photography	-8887
▁Intermediate	-8888
48	-8889
66	-8890
-02	-8891
IPE	-8892
RAP	-8893
ULT	-8894
afé	-8895
aky	-8896
ici	-8897
nte	-8898
orp	-8899
▁42	-8900
▁ID	-8901
▁SS	-8902
jump	-8903
vant	-8904
▁Ace	-8905
▁Cha	-8906
▁Gig	-8907
▁Hog	-8908
▁IMG	-8909
▁LAS	-8910
▁Lif	-8911
▁Pão	-8912
▁der	-8913
ished	-8914
itive	-8915
▁Area	-8916
▁Bros	-8917
▁Mand	-8918
▁Saut	-8919
▁Temp	-8920
▁limp	-8921
bridge	-8922
ective	-8923
inness	-8924
▁Chick	-8925
▁Combo	-8926
▁Hedge	-8927
▁Liber	-8928
▁Visit	-8929
▁bikes	-8930
vention	-8931
▁Attack	-8932
▁Create	-8933
▁Months	-8934
▁Parede	-8935
▁Really	-8936
▁shovel	-8937
▁Abrindo	-8938
▁Arizona	-8939
▁BALLOON	-8940
▁Factory	-8941
▁Outside	-8942
▁Springs	-8943
▁applaud	-8944
▁Kilkenny	-8945
▁puncture	-8946
ysterically	-8947
.03	-8948
UBA	-8949
eto	-8950
hib	-8951
pot	-8952
uty	-8953
▁Tu	-8954
▁ke	-8955
2013	-8956
abet	-8957
aley	-8958
lica	-8959
ract	-8960
rock	-8961
stan	-8962
▁Aub	-8963
▁DRA	-8964
▁Neg	-8965
▁Too	-8966
▁mas	-8967
licar	-8968
reets	-8969
▁Bora	-8970
▁Conf	-8971
▁Educ	-8972
▁Erin	-8973
▁Expo	-8974
▁Gall	-8975
▁Rear	-8976
▁Sari	-8977
▁Stef	-8978
▁Well	-8979
▁haha	-8980
▁hats	-8981
▁they	-8982
quence	-8983
▁2012.	-8984
▁Kitty	-8985
▁Lindy	-8986
▁Prime	-8987
▁Serra	-8988
▁cable	-8989
▁intro	-8990
▁passo	-8991
▁stilt	-8992
castles	-8993
mission	-8994
▁Salmon	-8995
▁Shaves	-8996
▁Tumble	-8997
▁Wilson	-8998
▁dancer	-8999
▁kicked	-9000
▁lenses	-9001
▁madera	-9002
▁marble	-9003
▁Antonio	-9004
▁Digital	-9005
▁EXTREME	-9006
▁Eyelash	-9007
▁Indiana	-9008
▁Western	-9009
▁Winning	-9010
▁Dustless	-9011
▁Interior	-9012
▁Official	-9013
▁Shredding	-9014
▁photobomb	-9015
▁skateboarding	-9016
▁Contorcionista	-9017
BL	-9018
TC	-9019
▁Т	-9020
-19	-9021
.16	-9022
KER	-9023
WAY	-9024
bos	-9025
▁4.	-9026
▁CJ	-9027
2012	-9028
bang	-9029
bird	-9030
rina	-9031
scop	-9032
▁BEL	-9033
▁Cul	-9034
▁EST	-9035
▁Pas	-9036
▁Tel	-9037
▁now	-9038
ATHER	-9039
ainer	-9040
annon	-9041
arium	-9042
arter	-9043
lette	-9044
▁101:	-9045
▁Joel	-9046
▁Lava	-9047
▁Nash	-9048
▁PARA	-9049
▁Pent	-9050
▁Xmas	-9051
▁gran	-9052
▁miss	-9053
▁salt	-9054
ieving	-9055
zabeth	-9056
▁CRAZY	-9057
▁Early	-9058
▁Going	-9059
▁Rapel	-9060
▁Store	-9061
▁TRICK	-9062
▁human	-9063
▁moves	-9064
▁takes	-9065
artment	-9066
inburgh	-9067
▁Cement	-9068
▁Colors	-9069
▁Desert	-9070
▁Shovel	-9071
▁Sunset	-9072
▁cattle	-9073
▁dining	-9074
▁situps	-9075
▁Arguing	-9076
▁Jamaica	-9077
▁Handmade	-9078
▁Pitching	-9079
▁carrinho	-9080
▁Amsterdam	-9081
▁Orchestra	-9082
▁mushrooms	-9083
/9	-9084
4.	-9085
8)	-9086
BE	-9087
ds	-9088
/20	-9089
???	-9090
aje	-9091
axy	-9092
toe	-9093
udo	-9094
war	-9095
▁LL	-9096
erek	-9097
indy	-9098
lown	-9099
ners	-9100
uela	-9101
▁Bab	-9102
▁STR	-9103
▁bon	-9104
▁gam	-9105
▁jun	-9106
▁low	-9107
▁meu	-9108
flute	-9109
gnant	-9110
inson	-9111
quest	-9112
ucker	-9113
▁Arte	-9114
▁Deal	-9115
▁Lost	-9116
▁SURF	-9117
▁Safe	-9118
▁alex	-9119
▁cost	-9120
BOXING	-9121
athlon	-9122
ullaby	-9123
▁Chant	-9124
▁Delhi	-9125
▁Works	-9126
▁carve	-9127
▁pinch	-9128
▁pitch	-9129
▁puppy	-9130
▁still	-9131
▁story	-9132
merican	-9133
▁Broken	-9134
▁Doctor	-9135
▁Felted	-9136
▁Ginger	-9137
▁Gritos	-9138
▁Russia	-9139
▁letter	-9140
▁sounds	-9141
▁Replace	-9142
▁Cortando	-9143
▁Flooring	-9144
▁Jennifer	-9145
▁Weighted	-9146
▁Seasoning	-9147
▁Adjustment	-9148
▁excavation	-9149
-20	-9150
▁37	-9151
▁38	-9152
▁4,	-9153
▁Ny	-9154
HEEL	-9155
ampa	-9156
bbon	-9157
elyn	-9158
itor	-9159
▁Dak	-9160
▁Emb	-9161
▁GRE	-9162
▁Sty	-9163
▁Tub	-9164
▁lot	-9165
▁nap	-9166
hanie	-9167
vival	-9168
▁Aunt	-9169
▁Cade	-9170
▁Chen	-9171
▁Mask	-9172
▁Niño	-9173
▁Pike	-9174
▁Punt	-9175
▁SNAP	-9176
▁Supp	-9177
▁bday	-9178
▁done	-9179
▁king	-9180
▁unha	-9181
astian	-9182
render	-9183
school	-9184
▁2011.	-9185
▁Dodge	-9186
▁Enjoy	-9187
▁Kenny	-9188
▁Still	-9189
▁Urban	-9190
▁Warri	-9191
▁rider	-9192
mellows	-9193
mentary	-9194
▁Chiang	-9195
▁Cowboy	-9196
▁Father	-9197
▁Pocket	-9198
▁Survey	-9199
▁Wheels	-9200
▁gritos	-9201
▁lunges	-9202
▁powder	-9203
▁Bathing	-9204
▁England	-9205
▁Grilled	-9206
▁Recital	-9207
▁drummer	-9208
▁esgrima	-9209
▁himself	-9210
▁hurdles	-9211
▁Clamming	-9212
▁District	-9213
▁Progress	-9214
▁Removing	-9215
▁Wallpaper	-9216
Wh	-9217
ок	-9218
▁^	-9219
-18	-9220
atu	-9221
bat	-9222
bol	-9223
▁mi	-9224
▁ou	-9225
hole	-9226
lips	-9227
▁ARG	-9228
▁Dob	-9229
▁Dur	-9230
▁Gel	-9231
▁MAT	-9232
▁McK	-9233
▁Nad	-9234
▁Pow	-9235
▁def	-9236
▁fro	-9237
▁had	-9238
▁hip	-9239
▁pic	-9240
▁wor	-9241
entle	-9242
indle	-9243
ivity	-9244
▁Foam	-9245
▁Have	-9246
▁Mode	-9247
▁Rica	-9248
▁Stew	-9249
▁Text	-9250
▁bake	-9251
▁heat	-9252
▁semi	-9253
▁suco	-9254
burger	-9255
wiches	-9256
álculo	-9257
▁Parag	-9258
▁Print	-9259
▁Vegan	-9260
▁Wayne	-9261
▁Braids	-9262
▁Bulldo	-9263
▁During	-9264
▁Update	-9265
elunking	-9266
▁Fashion	-9267
▁Marbles	-9268
▁Pigeons	-9269
▁Puppets	-9270
▁dunking	-9271
▁gutters	-9272
▁showing	-9273
▁Assisted	-9274
▁Cambodia	-9275
▁Ceremony	-9276
▁Coughing	-9277
▁Nicholas	-9278
▁Shouting	-9279
▁Condition	-9280
▁Detecting	-9281
▁Direction	-9282
▁Horseshoe	-9283
▁Preparing	-9284
▁Surfboard	-9285
▁Wednesday	-9286
▁charleston	-9287
▁longboarding	-9288
65	-9289
Ep	-9290
It	-9291
LO	-9292
ci	-9293
ín	-9294
ал	-9295
▁•	-9296
😂😂	-9297
-25	-9298
aik	-9299
inu	-9300
nel	-9301
▁34	-9302
▁AA	-9303
▁Dj	-9304
▁Wa	-9305
▁Ye	-9306
otta	-9307
▁BAN	-9308
▁Bou	-9309
▁Coz	-9310
▁Gla	-9311
▁Hum	-9312
▁Pos	-9313
▁Tog	-9314
▁fan	-9315
▁inf	-9316
crack	-9317
layer	-9318
reece	-9319
▁Bone	-9320
▁Here	-9321
▁Khan	-9322
▁Loud	-9323
▁Unit	-9324
▁kkkk	-9325
▁pict	-9326
▁rebo	-9327
▁Casey	-9328
▁Hacks	-9329
▁Jared	-9330
▁Keith	-9331
▁Kings	-9332
▁Marie	-9333
▁pipes	-9334
▁Andrea	-9335
▁Lenses	-9336
▁Seared	-9337
▁Spirit	-9338
▁artist	-9339
▁busker	-9340
▁silent	-9341
▁Bangkok	-9342
▁PLASTER	-9343
▁Prepare	-9344
▁Secrets	-9345
▁Tocando	-9346
▁trailer	-9347
▁driveway	-9348
▁gargling	-9349
▁shredder	-9350
▁Elizabeth	-9351
▁Contortion	-9352
▁Variations	-9353
▁application	-9354
▁breakdancing	-9355
38	-9356
KA	-9357
VC	-9358
/19	-9359
DAY	-9360
IRE	-9361
ffe	-9362
fol	-9363
hab	-9364
tty	-9365
uca	-9366
vet	-9367
▁Il	-9368
▁LU	-9369
▁TN	-9370
▁VI	-9371
,000	-9372
corn	-9373
hood	-9374
omet	-9375
ully	-9376
ured	-9377
▁FIT	-9378
▁HEL	-9379
▁Moz	-9380
▁PUN	-9381
▁PUT	-9382
▁Raj	-9383
▁YOU	-9384
▁inc	-9385
▁mes	-9386
STYLE	-9387
adium	-9388
stein	-9389
▁Amel	-9390
▁Bust	-9391
▁Lace	-9392
▁Penn	-9393
▁Pond	-9394
▁Soul	-9395
▁simp	-9396
▁spot	-9397
semble	-9398
uccino	-9399
▁BREAK	-9400
▁Carve	-9401
▁Craig	-9402
▁Curry	-9403
▁Meter	-9404
▁Trout	-9405
▁Walle	-9406
▁Wines	-9407
▁minor	-9408
▁porta	-9409
▁skill	-9410
▁Events	-9411
▁Landsc	-9412
▁Potter	-9413
▁Rappel	-9414
▁Sierra	-9415
▁domino	-9416
▁pedido	-9417
▁should	-9418
▁Antique	-9419
▁Farrier	-9420
▁Gutters	-9421
▁bagpipe	-9422
▁batendo	-9423
▁Bulgaria	-9424
▁Montando	-9425
Se	-9426
gor	-9427
hai	-9428
lat	-9429
▁(6	-9430
▁HP	-9431
▁IL	-9432
▁XC	-9433
ENDO	-9434
anco	-9435
kish	-9436
rors	-9437
shot	-9438
town	-9439
▁Amb	-9440
▁BOD	-9441
▁Rim	-9442
▁Yan	-9443
▁jan	-9444
▁tai	-9445
AVING	-9446
entes	-9447
itter	-9448
rance	-9449
▁BOTT	-9450
▁Bald	-9451
▁GANG	-9452
▁casa	-9453
▁ears	-9454
▁lace	-9455
▁plus	-9456
▁pond	-9457
ifying	-9458
▁Beans	-9459
▁Butch	-9460
▁Clams	-9461
▁Clark	-9462
▁Crust	-9463
▁PARTY	-9464
▁Pages	-9465
▁Robin	-9466
▁Spark	-9467
▁Titan	-9468
▁Trist	-9469
▁Chisel	-9470
▁Chorus	-9471
▁RECORD	-9472
▁bexiga	-9473
▁Carrier	-9474
▁Whisper	-9475
▁castles	-9476
▁Bodysurf	-9477
▁Driveway	-9478
▁Paradise	-9479
▁Evolution	-9480
▁practicing	-9481
Co	-9482
▁¿	-9483
▁А	-9484
▁б	-9485
ALE	-9486
INK	-9487
aps	-9488
eno	-9489
ulu	-9490
var	-9491
ère	-9492
▁😂😂	-9493
aria	-9494
atta	-9495
jury	-9496
onte	-9497
▁Cli	-9498
▁Had	-9499
▁Him	-9500
▁Job	-9501
▁MAD	-9502
▁RED	-9503
▁Vel	-9504
▁mat	-9505
▁row	-9506
-2016	-9507
eplay	-9508
illon	-9509
incip	-9510
piper	-9511
press	-9512
ually	-9513
▁Casa	-9514
▁Dean	-9515
▁Duck	-9516
▁Grow	-9517
▁KISS	-9518
▁Plac	-9519
▁Pure	-9520
▁Silk	-9521
▁Tank	-9522
▁Thin	-9523
▁Tort	-9524
▁mark	-9525
atment	-9526
▁Britt	-9527
▁Clare	-9528
▁Devil	-9529
▁FLOOR	-9530
▁Faith	-9531
▁Shout	-9532
▁TANGO	-9533
▁Thigh	-9534
▁maker	-9535
acional	-9536
incando	-9537
▁Cancer	-9538
▁Climbs	-9539
▁Cruise	-9540
▁Flight	-9541
▁unload	-9542
ferences	-9543
▁DANCING	-9544
▁Easiest	-9545
▁Melissa	-9546
▁teaches	-9547
▁Carrying	-9548
▁FOOTBALL	-9549
▁Highland	-9550
▁campfire	-9551
gs	-9552
ем	-9553
-27	-9554
BER	-9555
ELO	-9556
OSH	-9557
ahu	-9558
ged	-9559
ify	-9560
pan	-9561
zon	-9562
▁CT	-9563
▁Ki	-9564
▁PM	-9565
Work	-9566
inch	-9567
lery	-9568
mbre	-9569
▁140	-9570
▁Hey	-9571
▁Hud	-9572
▁Ple	-9573
▁TAG	-9574
▁ash	-9575
▁bud	-9576
▁slo	-9577
▁ten	-9578
etted	-9579
inary	-9580
lades	-9581
piece	-9582
▁Clar	-9583
▁Kend	-9584
▁Lazy	-9585
▁MUST	-9586
▁dead	-9587
▁paso	-9588
▁ramp	-9589
ordeon	-9590
▁Autom	-9591
▁Bobby	-9592
▁CHEER	-9593
▁Canon	-9594
▁Eddie	-9595
▁Pinch	-9596
▁Spain	-9597
▁Viole	-9598
▁wakes	-9599
▁weird	-9600
▁whole	-9601
uetooth	-9602
▁Easily	-9603
▁GUITAR	-9604
▁Having	-9605
▁Shaved	-9606
▁montar	-9607
▁pieces	-9608
▁COOKING	-9609
▁Closing	-9610
▁Incline	-9611
▁Intense	-9612
▁Thunder	-9613
▁Wrestle	-9614
▁ceiling	-9615
▁docking	-9616
▁jewelry	-9617
▁oysters	-9618
▁Acoustic	-9619
▁Guinness	-9620
▁Stitches	-9621
▁knapping	-9622
▁movement	-9623
aa	-9624
://	-9625
cue	-9626
duc	-9627
not	-9628
oty	-9629
▁Aj	-9630
▁EY	-9631
▁ba	-9632
char	-9633
iety	-9634
lado	-9635
list	-9636
pong	-9637
rell	-9638
wind	-9639
▁400	-9640
▁405	-9641
▁Dew	-9642
▁Meu	-9643
▁Tec	-9644
▁max	-9645
▁say	-9646
▁tam	-9647
▁vac	-9648
.2015	-9649
erick	-9650
stron	-9651
urity	-9652
▁Alph	-9653
▁Canc	-9654
▁Cars	-9655
▁Chel	-9656
▁HARD	-9657
▁Icel	-9658
▁Lets	-9659
▁Math	-9660
▁Mono	-9661
▁Obra	-9662
▁Pose	-9663
▁Prom	-9664
▁Trek	-9665
▁bola	-9666
▁dude	-9667
▁infl	-9668
▁loud	-9669
▁matt	-9670
▁slic	-9671
oopers	-9672
utions	-9673
▁Daisy	-9674
▁Diver	-9675
▁Drink	-9676
▁Hitch	-9677
▁SUPER	-9678
▁Strat	-9679
▁Waves	-9680
▁juice	-9681
▁megaf	-9682
▁resta	-9683
▁rolls	-9684
▁sport	-9685
ibility	-9686
▁Handed	-9687
▁Harlem	-9688
▁Taiwan	-9689
▁abseil	-9690
▁almost	-9691
▁encher	-9692
▁garage	-9693
▁grapes	-9694
▁salute	-9695
▁squats	-9696
▁Android	-9697
▁Camping	-9698
▁Knuckle	-9699
▁Brooklyn	-9700
▁Limerick	-9701
▁Pakistan	-9702
▁Vertical	-9703
▁Argentina	-9704
▁Indonesia	-9705
▁Lawnmower	-9706
▁receiving	-9707
▁Landsailing	-9708
▁marshmallow	-9709
▁Straightener	-9710
My	-9711
OK	-9712
Sw	-9713
ZE	-9714
.04	-9715
.07	-9716
ANC	-9717
CAA	-9718
ELD	-9719
For	-9720
OVE	-9721
TON	-9722
gal	-9723
omi	-9724
pon	-9725
rix	-9726
▁95	-9727
▁=)	-9728
▁HI	-9729
▁Ti	-9730
-200	-9731
Bass	-9732
MENT	-9733
ains	-9734
aval	-9735
hyth	-9736
ires	-9737
izer	-9738
keep	-9739
olan	-9740
olis	-9741
oria	-9742
reck	-9743
ugal	-9744
▁BOL	-9745
▁INT	-9746
▁MUS	-9747
▁Nel	-9748
▁Tig	-9749
▁hop	-9750
▁sch	-9751
▁yrs	-9752
antha	-9753
itage	-9754
mento	-9755
umbai	-9756
▁Anti	-9757
▁Bebê	-9758
▁Ener	-9759
▁Fork	-9760
▁Gala	-9761
▁Sens	-9762
▁burp	-9763
ighbor	-9764
▁Caves	-9765
▁Chuan	-9766
▁Chuck	-9767
▁Derek	-9768
▁Other	-9769
▁Ridge	-9770
▁Spicy	-9771
▁salto	-9772
▁scall	-9773
▁songs	-9774
puccino	-9775
▁Perfor	-9776
▁Testim	-9777
▁Trains	-9778
▁sharks	-9779
▁Garrett	-9780
▁Herding	-9781
▁Iceland	-9782
▁Walmart	-9783
▁Portland	-9784
▁Products	-9785
▁Scramble	-9786
▁rotation	-9787
▁detecting	-9788
▁commercial	-9789
▁straighten	-9790
▁Woodworking	-9791
".	-9792
34	-9793
La	-9794
NG	-9795
zi	-9796
COM	-9797
Cre	-9798
ERA	-9799
asa	-9800
cam	-9801
dri	-9802
kar	-9803
rus	-9804
won	-9805
▁CM	-9806
▁Ku	-9807
▁LI	-9808
▁PB	-9809
▁ci	-9810
▁dé	-9811
▁lu	-9812
WING	-9813
avid	-9814
cont	-9815
ered	-9816
heat	-9817
inos	-9818
▁HOR	-9819
▁Muk	-9820
▁Wag	-9821
▁bec	-9822
▁lil	-9823
▁pel	-9824
onsin	-9825
rence	-9826
▁FACE	-9827
▁FROM	-9828
▁Infl	-9829
▁Merc	-9830
▁PUSH	-9831
▁STAR	-9832
▁burn	-9833
▁rest	-9834
steira	-9835
▁Broad	-9836
▁Filip	-9837
▁Minor	-9838
▁Polar	-9839
▁Shore	-9840
▁gopro	-9841
▁honey	-9842
▁jogar	-9843
▁screw	-9844
▁stare	-9845
▁Medium	-9846
▁Travis	-9847
▁Yamaha	-9848
▁plates	-9849
isconsin	-9850
▁CARVING	-9851
▁brushes	-9852
▁dolphin	-9853
▁Crianças	-9854
▁Machines	-9855
▁Snapback	-9856
▁arrested	-9857
▁demonstr	-9858
▁BASKETBALL	-9859
▁Industrial	-9860
3.	-9861
DI	-9862
/05	-9863
500	-9864
ARI	-9865
CUL	-9866
iev	-9867
oob	-9868
tas	-9869
yrs	-9870
▁#8	-9871
▁4:	-9872
▁FC	-9873
▁Ot	-9874
▁UL	-9875
NESS	-9876
ebra	-9877
iona	-9878
isto	-9879
plan	-9880
wall	-9881
▁(10	-9882
▁Ach	-9883
▁Arc	-9884
▁Bil	-9885
▁Dre	-9886
▁FAC	-9887
▁FRI	-9888
▁Vic	-9889
▁aka	-9890
▁hor	-9891
▁sen	-9892
ashes	-9893
shirt	-9894
▁BEER	-9895
▁Beij	-9896
▁CARD	-9897
▁INST	-9898
▁gema	-9899
▁Alber	-9900
▁Baker	-9901
▁Fails	-9902
▁Foods	-9903
▁Karen	-9904
▁Oscar	-9905
▁Tamil	-9906
▁Trash	-9907
▁relax	-9908
▁tirar	-9909
▁Copper	-9910
▁Sweden	-9911
▁Temple	-9912
▁Things	-9913
▁basics	-9914
▁breaks	-9915
▁filter	-9916
▁jigsaw	-9917
▁slides	-9918
▁speech	-9919
▁yellow	-9920
........	-9921
▁Allison	-9922
▁Pacific	-9923
▁Tequila	-9924
▁Twisting	-9925
▁Edinburgh	-9926
▁Beatboxing	-9927
▁instructions	-9928
ур	-9929
▁á	-9930
▁т	-9931
YMB	-9932
▁(7	-9933
▁SU	-9934
▁dy	-9935
▁ob	-9936
LAND	-9937
acie	-9938
iane	-9939
idad	-9940
oops	-9941
rama	-9942
rome	-9943
umar	-9944
▁Dia	-9945
▁Jig	-9946
▁Mul	-9947
▁NBA	-9948
▁PAT	-9949
▁WAR	-9950
▁Wes	-9951
▁YOG	-9952
ilton	-9953
itzer	-9954
lesia	-9955
shine	-9956
▁Alum	-9957
▁Cruz	-9958
▁Finn	-9959
▁Patt	-9960
▁Prec	-9961
▁Thor	-9962
▁Trap	-9963
▁Troy	-9964
▁dish	-9965
▁dist	-9966
▁dock	-9967
▁flex	-9968
▁knee	-9969
▁mall	-9970
▁neve	-9971
▁pies	-9972
▁skyd	-9973
▁Bikes	-9974
▁CHICK	-9975
▁Force	-9976
▁Juice	-9977
▁Pasta	-9978
▁Whitt	-9979
▁bater	-9980
▁blueb	-9981
▁slice	-9982
▁store	-9983
▁walks	-9984
▁works	-9985
ription	-9986
ulldown	-9987
▁Celtic	-9988
▁Cherry	-9989
▁Drying	-9990
▁Paiste	-9991
▁Should	-9992
▁Stream	-9993
▁Timber	-9994
▁Volume	-9995
▁anchor	-9996
▁office	-9997
lexology	-9998
▁Express	-9999
▁GANGNAM	-10000
▁Harpist	-10001
▁Healing	-10002
▁Russell	-10003
▁TAPPING	-10004
▁gravata	-10005
▁wearing	-10006
▁Everyday	-10007
▁Receives	-10008
▁hardwood	-10009
▁Headphone	-10010
▁Hollywood	-10011
▁JumpStyle	-10012
▁Sculpting	-10013
▁Spiderman	-10014
▁Splitting	-10015
39	-10016
77	-10017
Do	-10018
FE	-10019
Qu	-10020
gr	-10021
td	-10022
yo	-10023
ев	-10024
-26	-10025
KEY	-10026
OTH	-10027
Out	-10028
uct	-10029
yan	-10030
▁''	-10031
▁(8	-10032
▁AG	-10033
▁AV	-10034
▁GE	-10035
▁MP	-10036
ONEY	-10037
iras	-10038
ults	-10039
▁Bik	-10040
▁Koh	-10041
▁Kra	-10042
▁Maz	-10043
▁did	-10044
▁gal	-10045
▁lat	-10046
brary	-10047
ramid	-10048
worth	-10049
xford	-10050
▁Cove	-10051
▁Deer	-10052
▁Delt	-10053
▁FLIP	-10054
▁Hart	-10055
▁Jung	-10056
▁Kris	-10057
▁Plat	-10058
▁Reef	-10059
▁Rush	-10060
▁Soda	-10061
▁calf	-10062
▁jugg	-10063
▁sold	-10064
HARLEM	-10065
▁Boots	-10066
▁Carib	-10067
▁Julie	-10068
▁Mouse	-10069
▁Perth	-10070
▁Ricky	-10071
▁SCUBA	-10072
▁Smell	-10073
▁Union	-10074
▁Weave	-10075
▁situp	-10076
▁Acorda	-10077
▁Gordon	-10078
▁Museum	-10079
▁Pastor	-10080
▁Rescue	-10081
▁bottom	-10082
▁caught	-10083
▁circle	-10084
▁pounds	-10085
▁Bahamas	-10086
▁Circuit	-10087
▁Heather	-10088
▁Statues	-10089
▁animals	-10090
▁climber	-10091
▁solving	-10092
▁Complete	-10093
▁CHRISTMAS	-10094
▁Sourdough	-10095
▁Wisconsin	-10096
▁Anniversary	-10097
▁straightener	-10098
Ap	-10099
DE	-10100
hh	-10101
▁О	-10102
/18	-10103
/30	-10104
INS	-10105
apo	-10106
isf	-10107
top	-10108
ttp	-10109
▁CS	-10110
▁GP	-10111
▁UA	-10112
▁af	-10113
gate	-10114
hest	-10115
ipur	-10116
life	-10117
ocar	-10118
osed	-10119
tion	-10120
▁Alf	-10121
▁Ama	-10122
▁DUN	-10123
▁ELE	-10124
▁Pau	-10125
▁tab	-10126
▁wel	-10127
.2016	-10128
CHOOL	-10129
azine	-10130
▁1920	-10131
▁2002	-10132
▁Bond	-10133
▁Exam	-10134
▁Jong	-10135
▁List	-10136
▁PASS	-10137
▁STRA	-10138
▁Save	-10139
▁cats	-10140
▁pret	-10141
▁stir	-10142
alleng	-10143
flower	-10144
itando	-10145
master	-10146
▁Annie	-10147
▁BLACK	-10148
▁Beads	-10149
▁Brend	-10150
▁Cater	-10151
▁Chile	-10152
▁Curso	-10153
▁DRILL	-10154
▁FINAL	-10155
▁Greek	-10156
▁Griff	-10157
▁Pierc	-10158
▁SWING	-10159
▁Sandy	-10160
▁Sling	-10161
▁Sochi	-10162
▁Solve	-10163
▁WREST	-10164
▁Xerox	-10165
▁blade	-10166
▁patty	-10167
▁Common	-10168
▁Curler	-10169
▁Marcus	-10170
▁Mestre	-10171
▁Sample	-10172
▁Scenes	-10173
▁Styles	-10174
▁broken	-10175
stronaut	-10176
▁FINGERS	-10177
▁Mission	-10178
▁Society	-10179
▁edition	-10180
▁iglesia	-10181
▁Contacts	-10182
▁Enchendo	-10183
▁Lollipop	-10184
▁bandaging	-10185
▁corkscrew	-10186
▁decoupage	-10187
▁Spelunking	-10188
▁applauding	-10189
Jo	-10190
Sk	-10191
nc	-10192
pm	-10193
/29	-10194
MET	-10195
bag	-10196
jor	-10197
odo	-10198
▁Gy	-10199
▁MN	-10200
▁Ru	-10201
▁SR	-10202
ATOR	-10203
agen	-10204
bean	-10205
eyed	-10206
▁(3)	-10207
▁Arn	-10208
▁Dix	-10209
▁Era	-10210
▁INS	-10211
▁LAV	-10212
▁Lov	-10213
▁MLB	-10214
▁dep	-10215
▁fut	-10216
Dance	-10217
icing	-10218
leton	-10219
▁Aqua	-10220
▁Chad	-10221
▁Coco	-10222
▁Cuts	-10223
▁Gabe	-10224
▁HOME	-10225
▁Hell	-10226
▁Lama	-10227
▁Lane	-10228
▁Link	-10229
▁Luis	-10230
▁Mega	-10231
▁Vene	-10232
▁Wick	-10233
▁comm	-10234
▁cuts	-10235
▁doll	-10236
▁dumb	-10237
▁flor	-10238
▁four	-10239
▁toca	-10240
▁well	-10241
iction	-10242
ration	-10243
vation	-10244
▁Alice	-10245
▁Anime	-10246
▁Mouth	-10247
▁Suite	-10248
▁Thick	-10249
▁Veter	-10250
▁likes	-10251
▁shark	-10252
▁caindo	-10253
▁monkey	-10254
▁rápido	-10255
▁string	-10256
▁sudoku	-10257
▁tickle	-10258
▁GETTING	-10259
▁Storage	-10260
▁balance	-10261
▁sucking	-10262
▁CHAMPION	-10263
▁CLEANING	-10264
▁Hospital	-10265
▁Republic	-10266
▁Together	-10267
▁pirulito	-10268
▁position	-10269
▁smelling	-10270
▁PAINTBALL	-10271
▁Sebastian	-10272
▁wallpaper	-10273
▁springboard	-10274
▁sledgehammer	-10275
!"	-10276
37	-10277
9)	-10278
Am	-10279
||	-10280
он	-10281
▁★	-10282
ANO	-10283
ajo	-10284
iet	-10285
rat	-10286
zed	-10287
▁4)	-10288
▁CU	-10289
▁If	-10290
▁UM	-10291
ROOM	-10292
come	-10293
orte	-10294
vens	-10295
ário	-10296
▁DOU	-10297
▁Dou	-10298
▁HIS	-10299
▁Leb	-10300
▁Lis	-10301
▁Rag	-10302
▁tec	-10303
andro	-10304
ities	-10305
çando	-10306
▁2003	-10307
▁Bray	-10308
▁CYMB	-10309
▁Carp	-10310
▁FEST	-10311
▁Jade	-10312
▁Levi	-10313
▁Limp	-10314
▁Nana	-10315
▁SWIM	-10316
▁THIS	-10317
▁army	-10318
▁hist	-10319
▁huge	-10320
▁palm	-10321
▁peso	-10322
▁qual	-10323
▁vlog	-10324
Donald	-10325
loring	-10326
▁Blast	-10327
▁Blood	-10328
▁Caden	-10329
▁Farms	-10330
▁Patio	-10331
▁Prune	-10332
▁Seven	-10333
▁Songs	-10334
▁Their	-10335
▁Ultra	-10336
▁WHEEL	-10337
▁Wrist	-10338
▁blind	-10339
▁japan	-10340
▁noise	-10341
▁walls	-10342
agement	-10343
▁Brooke	-10344
▁Caught	-10345
▁Elijah	-10346
▁Miguel	-10347
▁Mozart	-10348
▁Smelly	-10349
▁Xtreme	-10350
▁bricks	-10351
▁cuerda	-10352
▁rubiks	-10353
original	-10354
▁MASSAGE	-10355
▁Munster	-10356
▁Powered	-10357
▁Success	-10358
▁Swallow	-10359
▁aerobic	-10360
▁Daughter	-10361
▁Ensalada	-10362
▁Portrait	-10363
▁bathroom	-10364
▁lollipop	-10365
▁Discovery	-10366
▁Stephanie	-10367
▁Kettlebell	-10368
▁Percussion	-10369
▁Calculating	-10370
▁Conferences	-10371
AA	-10372
Ad	-10373
rs	-10374
ré	-10375
ti	-10376
сс	-10377
-23	-10378
ANK	-10379
ORC	-10380
dos	-10381
epy	-10382
sha	-10383
▁5,	-10384
2016	-10385
ENTE	-10386
noon	-10387
occo	-10388
oole	-10389
reat	-10390
vada	-10391
▁BAG	-10392
▁BOR	-10393
▁BOW	-10394
▁Dim	-10395
▁HAM	-10396
▁Jax	-10397
▁Kon	-10398
▁SEC	-10399
▁VAL	-10400
▁bay	-10401
▁maj	-10402
▁não	-10403
▁und	-10404
ATTLE	-10405
attan	-10406
▁0001	-10407
▁Arth	-10408
▁Boom	-10409
▁Folk	-10410
▁GOLD	-10411
▁Hits	-10412
▁Lash	-10413
▁REAL	-10414
▁ROLL	-10415
▁Rust	-10416
▁Seam	-10417
▁Stro	-10418
▁Vase	-10419
▁Zack	-10420
hedral	-10421
lasses	-10422
▁Adams	-10423
▁Adult	-10424
▁Album	-10425
▁Cedar	-10426
▁Crown	-10427
▁Curls	-10428
▁Fancy	-10429
▁Larry	-10430
▁Liner	-10431
▁Sunny	-10432
▁Tours	-10433
▁Walls	-10434
▁early	-10435
▁smash	-10436
▁Carrot	-10437
▁Fusion	-10438
▁Marina	-10439
▁REVIEW	-10440
▁Static	-10441
▁center	-10442
▁mixing	-10443
atherine	-10444
▁Cálculo	-10445
▁Máquina	-10446
▁bolinha	-10447
itzerland	-10448
▁Clearing	-10449
▁Detector	-10450
▁THROWING	-10451
▁Yourself	-10452
▁JUMPSTYLE	-10453
▁abseiling	-10454
▁descascar	-10455
▁Attachment	-10456
▁bartending	-10457
▁traditional	-10458
.8	-10459
NI	-10460
Tr	-10461
wh	-10462
им	-10463
▁क	-10464
Bar	-10465
ETS	-10466
RAM	-10467
Ski	-10468
cow	-10469
ema	-10470
phy	-10471
ulo	-10472
▁46	-10473
▁52	-10474
▁5:	-10475
▁6,	-10476
▁UT	-10477
▁pa	-10478
Down	-10479
aged	-10480
anka	-10481
ashi	-10482
enne	-10483
gary	-10484
icer	-10485
indi	-10486
omic	-10487
uket	-10488
vate	-10489
wick	-10490
▁135	-10491
▁ASS	-10492
▁Gon	-10493
▁HUR	-10494
▁Kaz	-10495
▁MAG	-10496
▁Paw	-10497
▁Pel	-10498
▁Sel	-10499
▁Tit	-10500
▁Tru	-10501
▁UPS	-10502
▁VOL	-10503
▁tub	-10504
▁wal	-10505
▁won	-10506
asons	-10507
ebook	-10508
eland	-10509
hythm	-10510
proof	-10511
▁Anne	-10512
▁Asia	-10513
▁Brid	-10514
▁Cuba	-10515
▁FOLD	-10516
▁Mong	-10517
▁NAIL	-10518
▁NASA	-10519
▁Neve	-10520
▁Nord	-10521
▁SHOE	-10522
▁Sofa	-10523
▁Swan	-10524
▁True	-10525
▁temp	-10526
sleigh	-10527
▁Angry	-10528
▁Everg	-10529
▁Hindi	-10530
▁Jenny	-10531
▁Maple	-10532
▁ROBOT	-10533
▁Torch	-10534
▁allig	-10535
▁brake	-10536
▁facil	-10537
▁globo	-10538
▁shuck	-10539
▁thick	-10540
▁today	-10541
▁Aerial	-10542
▁Audrey	-10543
▁Bright	-10544
▁Cutest	-10545
▁Direct	-10546
▁Moment	-10547
▁Motorc	-10548
▁Pretty	-10549
▁SCHOOL	-10550
▁Simply	-10551
▁Winery	-10552
▁circus	-10553
▁deadli	-10554
▁island	-10555
▁CHICKEN	-10556
▁Complex	-10557
▁Robotic	-10558
▁between	-10559
▁looking	-10560
▁piscina	-10561
▁Carnival	-10562
▁Caroline	-10563
▁Clipping	-10564
▁Savannah	-10565
▁Showcase	-10566
▁UNBOXING	-10567
▁argument	-10568
▁brothers	-10569
▁dominoes	-10570
▁tantrums	-10571
▁Bluetooth	-10572
▁Champions	-10573
▁Concealer	-10574
▁Eyelashes	-10575
▁Bobsledding	-10576
▁arrangement	-10577
42	-10578
MT	-10579
SO	-10580
ия	-10581
-21	-10582
/06	-10583
/22	-10584
Lap	-10585
nar	-10586
▁99	-10587
▁Gh	-10588
▁Hu	-10589
▁Va	-10590
▁av	-10591
▁if	-10592
ayla	-10593
vite	-10594
wear	-10595
▁160	-10596
▁CRO	-10597
▁HER	-10598
▁Hav	-10599
▁Jak	-10600
▁Lob	-10601
▁PED	-10602
▁SHE	-10603
▁Sri	-10604
▁mem	-10605
▁net	-10606
▁scr	-10607
▁val	-10608
astic	-10609
dence	-10610
smith	-10611
stery	-10612
▁Cups	-10613
▁Feel	-10614
▁Late	-10615
▁Shaw	-10616
▁Vers	-10617
▁YOGA	-10618
▁bees	-10619
▁roda	-10620
button	-10621
▁Berry	-10622
▁Brady	-10623
▁Candy	-10624
▁Choir	-10625
▁Lucky	-10626
▁Scalp	-10627
▁Shrub	-10628
▁Staff	-10629
▁Tahoe	-10630
▁Trial	-10631
▁argue	-10632
▁delic	-10633
▁muito	-10634
▁Asthma	-10635
▁Denver	-10636
▁Flauta	-10637
▁Rabbit	-10638
▁Region	-10639
▁Ribbon	-10640
▁Switch	-10641
▁Target	-10642
▁Tiling	-10643
▁acting	-10644
▁barrow	-10645
▁couple	-10646
▁health	-10647
▁indoor	-10648
▁sawing	-10649
Tutorial	-10650
▁Dunking	-10651
▁Theater	-10652
▁herding	-10653
▁EYEBROWS	-10654
▁Overview	-10655
▁machines	-10656
▁Brazilian	-10657
▁Delicious	-10658
▁Disassemb	-10659
▁Lettering	-10660
▁Swallower	-10661
▁Mozzarella	-10662
▁Prospecting	-10663
▁Chiropractic	-10664
▁professional	-10665
55	-10666
SL	-10667
TY	-10668
ên	-10669
▁Г	-10670
/03	-10671
/27	-10672
LEX	-10673
UGH	-10674
boa	-10675
bul	-10676
iwi	-10677
mao	-10678
ogo	-10679
reg	-10680
ses	-10681
ted	-10682
▁39	-10683
▁ER	-10684
▁Ft	-10685
▁JJ	-10686
▁OB	-10687
▁pc	-10688
High	-10689
burn	-10690
camp	-10691
eeds	-10692
▁Gul	-10693
▁Hab	-10694
▁MED	-10695
▁Sou	-10696
▁cru	-10697
▁fig	-10698
▁nep	-10699
▁raz	-10700
Lapse	-10701
jamin	-10702
▁100%	-10703
▁Away	-10704
▁FULL	-10705
▁Gene	-10706
▁JUGG	-10707
▁Pale	-10708
▁SLAP	-10709
▁Tape	-10710
▁Unic	-10711
▁edge	-10712
▁lips	-10713
▁text	-10714
▁vari	-10715
ograph	-10716
rowave	-10717
ummies	-10718
▁BRUSH	-10719
▁Bells	-10720
▁Bryce	-10721
▁Buddy	-10722
▁Flies	-10723
▁Gradu	-10724
▁Heads	-10725
▁Joint	-10726
▁Jonah	-10727
▁Miles	-10728
▁Parts	-10729
▁Shell	-10730
▁Yacht	-10731
▁clara	-10732
▁frame	-10733
▁gears	-10734
▁south	-10735
country	-10736
▁Divers	-10737
▁Mumbai	-10738
▁PLAYER	-10739
▁finals	-10740
▁indian	-10741
ilarious	-10742
▁Brewing	-10743
▁Captain	-10744
▁Trinity	-10745
▁Turkish	-10746
▁plastic	-10747
▁village	-10748
▁Sledding	-10749
▁Tomahawk	-10750
▁cortando	-10751
▁Billiards	-10752
▁Valentine	-10753
▁Waterford	-10754
▁Experiment	-10755
▁Extensions	-10756
▁contortion	-10757
▁Preparation	-10758
▁Entertainment	-10759
41	-10760
FR	-10761
ÓN	-10762
ат	-10763
об	-10764
▁q	-10765
▁Р	-10766
-24	-10767
.05	-10768
.06	-10769
CIL	-10770
IMA	-10771
Mag	-10772
ONA	-10773
gra	-10774
hee	-10775
ols	-10776
▁FO	-10777
▁JR	-10778
IZZA	-10779
STER	-10780
bove	-10781
ilia	-10782
inde	-10783
kart	-10784
mill	-10785
▁125	-10786
▁BAD	-10787
▁Clo	-10788
▁Coc	-10789
▁McG	-10790
▁NAT	-10791
▁Téc	-10792
▁dam	-10793
▁smo	-10794
doors	-10795
encer	-10796
hears	-10797
idade	-10798
isser	-10799
plete	-10800
▁2001	-10801
▁BASS	-10802
▁Brig	-10803
▁Curt	-10804
▁Dare	-10805
▁Duet	-10806
▁Kara	-10807
▁Lord	-10808
▁Mine	-10809
▁PAIN	-10810
▁Ruby	-10811
▁STEP	-10812
▁acro	-10813
▁anos	-10814
▁chef	-10815
▁http	-10816
▁west	-10817
entals	-10818
orting	-10819
▁Beats	-10820
▁Brett	-10821
▁Lilly	-10822
▁Nepal	-10823
▁Shawn	-10824
▁Spect	-10825
▁court	-10826
▁creek	-10827
▁model	-10828
▁prime	-10829
▁sauce	-10830
▁smart	-10831
ografia	-10832
▁Across	-10833
▁Bricks	-10834
▁Future	-10835
▁Kansas	-10836
▁Peanut	-10837
▁Peeler	-10838
▁Planet	-10839
▁SILENT	-10840
▁Sander	-10841
▁cymbal	-10842
▁laughs	-10843
▁BEATBOX	-10844
▁Roaster	-10845
▁Section	-10846
▁classic	-10847
▁dancers	-10848
▁product	-10849
▁shaping	-10850
▁testing	-10851
▁Benefits	-10852
▁Fountain	-10853
▁Heritage	-10854
▁Modified	-10855
▁Montreal	-10856
▁Overhand	-10857
▁Samantha	-10858
▁hardcore	-10859
▁Gatorland	-10860
▁Solutions	-10861
▁Waterfall	-10862
▁breakfast	-10863
▁Waterslide	-10864
▁swallowing	-10865
Ex	-10866
Me	-10867
We	-10868
cm	-10869
cr	-10870
fu	-10871
tv	-10872
vs	-10873
▁Ó	-10874
---	-10875
ERT	-10876
Eng	-10877
MOD	-10878
VEL	-10879
hop	-10880
kan	-10881
mal	-10882
obi	-10883
put	-10884
ugs	-10885
▁BW	-10886
▁Gw	-10887
▁KC	-10888
▁MJ	-10889
▁OH	-10890
▁Ts	-10891
▁XD	-10892
▁hi	-10893
2010	-10894
amba	-10895
bute	-10896
ecca	-10897
esco	-10898
lins	-10899
mers	-10900
raph	-10901
▁196	-10902
▁Fle	-10903
▁Kaw	-10904
▁Mol	-10905
▁Nan	-10906
▁Ott	-10907
▁Pon	-10908
▁Sag	-10909
▁Sop	-10910
▁cub	-10911
▁emb	-10912
▁sua	-10913
earch	-10914
esota	-10915
inals	-10916
leans	-10917
▁Blog	-10918
▁Cann	-10919
▁Hans	-10920
▁Inde	-10921
▁LIKE	-10922
▁Leah	-10923
▁Lett	-10924
▁Nike	-10925
▁Nova	-10926
▁PRES	-10927
▁Wand	-10928
▁dark	-10929
▁list	-10930
▁oven	-10931
▁rink	-10932
▁saut	-10933
asonic	-10934
ichael	-10935
▁Angle	-10936
▁Dicas	-10937
▁Linda	-10938
▁Mules	-10939
▁PARTE	-10940
▁SHUFF	-10941
▁Sofia	-10942
▁death	-10943
▁flies	-10944
▁split	-10945
ignment	-10946
▁Autumn	-10947
▁Dollar	-10948
▁Essent	-10949
▁Global	-10950
▁Graham	-10951
▁Jackie	-10952
▁Jayden	-10953
▁Mickey	-10954
▁Monica	-10955
▁Singer	-10956
▁Spiral	-10957
▁Trevor	-10958
▁Winged	-10959
▁asleep	-10960
▁engine	-10961
▁french	-10962
▁whites	-10963
BOARDING	-10964
▁Jasmine	-10965
▁Madness	-10966
▁Quality	-10967
▁aplicar	-10968
▁olhando	-10969
▁piccolo	-10970
▁sitting	-10971
▁Argument	-10972
▁Barefoot	-10973
▁Congress	-10974
▁Ensemble	-10975
▁Portable	-10976
▁Puncture	-10977
▁detector	-10978
▁Argentine	-10979
▁Recycling	-10980
▁alligator	-10981
▁Relaxation	-10982
▁beatboxing	-10983
▁underwater	-10984
▁Switzerland	-10985
▁Extinguishing	-10986
▁Contorcionismo	-10987
▁contorcionista	-10988
))	-10989
44	-10990
7.	-10991
DO	-10992
El	-10993
pl	-10994
ية	-10995
-22	-10996
/02	-10997
/23	-10998
Che	-10999
ERC	-11000
UBE	-11001
ahl	-11002
jab	-11003
kow	-11004
niz	-11005
pie	-11006
▁66	-11007
▁7,	-11008
▁85	-11009
▁Oz	-11010
▁RS	-11011
▁SD	-11012
▁ya	-11013
CHES	-11014
YCLE	-11015
earm	-11016
edas	-11017
esar	-11018
ivel	-11019
onia	-11020
ored	-11021
park	-11022
quer	-11023
quin	-11024
roit	-11025
umel	-11026
▁COS	-11027
▁Cad	-11028
▁Cai	-11029
▁Deg	-11030
▁Dip	-11031
▁Gib	-11032
▁Hub	-11033
▁MEG	-11034
▁SAM	-11035
▁Was	-11036
▁Wat	-11037
▁joy	-11038
▁mos	-11039
▁ren	-11040
▁sew	-11041
Board	-11042
adrez	-11043
cover	-11044
encia	-11045
istic	-11046
itute	-11047
pherd	-11048
rible	-11049
▁Bosu	-11050
▁CAKE	-11051
▁Dick	-11052
▁Drag	-11053
▁Lang	-11054
▁Near	-11055
▁Poly	-11056
▁Seth	-11057
▁Toes	-11058
▁cord	-11059
▁dest	-11060
▁lamb	-11061
▁vers	-11062
▁vert	-11063
AILING	-11064
Studio	-11065
folded	-11066
iantes	-11067
oodles	-11068
ternal	-11069
ulldog	-11070
▁CLASS	-11071
▁Derby	-11072
▁Idaho	-11073
▁Loose	-11074
▁Marco	-11075
▁Panel	-11076
▁Penny	-11077
▁Terry	-11078
▁Vídeo	-11079
▁WRONG	-11080
▁billi	-11081
▁carne	-11082
▁combo	-11083
▁ready	-11084
▁shift	-11085
▁twins	-11086
▁vinho	-11087
!!!!!!!	-11088
▁Almost	-11089
▁Amedia	-11090
▁Associ	-11091
▁BATTLE	-11092
▁Couple	-11093
▁Movers	-11094
▁Planer	-11095
▁Riffle	-11096
▁Teaser	-11097
▁Tomato	-11098
▁animal	-11099
▁caving	-11100
▁mother	-11101
▁tumble	-11102
▁Calgary	-11103
▁Islands	-11104
▁Journey	-11105
▁WASHING	-11106
▁monster	-11107
▁quickly	-11108
▁Fantoche	-11109
▁Photocop	-11110
▁Regional	-11111
▁Surprise	-11112
▁Microscop	-11113
▁Extinguish	-11114
▁Instrument	-11115
▁Headbutting	-11116
),	-11117
UK	-11118
oa	-11119
/24	-11120
ECK	-11121
rit	-11122
uga	-11123
zel	-11124
▁64	-11125
▁DU	-11126
▁из	-11127
Hand	-11128
INES	-11129
foli	-11130
iors	-11131
odka	-11132
oken	-11133
▁002	-11134
▁BEN	-11135
▁BUT	-11136
▁Din	-11137
▁Has	-11138
▁Haz	-11139
▁Rey	-11140
▁SUN	-11141
▁Sah	-11142
▁Spe	-11143
▁TRX	-11144
▁Uni	-11145
▁sky	-11146
▁web	-11147
ended	-11148
ishop	-11149
kward	-11150
ocado	-11151
wless	-11152
▁Alab	-11153
▁CAMP	-11154
▁Gate	-11155
▁Hawk	-11156
▁Kang	-11157
▁Magn	-11158
▁Neil	-11159
▁Rasp	-11160
▁SHAR	-11161
▁Sony	-11162
▁TOUR	-11163
▁Toys	-11164
▁Wait	-11165
▁bear	-11166
▁hang	-11167
▁mode	-11168
▁used	-11169
▁wife	-11170
▁CROSS	-11171
▁Latin	-11172
▁Olive	-11173
▁Pedro	-11174
▁Rally	-11175
▁Rocky	-11176
▁Solid	-11177
▁Takes	-11178
▁steam	-11179
▁unhas	-11180
lection	-11181
▁Attemp	-11182
▁Bailey	-11183
▁Donuts	-11184
▁Fluffy	-11185
▁Gentle	-11186
▁Mitche	-11187
▁Placid	-11188
▁RIDING	-11189
▁Rubiks	-11190
▁STREET	-11191
▁Samuel	-11192
▁WAXING	-11193
▁colour	-11194
▁easter	-11195
▁fabric	-11196
▁gargle	-11197
▁sander	-11198
▁Barista	-11199
▁Develop	-11200
▁Fighter	-11201
▁Journal	-11202
▁Scallop	-11203
▁Spencer	-11204
▁Support	-11205
▁comment	-11206
▁Anderson	-11207
▁Christop	-11208
▁TRAINING	-11209
▁Vaulting	-11210
▁cachorro	-11211
▁question	-11212
▁Celebrate	-11213
▁perfectly	-11214
▁Technology	-11215
▁TransWorld	-11216
▁restaurant	-11217
▁Documentary	-11218
▁Woodburning	-11219
▁Interpreting	-11220
.)	-11221
TW	-11222
óg	-11223
ля	-11224
▁ع	-11225
Bas	-11226
ESH	-11227
ORM	-11228
eks	-11229
iko	-11230
max	-11231
umi	-11232
▁47	-11233
▁49	-11234
▁5)	-11235
▁TK	-11236
▁si	-11237
2011	-11238
ALLY	-11239
asia	-11240
jian	-11241
pson	-11242
rage	-11243
▁185	-11244
▁600	-11245
▁AER	-11246
▁CHI	-11247
▁Cir	-11248
▁Ltd	-11249
▁Nag	-11250
▁Pip	-11251
▁SOC	-11252
▁Sul	-11253
▁Tee	-11254
▁alb	-11255
▁dub	-11256
▁fer	-11257
▁non	-11258
.2011	-11259
ADING	-11260
ILLOW	-11261
eezes	-11262
erial	-11263
rawls	-11264
▁Bart	-11265
▁Blan	-11266
▁Jean	-11267
▁Kung	-11268
▁NCAA	-11269
▁Next	-11270
▁Root	-11271
▁Tiff	-11272
▁Vent	-11273
▁bebe	-11274
▁copy	-11275
▁dans	-11276
▁dust	-11277
▁loom	-11278
▁many	-11279
▁pent	-11280
▁pied	-11281
▁rose	-11282
ampton	-11283
atorio	-11284
▁Brent	-11285
▁Bruno	-11286
▁Chees	-11287
▁Clara	-11288
▁Crane	-11289
▁Dozer	-11290
▁Exhib	-11291
▁Radio	-11292
▁Roses	-11293
▁Stunt	-11294
▁promo	-11295
▁upper	-11296
estañas	-11297
▁Alexis	-11298
▁Amelia	-11299
▁Bamboo	-11300
▁Galore	-11301
▁Howard	-11302
▁Pushup	-11303
▁acorda	-11304
▁butter	-11305
▁donuts	-11306
▁meters	-11307
▁pastry	-11308
▁sports	-11309
▁Bowline	-11310
▁Catcher	-11311
▁Jogando	-11312
▁Premier	-11313
▁Slicing	-11314
▁Solving	-11315
▁forward	-11316
▁recital	-11317
▁Medieval	-11318
▁Tactical	-11319
▁downhill	-11320
▁vaulting	-11321
▁Cathedral	-11322
▁Firefight	-11323
▁Handstands	-11324
▁Progression	-11325
▁basketmaking	-11326
KG	-11327
Ph	-11328
YA	-11329
tr	-11330
▁Á	-11331
▁з	-11332
▁ب	-11333
▁—	-11334
-28	-11335
CAR	-11336
Dye	-11337
ORK	-11338
TRA	-11339
mia	-11340
org	-11341
rup	-11342
udi	-11343
▁8,	-11344
▁KO	-11345
▁QB	-11346
▁Tv	-11347
▁ja	-11348
▁по	-11349
Full	-11350
acey	-11351
ayan	-11352
iros	-11353
rado	-11354
▁220	-11355
▁Bun	-11356
▁Ell	-11357
▁MIC	-11358
▁REM	-11359
▁blo	-11360
▁hap	-11361
▁mét	-11362
ettin	-11363
ombie	-11364
stown	-11365
▁CAST	-11366
▁Cher	-11367
▁Grey	-11368
▁Loss	-11369
▁Mira	-11370
▁Rand	-11371
▁SPRA	-11372
▁STUD	-11373
▁Slim	-11374
▁Spit	-11375
▁Summ	-11376
▁Virt	-11377
▁arte	-11378
▁hack	-11379
▁mike	-11380
▁oper	-11381
▁same	-11382
▁usar	-11383
ACKING	-11384
etales	-11385
ricane	-11386
▁2012)	-11387
▁Horiz	-11388
▁Mango	-11389
▁Moore	-11390
▁PIZZA	-11391
▁borax	-11392
▁flint	-11393
▁marsh	-11394
▁parts	-11395
▁turns	-11396
hearsal	-11397
▁Angela	-11398
▁Barrel	-11399
▁Dennis	-11400
▁Donald	-11401
▁Isaiah	-11402
▁Sponge	-11403
▁Turtle	-11404
▁Xavier	-11405
▁braids	-11406
▁custom	-11407
▁purple	-11408
▁screen	-11409
▁strong	-11410
visation	-11411
▁Burgers	-11412
▁CUTTING	-11413
▁Chelsea	-11414
▁Dominos	-11415
▁Montana	-11416
▁Quartet	-11417
▁Turning	-11418
▁Warrior	-11419
▁baralho	-11420
▁swallow	-11421
▁Downtown	-11422
▁McDonald	-11423
▁Wallenda	-11424
▁fantoche	-11425
▁scallops	-11426
▁stomping	-11427
▁correctly	-11428
▁stainless	-11429
▁performing	-11430
▁Reflexology	-11431
▁celebration	-11432
▁headbutting	-11433
▁refrigerator	-11434
▁contorcionismo	-11435
86	-11436
NS	-11437
ku	-11438
ло	-11439
ATA	-11440
AUT	-11441
GAN	-11442
ITA	-11443
ROP	-11444
ben	-11445
bla	-11446
cio	-11447
edo	-11448
ept	-11449
mic	-11450
nik	-11451
tte	-11452
uez	-11453
uka	-11454
yer	-11455
▁5-	-11456
▁EC	-11457
▁MB	-11458
▁Ms	-11459
▁OL	-11460
▁bu	-11461
▁ta	-11462
▁ко	-11463
ICAN	-11464
OUSE	-11465
care	-11466
cion	-11467
ebol	-11468
ined	-11469
iver	-11470
long	-11471
rime	-11472
▁1/4	-11473
▁Did	-11474
▁Ela	-11475
▁GUM	-11476
▁Kan	-11477
▁Kob	-11478
▁Mis	-11479
▁NOV	-11480
▁Rig	-11481
▁Sue	-11482
▁TEN	-11483
▁Yog	-11484
▁ann	-11485
▁boo	-11486
▁nov	-11487
▁pas	-11488
▁why	-11489
alina	-11490
aukee	-11491
onial	-11492
point	-11493
rames	-11494
rated	-11495
ulous	-11496
▁Benn	-11497
▁Budd	-11498
▁CHAR	-11499
▁LESS	-11500
▁Mile	-11501
▁Reed	-11502
▁Tele	-11503
▁Ward	-11504
▁bags	-11505
▁both	-11506
▁cafe	-11507
▁dama	-11508
active	-11509
▁Ariel	-11510
▁Beast	-11511
▁Bicep	-11512
▁Manic	-11513
▁Monte	-11514
▁Remix	-11515
▁Rings	-11516
▁Shang	-11517
▁Teddy	-11518
▁Trump	-11519
▁areia	-11520
▁ideas	-11521
▁india	-11522
▁pages	-11523
▁spoon	-11524
▁yards	-11525
cheting	-11526
ulation	-11527
▁Cartas	-11528
▁Dakota	-11529
▁Fundam	-11530
▁Greece	-11531
▁Hudson	-11532
▁Magnet	-11533
▁Pepper	-11534
▁Phuket	-11535
▁breath	-11536
▁dormir	-11537
▁lashes	-11538
▁mobile	-11539
ollywood	-11540
▁CYMBALS	-11541
▁Roasted	-11542
▁Shampoo	-11543
▁batting	-11544
▁mahjong	-11545
▁triceps	-11546
ification	-11547
▁Auctione	-11548
▁Colombia	-11549
▁Hamilton	-11550
▁Starting	-11551
▁Vacation	-11552
▁pregnant	-11553
▁smoothie	-11554
▁yourself	-11555
▁Astronaut	-11556
▁Dangerous	-11557
▁Mountains	-11558
▁Receiving	-11559
▁WRESTLING	-11560
▁attempting	-11561
▁Revolutionary	-11562
89	-11563
DY	-11564
TF	-11565
YL	-11566
ам	-11567
/21	-11568
ASE	-11569
Col	-11570
MEL	-11571
agu	-11572
gua	-11573
iao	-11574
▁Dé	-11575
▁IC	-11576
▁JP	-11577
▁MV	-11578
▁Ou	-11579
▁YM	-11580
▁Ya	-11581
ADOR	-11582
Cómo	-11583
ENTS	-11584
ablo	-11585
book	-11586
edom	-11587
horn	-11588
icky	-11589
inta	-11590
uded	-11591
▁'09	-11592
▁130	-11593
▁2.0	-11594
▁APR	-11595
▁Ala	-11596
▁Asc	-11597
▁Eva	-11598
▁Gan	-11599
▁Kap	-11600
▁Led	-11601
▁Nig	-11602
▁QUE	-11603
▁job	-11604
▁pés	-11605
▁rug	-11606
▁Как	-11607
antic	-11608
ifter	-11609
▁AMER	-11610
▁Alli	-11611
▁Crow	-11612
▁Erik	-11613
▁Glas	-11614
▁Horn	-11615
▁Hour	-11616
▁Mate	-11617
▁Muay	-11618
▁Puff	-11619
▁Seal	-11620
▁Tang	-11621
▁Vinc	-11622
▁buck	-11623
▁feel	-11624
▁ther	-11625
erself	-11626
illian	-11627
litter	-11628
manent	-11629
vanced	-11630
▁2013)	-11631
▁Belle	-11632
▁Bonus	-11633
▁Brigh	-11634
▁DISCO	-11635
▁Jenna	-11636
▁Lakes	-11637
▁Liver	-11638
▁METAL	-11639
▁Metro	-11640
▁Perry	-11641
▁Ready	-11642
▁Roger	-11643
▁SLIME	-11644
▁Sammy	-11645
▁Silly	-11646
▁forma	-11647
▁pound	-11648
▁socks	-11649
▁strip	-11650
▁stunt	-11651
blowing	-11652
borough	-11653
carving	-11654
ildjian	-11655
ropical	-11656
▁Canvas	-11657
▁Crispy	-11658
▁Invite	-11659
▁Morris	-11660
▁Nelson	-11661
▁PILLOW	-11662
▁Receta	-11663
▁Rubber	-11664
▁Safari	-11665
▁answer	-11666
▁fidget	-11667
▁frozen	-11668
▁petted	-11669
▁skates	-11670
▁things	-11671
▁óculos	-11672
▁Airless	-11673
▁Braided	-11674
▁Dubstep	-11675
▁Jugando	-11676
▁Liberty	-11677
▁Scissor	-11678
▁Stewart	-11679
▁answers	-11680
▁teacher	-11681
▁Aquarium	-11682
▁Benjamin	-11683
▁Courtney	-11684
▁Delivery	-11685
▁Reporter	-11686
▁Waterski	-11687
▁american	-11688
▁Stitching	-11689
▁finishing	-11690
▁headbutts	-11691
▁Meditation	-11692
▁Flexibility	-11693
▁Presentation	-11694
GO	-11695
KK	-11696
VA	-11697
WC	-11698
cy	-11699
ре	-11700
▁Н	-11701
▁Ч	-11702
▁ت	-11703
300	-11704
IRO	-11705
aba	-11706
arr	-11707
bey	-11708
cos	-11709
dez	-11710
ega	-11711
fps	-11712
mie	-11713
nia	-11714
vos	-11715
▁5.	-11716
▁Dh	-11717
▁HU	-11718
▁SJ	-11719
▁ha	-11720
Life	-11721
boro	-11722
heim	-11723
ichi	-11724
inte	-11725
iral	-11726
lets	-11727
lett	-11728
onna	-11729
rano	-11730
roat	-11731
unts	-11732
▁195	-11733
▁ACC	-11734
▁Aim	-11735
▁Asp	-11736
▁BOY	-11737
▁CPU	-11738
▁FEU	-11739
▁FRE	-11740
▁Gio	-11741
▁PIN	-11742
▁Rav	-11743
▁SEG	-11744
▁Vit	-11745
▁bul	-11746
▁led	-11747
▁mex	-11748
▁nas	-11749
▁tow	-11750
antes	-11751
gency	-11752
inium	-11753
oured	-11754
ships	-11755
▁Bour	-11756
▁Corp	-11757
▁DEMO	-11758
▁Edit	-11759
▁Fund	-11760
▁Gang	-11761
▁LIFE	-11762
▁Mans	-11763
▁Pist	-11764
▁Pony	-11765
▁bois	-11766
▁coat	-11767
▁glue	-11768
▁hoop	-11769
▁town	-11770
▁vict	-11771
▁Clips	-11772
▁Drake	-11773
▁Fiber	-11774
▁Idiot	-11775
▁Punto	-11776
▁Types	-11777
▁chris	-11778
▁guard	-11779
▁heads	-11780
▁hotel	-11781
▁rings	-11782
▁storm	-11783
ossible	-11784
restler	-11785
▁Bucket	-11786
▁Compet	-11787
▁Energy	-11788
▁Galaxy	-11789
▁Gracie	-11790
▁Impact	-11791
▁Landon	-11792
▁Riders	-11793
▁Salada	-11794
▁colors	-11795
▁expert	-11796
▁globos	-11797
▁public	-11798
▁stupid	-11799
complete	-11800
▁Classes	-11801
▁Landing	-11802
▁Orleans	-11803
▁PERFECT	-11804
▁caseiro	-11805
▁simples	-11806
▁thrower	-11807
▁Columbia	-11808
▁Isabella	-11809
▁Magazine	-11810
▁Massagem	-11811
▁Mitchell	-11812
▁calcular	-11813
▁firework	-11814
▁Highlight	-11815
▁Perfectly	-11816
▁doughnuts	-11817
▁Adjustable	-11818
▁Straighten	-11819
▁Association	-11820
▁Combination	-11821
#1	-11822
rt	-11823
(3)	-11824
/04	-11825
/28	-11826
All	-11827
MTS	-11828
dor	-11829
jan	-11830
tim	-11831
▁PD	-11832
▁Pu	-11833
▁TS	-11834
▁Ug	-11835
▁il	-11836
Best	-11837
airy	-11838
ases	-11839
asta	-11840
atsu	-11841
easy	-11842
guin	-11843
inge	-11844
maid	-11845
olls	-11846
sson	-11847
vine	-11848
▁BUB	-11849
▁Bot	-11850
▁Gat	-11851
▁LOU	-11852
▁Tak	-11853
▁Tat	-11854
▁din	-11855
▁sus	-11856
▁via	-11857
ALLOW	-11858
ianna	-11859
itted	-11860
orded	-11861
ounge	-11862
▁Bolo	-11863
▁Bris	-11864
▁Cali	-11865
▁Guil	-11866
▁IRON	-11867
▁Lead	-11868
▁Mars	-11869
▁Peak	-11870
▁Rink	-11871
▁SLOW	-11872
▁Site	-11873
▁Trio	-11874
▁Vibr	-11875
▁Wade	-11876
▁shit	-11877
▁tank	-11878
arison	-11879
dening	-11880
itarod	-11881
styles	-11882
▁Cooks	-11883
▁Drama	-11884
▁Elise	-11885
▁Gorge	-11886
▁Jewel	-11887
▁Maddy	-11888
▁Nolan	-11889
▁Screw	-11890
▁autom	-11891
▁clear	-11892
▁instr	-11893
▁razor	-11894
▁waves	-11895
achting	-11896
isfying	-11897
mingham	-11898
▁ARGENT	-11899
▁BOTTLE	-11900
▁Carson	-11901
▁Maggie	-11902
▁Primer	-11903
▁Relays	-11904
▁Shadow	-11905
▁Stella	-11906
▁cement	-11907
▁junior	-11908
▁update	-11909
▁Beijing	-11910
▁CONTEST	-11911
▁FISHING	-11912
▁Lullaby	-11913
▁Napkins	-11914
▁Premium	-11915
▁Roberts	-11916
▁Scratch	-11917
▁Sisters	-11918
▁Stadium	-11919
▁binding	-11920
▁college	-11921
▁puppets	-11922
▁youtube	-11923
▁Audition	-11924
▁Danielle	-11925
▁Earrings	-11926
▁Hurdlers	-11927
▁JUGGLING	-11928
▁Pumpkins	-11929
▁Security	-11930
▁Suitcase	-11931
▁Thompson	-11932
▁Watercol	-11933
▁interior	-11934
▁progress	-11935
▁Barbeques	-11936
▁Caribbean	-11937
▁Minnesota	-11938
▁vegetable	-11939
▁extinguishing	-11940
EK	-11941
Fr	-11942
NT	-11943
▁ف	-11944
洗腳	-11945
/26	-11946
ITI	-11947
ITT	-11948
bye	-11949
dem	-11950
dig	-11951
iba	-11952
law	-11953
lio	-11954
shi	-11955
▁MK	-11956
▁OK	-11957
▁RM	-11958
ENCE	-11959
IPES	-11960
ania	-11961
ktop	-11962
rend	-11963
resa	-11964
umbo	-11965
▁105	-11966
▁Amp	-11967
▁Gos	-11968
▁HOC	-11969
▁Hem	-11970
▁IMP	-11971
▁Lak	-11972
▁Liv	-11973
▁Mrs	-11974
▁PET	-11975
▁Psy	-11976
▁Ran	-11977
▁Sap	-11978
▁USB	-11979
▁mer	-11980
▁pul	-11981
▁raw	-11982
▁sat	-11983
ATTOO	-11984
Final	-11985
avers	-11986
idden	-11987
inois	-11988
▁1996	-11989
▁Cage	-11990
▁Casc	-11991
▁FALL	-11992
▁Host	-11993
▁POOL	-11994
▁Pant	-11995
▁SIMP	-11996
▁Shim	-11997
▁Than	-11998
▁Want	-11999
▁auto	-12000
▁crew	-12001
▁flag	-12002
▁mask	-12003
▁quad	-12004
▁suit	-12005
ESSION	-12006
crease	-12007
ducing	-12008
lacier	-12009
waukee	-12010
▁Artes	-12011
▁BUILD	-12012
▁Brist	-12013
▁FLUTE	-12014
▁Flips	-12015
▁Focus	-12016
▁Frost	-12017
▁HOVER	-12018
▁MONEY	-12019
▁Paige	-12020
▁Piper	-12021
▁Randy	-12022
▁Rugby	-12023
▁Scale	-12024
▁Tampa	-12025
▁dryer	-12026
▁massa	-12027
▁minha	-12028
▁wants	-12029
▁worst	-12030
▁Arthur	-12031
▁Cooked	-12032
▁Dealer	-12033
▁Finale	-12034
▁Gaming	-12035
▁Grapes	-12036
▁Greens	-12037
▁Handle	-12038
▁Harbor	-12039
▁Hayden	-12040
▁Madrid	-12041
▁Melody	-12042
▁Onions	-12043
▁Scream	-12044
▁Shower	-12045
▁Sticks	-12046
▁Swings	-12047
▁TATTOO	-12048
▁Tribal	-12049
▁archae	-12050
▁attack	-12051
▁chisel	-12052
▁Buffalo	-12053
▁Connect	-12054
▁Cozumel	-12055
▁Dowland	-12056
▁Finland	-12057
▁Groomer	-12058
▁Helping	-12059
▁Kennedy	-12060
▁Puzzles	-12061
▁Receita	-12062
▁Ricardo	-12063
▁Someone	-12064
▁Styling	-12065
▁Tristan	-12066
▁Victory	-12067
▁colocar	-12068
▁esteira	-12069
▁problem	-12070
▁tagging	-12071
▁tickled	-12072
▁tobacco	-12073
▁Pulldown	-12074
▁Solution	-12075
▁Zildjian	-12076
▁applying	-12077
▁original	-12078
▁Treatment	-12079
▁Everglades	-12080
▁racquetball	-12081
)-	-12082
By	-12083
CK	-12084
UA	-12085
zc	-12086
КА	-12087
ле	-12088
าร	-12089
▁É	-12090
ERN	-12091
One	-12092
PAR	-12093
VIS	-12094
aci	-12095
arf	-12096
but	-12097
esc	-12098
iac	-12099
rah	-12100
rea	-12101
▁44	-12102
▁6'	-12103
▁JU	-12104
▁KL	-12105
▁LC	-12106
▁MR	-12107
Cont	-12108
Line	-12109
Walk	-12110
Yoga	-12111
alty	-12112
bane	-12113
cles	-12114
enda	-12115
othy	-12116
uten	-12117
zers	-12118
▁1/3	-12119
▁Ave	-12120
▁COP	-12121
▁Div	-12122
▁MIG	-12123
▁Pod	-12124
▁SON	-12125
▁Sak	-12126
▁Stu	-12127
▁TEX	-12128
▁Wiz	-12129
▁cho	-12130
▁feb	-12131
▁nos	-12132
▁pão	-12133
Clean	-12134
apers	-12135
funny	-12136
otted	-12137
stock	-12138
uctor	-12139
▁1998	-12140
▁Cara	-12141
▁JACK	-12142
▁LEGS	-12143
▁Manh	-12144
▁Nurs	-12145
▁PLAN	-12146
▁Page	-12147
▁Pere	-12148
▁Proj	-12149
▁Skip	-12150
▁Symp	-12151
▁Wins	-12152
▁cash	-12153
▁come	-12154
▁fork	-12155
▁hall	-12156
▁jazz	-12157
aitlyn	-12158
cedure	-12159
chicha	-12160
ourmet	-12161
planes	-12162
▁Freer	-12163
▁Spoon	-12164
▁Torre	-12165
▁boots	-12166
▁dirty	-12167
▁lunch	-12168
▁novia	-12169
iquette	-12170
ylinder	-12171
▁Blonde	-12172
▁Cotton	-12173
▁Garlic	-12174
▁Harper	-12175
▁Killer	-12176
▁Launch	-12177
▁Paraly	-12178
▁Plates	-12179
▁cooked	-12180
▁pushed	-12181
▁silver	-12182
▁Granite	-12183
▁Hanging	-12184
▁Madeira	-12185
▁Tossing	-12186
▁landing	-12187
▁Applause	-12188
▁Coaching	-12189
▁Fernando	-12190
▁Funniest	-12191
▁Harrison	-12192
▁Jamaican	-12193
▁STRAIGHT	-12194
▁Sidekick	-12195
▁enchendo	-12196
▁enjoying	-12197
▁handling	-12198
▁ultimate	-12199
▁Exploring	-12200
▁Whittling	-12201
▁arranging	-12202
▁eyelashes	-12203
▁surfboard	-12204
▁Resistance	-12205
JO	-12206
lu	-12207
ÇA	-12208
ês	-12209
ان	-12210
▁ر	-12211
IPP	-12212
OKE	-12213
SON	-12214
Squ	-12215
ady	-12216
cup	-12217
gow	-12218
iar	-12219
iat	-12220
iri	-12221
jay	-12222
mad	-12223
peg	-12224
▁KB	-12225
▁ut	-12226
ccup	-12227
dell	-12228
game	-12229
ishi	-12230
show	-12231
stop	-12232
▁16,	-12233
▁2/3	-12234
▁BMX	-12235
▁Bin	-12236
▁Bog	-12237
▁CAB	-12238
▁Dup	-12239
▁JUN	-12240
▁MEN	-12241
▁Mes	-12242
▁São	-12243
▁TIG	-12244
▁idi	-12245
▁nam	-12246
▁ton	-12247
/2017	-12248
ctors	-12249
icans	-12250
inish	-12251
istry	-12252
ontal	-12253
rador	-12254
rique	-12255
sburg	-12256
▁Adri	-12257
▁Cham	-12258
▁Chin	-12259
▁GOPR	-12260
▁Hive	-12261
▁Jude	-12262
▁Luca	-12263
▁NACH	-12264
▁Nina	-12265
▁Tuna	-12266
▁Vida	-12267
▁coco	-12268
▁prin	-12269
▁relo	-12270
▁BEARD	-12271
▁Clown	-12272
▁Diana	-12273
▁GIRLS	-12274
▁Helen	-12275
▁INTER	-12276
▁MACAR	-12277
▁Slams	-12278
▁Stern	-12279
▁Wales	-12280
▁grape	-12281
▁never	-12282
▁stuck	-12283
ctional	-12284
▁Arabic	-12285
▁Combat	-12286
▁Conser	-12287
▁Learns	-12288
▁Moscow	-12289
▁Philip	-12290
▁Slides	-12291
▁Unique	-12292
▁casino	-12293
▁felted	-12294
▁onions	-12295
▁palmas	-12296
▁report	-12297
anchillo	-12298
athering	-12299
▁Biggest	-12300
▁Blowdry	-12301
▁Rollers	-12302
▁herself	-12303
▁Flawless	-12304
▁Iditarod	-12305
▁Reaction	-12306
▁Underarm	-12307
▁Bobsleigh	-12308
▁Craftsman	-12309
▁tobogganing	-12310
▁Arrangements	-12311
▁cheerleading	-12312
▁shuffleboard	-12313
9.	-12314
MY	-12315
SD	-12316
rí	-12317
ли	-12318
ング	-12319
-29	-12320
/25	-12321
ARY	-12322
ELA	-12323
ESP	-12324
IDA	-12325
Int	-12326
MON	-12327
RAF	-12328
rav	-12329
▁54	-12330
▁56	-12331
▁FA	-12332
▁JV	-12333
▁Um	-12334
▁ru	-12335
With	-12336
aped	-12337
etas	-12338
full	-12339
idos	-12340
jerc	-12341
reak	-12342
rida	-12343
uble	-12344
uevo	-12345
zech	-12346
▁12,	-12347
▁BOX	-12348
▁EXC	-12349
▁FAZ	-12350
▁Len	-12351
▁MOD	-12352
▁Mum	-12353
▁PIT	-12354
▁POT	-12355
▁PSY	-12356
▁ROD	-12357
▁SEE	-12358
▁SET	-12359
▁SPE	-12360
▁Ske	-12361
▁TAI	-12362
▁Tou	-12363
▁bot	-12364
▁bou	-12365
▁few	-12366
▁six	-12367
Black	-12368
agger	-12369
kemon	-12370
lings	-12371
sport	-12372
world	-12373
▁1990	-12374
▁Aven	-12375
▁BAIL	-12376
▁Bait	-12377
▁CLUB	-12378
▁Café	-12379
▁Conc	-12380
▁Cone	-12381
▁Dale	-12382
▁Ferr	-12383
▁Frog	-12384
▁LOVE	-12385
▁Navy	-12386
▁Path	-12387
▁Pros	-12388
▁Skil	-12389
▁Soap	-12390
▁Tiny	-12391
▁YMCA	-12392
▁find	-12393
▁josh	-12394
▁mala	-12395
▁mort	-12396
▁tune	-12397
▁xbox	-12398
UCTION	-12399
basket	-12400
iraffe	-12401
otters	-12402
terior	-12403
▁Ankle	-12404
▁Brass	-12405
▁Gongs	-12406
▁Mania	-12407
▁POWER	-12408
▁Sings	-12409
▁Strap	-12410
▁Susan	-12411
▁dream	-12412
▁gator	-12413
.......	-12414
▁Alicia	-12415
▁Prague	-12416
▁Screen	-12417
▁Suzuki	-12418
▁Tissue	-12419
▁Wright	-12420
▁dobrar	-12421
▁flight	-12422
▁handle	-12423
▁intern	-12424
▁primer	-12425
▁shoots	-12426
▁Buffing	-12427
▁Chapter	-12428
▁Library	-12429
▁Shining	-12430
▁boracay	-12431
▁grandpa	-12432
▁someone	-12433
▁CLIMBING	-12434
▁Favorite	-12435
▁Filipino	-12436
▁Marshall	-12437
▁Sequence	-12438
▁business	-12439
▁shouting	-12440
▁withdraw	-12441
▁Birmingham	-12442
▁girlfriend	-12443
▁pyrography	-12444
▁Christopher	-12445
▁Interpreter	-12446
SM	-12447
TT	-12448
tz	-12449
én	-12450
éo	-12451
ús	-12452
GET	-12453
Ups	-12454
You	-12455
asi	-12456
ibu	-12457
mat	-12458
mos	-12459
nan	-12460
omo	-12461
ryn	-12462
usa	-12463
▁Eb	-12464
▁GC	-12465
▁HO	-12466
▁IG	-12467
▁JE	-12468
▁LO	-12469
▁TJ	-12470
▁Ul	-12471
▁WC	-12472
▁Yu	-12473
▁hy	-12474
▁nó	-12475
▁pu	-12476
GING	-12477
Live	-12478
Slow	-12479
acha	-12480
anto	-12481
boys	-12482
gant	-12483
gica	-12484
lake	-12485
lits	-12486
prus	-12487
▁21,	-12488
▁ARR	-12489
▁Ask	-12490
▁BUS	-12491
▁Bac	-12492
▁Fis	-12493
▁IPC	-12494
▁ISS	-12495
▁MAL	-12496
▁Pey	-12497
▁RAW	-12498
▁RUN	-12499
▁Rid	-12500
▁ast	-12501
▁mam	-12502
.2010	-12503
ACION	-12504
ahaha	-12505
amics	-12506
essor	-12507
ftime	-12508
hetto	-12509
iners	-12510
issan	-12511
mpits	-12512
rella	-12513
▁Bebe	-12514
▁Dani	-12515
▁Hoop	-12516
▁Karl	-12517
▁Lips	-12518
▁Sumo	-12519
▁buff	-12520
▁next	-12521
▁rear	-12522
▁site	-12523
asters	-12524
endant	-12525
eonato	-12526
sticks	-12527
▁Baked	-12528
▁Balle	-12529
▁Blown	-12530
▁Delta	-12531
▁Devon	-12532
▁Gabby	-12533
▁Layer	-12534
▁Lunch	-12535
▁MUSIC	-12536
▁Nikki	-12537
▁SALAD	-12538
▁Shows	-12539
▁Singh	-12540
▁Voice	-12541
▁jugar	-12542
▁knots	-12543
▁lolly	-12544
▁major	-12545
▁mount	-12546
▁mundo	-12547
▁yacht	-12548
leasing	-12549
▁Barber	-12550
▁Beaded	-12551
▁Bender	-12552
▁Border	-12553
▁HOCKEY	-12554
▁LESSON	-12555
▁Lights	-12556
▁Regina	-12557
▁Sprint	-12558
▁Stefan	-12559
▁Strike	-12560
▁Winner	-12561
▁father	-12562
▁number	-12563
▁Avocado	-12564
▁Cousins	-12565
▁Detroit	-12566
▁Finding	-12567
▁Instant	-12568
▁Meeting	-12569
▁Musical	-12570
▁Officer	-12571
▁Orchard	-12572
▁Parking	-12573
▁Quickly	-12574
▁WORKOUT	-12575
▁bateria	-12576
▁padlock	-12577
▁Arrested	-12578
▁Discover	-12579
▁Portugal	-12580
▁Richmond	-12581
▁aluminum	-12582
▁Hamstring	-12583
▁Hurricane	-12584
▁Institute	-12585
▁lawnmower	-12586
▁Elementary	-12587
▁adjustment	-12588
▁aprendendo	-12589
▁salchichas	-12590
▁Conditioning	-12591
NO	-12592
PD	-12593
Pr	-12594
Tw	-12595
WN	-12596
fo	-12597
mx	-12598
si	-12599
ÑA	-12600
▁đ	-12601
Can	-12602
Fun	-12603
IRT	-12604
aru	-12605
ihl	-12606
kah	-12607
oba	-12608
sse	-12609
tit	-12610
▁41	-12611
▁63	-12612
▁JC	-12613
▁RJ	-12614
▁WV	-12615
▁bb	-12616
▁ko	-12617
▁wr	-12618
Long	-12619
Tech	-12620
afio	-12621
alla	-12622
fona	-12623
ilee	-12624
iple	-12625
lift	-12626
onta	-12627
ouri	-12628
rich	-12629
utal	-12630
utor	-12631
▁350	-12632
▁DSC	-12633
▁Kry	-12634
▁Luk	-12635
▁Pub	-12636
▁Rah	-12637
▁Roo	-12638
▁SEX	-12639
▁WWE	-12640
▁abr	-12641
▁ble	-12642
▁etc	-12643
▁joe	-12644
▁jon	-12645
▁kne	-12646
illes	-12647
ivado	-12648
orary	-12649
tless	-12650
▁1999	-12651
▁Cath	-12652
▁Chat	-12653
▁LEAR	-12654
▁Lanc	-12655
▁Mane	-12656
▁Mein	-12657
▁Rail	-12658
▁Reve	-12659
▁TECH	-12660
▁TIPS	-12661
▁bang	-12662
▁fine	-12663
▁mama	-12664
▁slip	-12665
jercic	-12666
orable	-12667
▁Arbor	-12668
▁Audio	-12669
▁Corey	-12670
▁Cuban	-12671
▁Draft	-12672
▁Feder	-12673
▁Haley	-12674
▁Igles	-12675
▁Lodge	-12676
▁Malab	-12677
▁Noise	-12678
▁Paulo	-12679
▁Where	-12680
▁angle	-12681
▁brows	-12682
▁clams	-12683
▁gifts	-12684
▁march	-12685
▁squad	-12686
▁trash	-12687
Ireland	-12688
fficial	-12689
▁Armpit	-12690
▁Creepy	-12691
▁DRIVER	-12692
▁Famous	-12693
▁Grande	-12694
▁HAMMER	-12695
▁Kinder	-12696
▁Murray	-12697
▁Palace	-12698
▁Sculpt	-12699
▁Shisha	-12700
▁Smoked	-12701
▁Womens	-12702
▁estilo	-12703
▁senior	-12704
ographer	-12705
sentação	-12706
▁Against	-12707
▁Alabama	-12708
▁Applaud	-12709
▁Brianna	-12710
▁Bulldog	-12711
▁Cadeira	-12712
▁Farmers	-12713
▁Maquina	-12714
▁Organic	-12715
▁Physics	-12716
▁Prelude	-12717
▁Rebecca	-12718
▁Sitting	-12719
▁Skyline	-12720
▁Twinkle	-12721
▁Welcome	-12722
▁acrylic	-12723
▁cousins	-12724
▁Brighton	-12725
▁Challeng	-12726
▁Distance	-12727
▁Knuckles	-12728
▁attempts	-12729
▁Arrowhead	-12730
▁Packaging	-12731
▁Panasonic	-12732
▁anchoring	-12733
▁bartender	-12734
▁delicious	-12735
▁hilarious	-12736
▁HOVERBOARD	-12737
.9	-12738
EX	-12739
Or	-12740
▁У	-12741
▁ш	-12742
▁😍	-12743
/01	-12744
And	-12745
Dog	-12746
IGN	-12747
IÓN	-12748
May	-12749
UTO	-12750
ifa	-12751
loy	-12752
psy	-12753
▁HK	-12754
▁KS	-12755
▁RV	-12756
ATRO	-12757
Free	-12758
ODGE	-12759
amos	-12760
avan	-12761
ingo	-12762
otic	-12763
raul	-12764
umen	-12765
▁000	-12766
▁Bye	-12767
▁COC	-12768
▁DOM	-12769
▁EAT	-12770
▁ESC	-12771
▁Kle	-12772
▁Loc	-12773
▁NAP	-12774
▁Neb	-12775
▁REP	-12776
▁Wig	-12777
▁ZOO	-12778
▁ale	-12779
▁den	-12780
▁dip	-12781
▁flo	-12782
cedes	-12783
ettoy	-12784
iesel	-12785
ooker	-12786
rians	-12787
▁AWES	-12788
▁Eden	-12789
▁Izzy	-12790
▁Jill	-12791
▁Kale	-12792
▁Lexi	-12793
▁SPIN	-12794
▁Tint	-12795
▁aula	-12796
▁bebê	-12797
▁beef	-12798
▁pear	-12799
▁reve	-12800
▁wing	-12801
acular	-12802
ensive	-12803
issage	-12804
veland	-12805
▁Appli	-12806
▁Bosch	-12807
▁COLOR	-12808
▁Chore	-12809
▁Fazer	-12810
▁Hover	-12811
▁Innov	-12812
▁Milan	-12813
▁Rough	-12814
▁Thumb	-12815
▁album	-12816
▁bolha	-12817
▁torch	-12818
▁torre	-12819
renches	-12820
stanbul	-12821
▁BURGER	-12822
▁Barbec	-12823
▁Farmer	-12824
▁Jingle	-12825
▁Native	-12826
▁Postal	-12827
▁Stairs	-12828
▁Willow	-12829
▁arcade	-12830
▁fluffy	-12831
▁forest	-12832
▁peeler	-12833
▁safety	-12834
▁sticks	-12835
▁Evening	-12836
▁PUMPKIN	-12837
▁Shannon	-12838
▁Tobacco	-12839
▁bottles	-12840
▁entrada	-12841
▁jugando	-12842
▁lifting	-12843
▁Demonstr	-12844
▁Friendly	-12845
▁MACARENA	-12846
▁Shepherd	-12847
▁favorite	-12848
▁geocache	-12849
▁shucking	-12850
▁Management	-12851
▁excitement	-12852
Br	-12853
En	-12854
Sm	-12855
001	-12856
Cut	-12857
ENG	-12858
OLA	-12859
OUP	-12860
WAL	-12861
axi	-12862
cop	-12863
dio	-12864
hey	-12865
inh	-12866
leo	-12867
mor	-12868
riz	-12869
roe	-12870
▁(9	-12871
▁88	-12872
▁JD	-12873
▁Mé	-12874
▁Nu	-12875
▁az	-12876
coal	-12877
icip	-12878
ippi	-12879
▁365	-12880
▁Ain	-12881
▁BEG	-12882
▁Bug	-12883
▁Eco	-12884
▁Hoo	-12885
▁INC	-12886
▁Jaz	-12887
▁Rud	-12888
▁SAU	-12889
▁TWO	-12890
▁Une	-12891
▁Zen	-12892
▁aud	-12893
▁coc	-12894
▁fal	-12895
▁gan	-12896
▁luc	-12897
allel	-12898
apest	-12899
arder	-12900
hetic	-12901
inery	-12902
where	-12903
▁Bapt	-12904
▁CURL	-12905
▁Done	-12906
▁Heel	-12907
▁Kill	-12908
▁Ribs	-12909
▁SIDE	-12910
▁SONG	-12911
▁SUSH	-12912
▁Sham	-12913
▁Ship	-12914
▁Tina	-12915
▁here	-12916
▁mane	-12917
▁mart	-12918
▁twin	-12919
lained	-12920
oolest	-12921
raulic	-12922
▁COVER	-12923
▁Cindy	-12924
▁Clase	-12925
▁Cloud	-12926
▁Colby	-12927
▁Depot	-12928
▁Hyper	-12929
▁Jonas	-12930
▁Micah	-12931
▁Peace	-12932
▁Punta	-12933
▁Rapid	-12934
▁SPRAY	-12935
▁Sadie	-12936
▁Spart	-12937
▁Tracy	-12938
▁cesta	-12939
▁civil	-12940
▁curly	-12941
▁hedge	-12942
▁sieve	-12943
▁slots	-12944
▁stops	-12945
ramento	-12946
▁Access	-12947
▁Ashton	-12948
▁Batman	-12949
▁Carmen	-12950
▁Cutter	-12951
▁Dayton	-12952
▁Dyeing	-12953
▁Hailey	-12954
▁Keeper	-12955
▁Marcos	-12956
▁POLISH	-12957
▁altern	-12958
▁middle	-12959
▁target	-12960
▁AWESOME	-12961
▁BLOWING	-12962
▁General	-12963
▁Moments	-12964
▁Newborn	-12965
▁Package	-12966
▁Sucking	-12967
▁Tribute	-12968
▁Wearing	-12969
▁Youtube	-12970
▁decking	-12971
▁improve	-12972
▁montage	-12973
▁poached	-12974
▁Bagpiper	-12975
▁Montagem	-12976
▁Paralymp	-12977
▁Triangle	-12978
▁Trocando	-12979
▁Christina	-12980
▁Education	-12981
▁Emergency	-12982
▁Landscape	-12983
▁horseback	-12984
▁Aboriginal	-12985
▁Bellydance	-12986
▁Excavating	-12987
▁highlights	-12988
▁incomplete	-12989
▁Moonwalking	-12990
▁Firefighters	-12991
88	-12992
Ro	-12993
VO	-12994
ãe	-12995
оч	-12996
ри	-12997
ار	-12998
้า	-12999
Ind	-13000
aph	-13001
pad	-13002
tor	-13003
tro	-13004
vio	-13005
ная	-13006
ный	-13007
▁6-	-13008
▁Ez	-13009
▁HR	-13010
▁KK	-13011
▁ny	-13012
▁pi	-13013
▁yd	-13014
Easy	-13015
arus	-13016
atar	-13017
athe	-13018
atia	-13019
cery	-13020
ersh	-13021
girl	-13022
hent	-13023
ivid	-13024
lesh	-13025
phia	-13026
resh	-13027
veen	-13028
▁102	-13029
▁11,	-13030
▁170	-13031
▁18"	-13032
▁210	-13033
▁3/4	-13034
▁Cel	-13035
▁DON	-13036
▁FIL	-13037
▁FLY	-13038
▁Joh	-13039
▁Kas	-13040
▁Kin	-13041
▁RUB	-13042
▁aux	-13043
▁bir	-13044
▁mum	-13045
ICKET	-13046
anapo	-13047
illas	-13048
place	-13049
stico	-13050
uster	-13051
visão	-13052
▁Cabo	-13053
▁Carn	-13054
▁DOWN	-13055
▁Desk	-13056
▁Fran	-13057
▁Hyde	-13058
▁Jeep	-13059
▁Lith	-13060
▁MOSH	-13061
▁Mari	-13062
▁Oahu	-13063
▁Peso	-13064
▁Pneu	-13065
▁Stay	-13066
▁WRAP	-13067
▁cubo	-13068
▁even	-13069
▁hero	-13070
▁sick	-13071
▁skip	-13072
estone	-13073
keeper	-13074
lahoma	-13075
othing	-13076
pillar	-13077
ulator	-13078
vering	-13079
▁2013.	-13080
▁Brake	-13081
▁DECOR	-13082
▁Freak	-13083
▁Retro	-13084
▁SWORD	-13085
▁Sally	-13086
▁Swift	-13087
▁Tenor	-13088
▁Unhas	-13089
▁Waste	-13090
▁barbe	-13091
▁brown	-13092
▁chick	-13093
▁empan	-13094
▁lower	-13095
▁palma	-13096
▁print	-13097
▁reloj	-13098
▁salon	-13099
▁think	-13100
▁tooth	-13101
Created	-13102
Fitness	-13103
version	-13104
летение	-13105
▁Amazon	-13106
▁Breath	-13107
▁Contin	-13108
▁Crutch	-13109
▁Garcia	-13110
▁INSANE	-13111
▁Metall	-13112
▁Nature	-13113
▁Ottawa	-13114
▁Peyton	-13115
▁Pushes	-13116
▁Quebec	-13117
▁Trials	-13118
▁Warren	-13119
▁Welder	-13120
▁crutch	-13121
▁failed	-13122
▁partie	-13123
▁sample	-13124
▁tandem	-13125
▁Andrews	-13126
▁Barbara	-13127
▁BlocBoy	-13128
▁Butcher	-13129
▁CRICKET	-13130
▁Dominic	-13131
▁Drunken	-13132
▁Flaming	-13133
▁Peneira	-13134
▁Restaur	-13135
▁Stanley	-13136
▁Strateg	-13137
▁streets	-13138
▁Bareback	-13139
▁Creating	-13140
▁Hawaiian	-13141
▁SWIMMING	-13142
▁Shanghai	-13143
▁Survival	-13144
▁clearing	-13145
▁delivery	-13146
▁megafono	-13147
▁necklace	-13148
▁pumpkins	-13149
▁Bubblegum	-13150
▁shoelaces	-13151
▁shredding	-13152
▁splitting	-13153
▁Huntington	-13154
▁Marshmellows	-13155
1-	-13156
52	-13157
FD	-13158
KO	-13159
är	-13160
ни	-13161
ры	-13162
360	-13163
ORY	-13164
OTE	-13165
OTS	-13166
erm	-13167
idy	-13168
nat	-13169
tic	-13170
инг	-13171
▁2!	-13172
▁51	-13173
▁76	-13174
▁AX	-13175
▁OC	-13176
ANTO	-13177
Book	-13178
PLAY	-13179
TAIN	-13180
ardi	-13181
aren	-13182
lene	-13183
lier	-13184
nies	-13185
rine	-13186
slow	-13187
unes	-13188
unte	-13189
wash	-13190
▁10,	-13191
▁13,	-13192
▁AGE	-13193
▁ATV	-13194
▁Bey	-13195
▁FIX	-13196
▁Geo	-13197
▁Its	-13198
▁Lux	-13199
▁PAS	-13200
▁PRA	-13201
▁Peg	-13202
▁Rit	-13203
▁SHC	-13204
▁SUB	-13205
▁Sai	-13206
▁Syl	-13207
▁TVC	-13208
▁Thr	-13209
▁hab	-13210
▁ing	-13211
▁lim	-13212
▁oct	-13213
▁pom	-13214
▁vez	-13215
ECIAL	-13216
Works	-13217
aints	-13218
antil	-13219
brush	-13220
front	-13221
itude	-13222
umbus	-13223
▁(200	-13224
▁1993	-13225
▁Crab	-13226
▁Dana	-13227
▁Ears	-13228
▁Hood	-13229
▁Lean	-13230
▁Loaf	-13231
▁Name	-13232
▁Nest	-13233
▁Resp	-13234
▁SLED	-13235
▁TRIP	-13236
▁They	-13237
▁WIND	-13238
▁foam	-13239
▁kore	-13240
▁pier	-13241
▁pony	-13242
▁suck	-13243
▁tail	-13244
IPPING	-13245
ipeout	-13246
manuel	-13247
stract	-13248
veling	-13249
▁2014)	-13250
▁Aruba	-13251
▁Betty	-13252
▁Corre	-13253
▁Diane	-13254
▁Drape	-13255
▁Grove	-13256
▁Loves	-13257
▁Mater	-13258
▁Maxim	-13259
▁Mikey	-13260
▁Moist	-13261
▁Notes	-13262
▁PLAYS	-13263
▁PRESS	-13264
▁Quinn	-13265
▁SUSHI	-13266
▁Sieve	-13267
▁Trent	-13268
▁Turbo	-13269
▁elect	-13270
▁entre	-13271
▁joint	-13272
▁liner	-13273
▁patch	-13274
cracker	-13275
delphia	-13276
raction	-13277
▁Albert	-13278
▁COMPET	-13279
▁Cancun	-13280
▁Drinks	-13281
▁HELMET	-13282
▁Hollow	-13283
▁Rhythm	-13284
▁Saddle	-13285
▁Shelby	-13286
▁Viking	-13287
▁Wagner	-13288
▁ballon	-13289
▁blocks	-13290
▁faster	-13291
▁karate	-13292
▁kisses	-13293
▁normal	-13294
▁Bristol	-13295
▁Glacier	-13296
▁Glasgow	-13297
▁Newport	-13298
▁Pintura	-13299
▁Popcorn	-13300
▁Profile	-13301
▁Pyramid	-13302
▁SHAVING	-13303
▁hotdogs	-13304
▁lavando	-13305
▁outdoor	-13306
▁tearing	-13307
▁Compound	-13308
▁Dressing	-13309
▁Illinois	-13310
▁Istanbul	-13311
▁Maryland	-13312
▁Neighbor	-13313
▁PAINTING	-13314
▁Pictures	-13315
▁Research	-13316
▁acordeon	-13317
▁concerto	-13318
▁grinding	-13319
▁interpre	-13320
▁reaction	-13321
▁Cleveland	-13322
▁Etiquette	-13323
▁Massaging	-13324
▁Milwaukee	-13325
▁Nashville	-13326
▁condition	-13327
▁extension	-13328
▁Convention	-13329
▁Desenhando	-13330
▁Excitement	-13331
▁Cheerleader	-13332
▁Sandcastles	-13333
!!!!!!!!!!!!!!!!	-13334
BI	-13335
HN	-13336
Is	-13337
KI	-13338
MV	-13339
uh	-13340
áf	-13341
не	-13342
ํา	-13343
▁Л	-13344
▁Ш	-13345
LIC	-13346
Old	-13347
Par	-13348
ais	-13349
ilm	-13350
oki	-13351
qua	-13352
roz	-13353
tre	-13354
yah	-13355
▁6)	-13356
▁Ib	-13357
▁Wu	-13358
▁cm	-13359
▁eu	-13360
▁fi	-13361
ESTA	-13362
LINE	-13363
ONES	-13364
Star	-13365
URAL	-13366
aldo	-13367
aroo	-13368
atie	-13369
ende	-13370
esto	-13371
gery	-13372
mans	-13373
onga	-13374
ools	-13375
rise	-13376
sons	-13377
ussy	-13378
▁14,	-13379
▁145	-13380
▁26,	-13381
▁:))	-13382
▁BET	-13383
▁Buy	-13384
▁FIS	-13385
▁Flu	-13386
▁GTX	-13387
▁GYM	-13388
▁JAM	-13389
▁Kau	-13390
▁Kor	-13391
▁LOS	-13392
▁Ras	-13393
▁SWE	-13394
▁Sex	-13395
▁Sud	-13396
▁Syn	-13397
▁TUR	-13398
▁Zak	-13399
▁asp	-13400
▁gay	-13401
▁gen	-13402
▁lon	-13403
▁oak	-13404
▁pep	-13405
▁rue	-13406
▁sof	-13407
▁spe	-13408
INNER	-13409
antom	-13410
asted	-13411
backs	-13412
enter	-13413
estro	-13414
ought	-13415
raine	-13416
stant	-13417
▁Ally	-13418
▁BODY	-13419
▁Chis	-13420
▁Find	-13421
▁Glue	-13422
▁Gram	-13423
▁Katy	-13424
▁Keys	-13425
▁Luna	-13426
▁Mind	-13427
▁NECK	-13428
▁Note	-13429
▁Rebo	-13430
▁Tuck	-13431
▁Tuto	-13432
▁cabe	-13433
▁edit	-13434
▁moto	-13435
▁name	-13436
▁spit	-13437
apolis	-13438
cuador	-13439
reader	-13440
urance	-13441
utador	-13442
▁Accur	-13443
▁BELLY	-13444
▁Cadet	-13445
▁Fácil	-13446
▁GLASS	-13447
▁HANDS	-13448
▁Handi	-13449
▁Jerry	-13450
▁Leban	-13451
▁Naked	-13452
▁Panda	-13453
▁Patch	-13454
▁Paula	-13455
▁Phase	-13456
▁SHOTS	-13457
▁Shaun	-13458
▁WHITE	-13459
▁beans	-13460
▁cycle	-13461
▁ninja	-13462
▁olymp	-13463
▁parag	-13464
▁remix	-13465
▁weave	-13466
ramatic	-13467
▁Bolhas	-13468
▁Breaks	-13469
▁Caindo	-13470
▁Dillon	-13471
▁Margar	-13472
▁Mongol	-13473
▁Nissan	-13474
▁Paddle	-13475
▁Summit	-13476
▁TEATRO	-13477
▁Whites	-13478
▁armpit	-13479
▁awards	-13480
▁league	-13481
▁market	-13482
▁nephew	-13483
▁nipple	-13484
▁planer	-13485
▁smells	-13486
▁Between	-13487
▁Brendan	-13488
▁Chanter	-13489
▁Fitting	-13490
▁Holland	-13491
▁Lavando	-13492
▁Mukbang	-13493
▁Raising	-13494
▁Virtual	-13495
▁WALKING	-13496
▁carrier	-13497
▁chinese	-13498
▁learned	-13499
▁napkins	-13500
▁pencils	-13501
▁picture	-13502
▁Carrinho	-13503
▁Cocktail	-13504
▁Foraging	-13505
▁kayaking	-13506
iladelphia	-13507
▁Brincando	-13508
▁Manhattan	-13509
▁Testimony	-13510
▁blackjack	-13511
▁Applauding	-13512
▁Electronic	-13513
▁Everything	-13514
▁Lockpicking	-13515
74	-13516
JE	-13517
LS	-13518
Po	-13519
bl	-13520
kh	-13521
pc	-13522
ль	-13523
อง	-13524
She	-13525
THE	-13526
avo	-13527
enh	-13528
jet	-13529
new	-13530
ocê	-13531
oko	-13532
rif	-13533
uru	-13534
▁53	-13535
▁59	-13536
▁6:	-13537
▁BA	-13538
▁FM	-13539
▁FT	-13540
▁NI	-13541
▁TC	-13542
▁TT	-13543
▁ng	-13544
1000	-13545
IVAL	-13546
UNGE	-13547
arry	-13548
best	-13549
hens	-13550
izar	-13551
olic	-13552
opez	-13553
oura	-13554
pose	-13555
▁240	-13556
▁Agg	-13557
▁CIR	-13558
▁Cec	-13559
▁Fam	-13560
▁Gad	-13561
▁NHL	-13562
▁Ner	-13563
▁Rex	-13564
▁SUR	-13565
▁Sig	-13566
▁TAL	-13567
▁TOR	-13568
▁Tin	-13569
▁WOW	-13570
▁deg	-13571
▁duo	-13572
▁rim	-13573
▁sad	-13574
ELING	-13575
FFITI	-13576
hanna	-13577
icide	-13578
ilets	-13579
uttle	-13580
ático	-13581
▁1984	-13582
▁Ashe	-13583
▁Asmr	-13584
▁Audi	-13585
▁Cana	-13586
▁Duty	-13587
▁EGGS	-13588
▁Nort	-13589
▁Pres	-13590
▁Ramp	-13591
▁Suco	-13592
▁Zumb	-13593
▁bite	-13594
▁cone	-13595
▁lead	-13596
▁lent	-13597
▁once	-13598
▁paul	-13599
▁pine	-13600
▁unic	-13601
▁vent	-13602
leeves	-13603
▁AEROB	-13604
▁Cakes	-13605
▁DODGE	-13606
▁Downs	-13607
▁FRONT	-13608
▁False	-13609
▁Felix	-13610
▁GOPRO	-13611
▁HORSE	-13612
▁Heidi	-13613
▁Proof	-13614
▁Reese	-13615
▁Skull	-13616
▁TASTE	-13617
▁china	-13618
▁corte	-13619
▁north	-13620
▁scott	-13621
▁serra	-13622
▁smell	-13623
▁steak	-13624
▁third	-13625
cepting	-13626
ivation	-13627
otional	-13628
çamento	-13629
▁CROCHE	-13630
▁Calvin	-13631
▁Explos	-13632
▁Formal	-13633
▁MOTION	-13634
▁Maraca	-13635
▁NACHOS	-13636
▁Spacer	-13637
▁Strict	-13638
▁Subway	-13639
▁Tiptoe	-13640
▁Walter	-13641
▁cracks	-13642
▁injury	-13643
▁myself	-13644
▁picked	-13645
▁trocar	-13646
fficient	-13647
▁BeatBox	-13648
▁COOKIES	-13649
▁Circles	-13650
▁Gourmet	-13651
▁Mailman	-13652
▁Massive	-13653
▁Mineral	-13654
▁Preston	-13655
▁Schools	-13656
▁Vincent	-13657
▁WEATHER	-13658
▁dominos	-13659
▁sisters	-13660
▁snorkel	-13661
▁victory	-13662
▁BAILANDO	-13663
▁Campbell	-13664
▁Crossfit	-13665
▁Marathon	-13666
▁Midnight	-13667
▁Ornament	-13668
▁Tropical	-13669
▁Withdraw	-13670
▁Workouts	-13671
▁ceremony	-13672
▁shifting	-13673
▁Answering	-13674
▁Bollywood	-13675
▁Correctly	-13676
▁boyfriend	-13677
▁featuring	-13678
▁CHAMPIONSH	-13679
▁Cappuccino	-13680
▁controlled	-13681
▁faceplants	-13682
▁jaywalking	-13683
▁pedestrian	-13684
▁Replacement	-13685
▁Woodcarving	-13686
▁Fundamentals	-13687
▁SNOWboarding	-13688
▁championships	-13689
47	-13690
Cl	-13691
EZ	-13692
GB	-13693
HC	-13694
Sn	-13695
▁И	-13696
.17	-13697
.25	-13698
120	-13699
IFF	-13700
IFT	-13701
ILY	-13702
Jan	-13703
Rep	-13704
Top	-13705
ULA	-13706
jos	-13707
nio	-13708
vre	-13709
âte	-13710
▁43	-13711
▁CB	-13712
▁GB	-13713
▁NW	-13714
▁TI	-13715
▁fu	-13716
▁kh	-13717
▁ка	-13718
CHOR	-13719
Fire	-13720
ITCH	-13721
OCHE	-13722
Orig	-13723
aign	-13724
arch	-13725
bers	-13726
eryl	-13727
ilen	-13728
issy	-13729
onic	-13730
oque	-13731
orca	-13732
road	-13733
sing	-13734
teur	-13735
ласс	-13736
▁Ark	-13737
▁BED	-13738
▁Bak	-13739
▁Bio	-13740
▁Bod	-13741
▁CNC	-13742
▁Fir	-13743
▁Hap	-13744
▁Hig	-13745
▁JOG	-13746
▁Jed	-13747
▁Kab	-13748
▁Lah	-13749
▁MIX	-13750
▁OMG	-13751
▁Obs	-13752
▁Rai	-13753
▁SPL	-13754
▁Zac	-13755
▁dia	-13756
▁enc	-13757
/2009	-13758
CANDO	-13759
ancia	-13760
balls	-13761
ensen	-13762
etish	-13763
heiro	-13764
istas	-13765
renzy	-13766
union	-13767
▁Bree	-13768
▁Brun	-13769
▁Coat	-13770
▁DISC	-13771
▁KING	-13772
▁Kane	-13773
▁Lime	-13774
▁Maur	-13775
▁Omar	-13776
▁Roma	-13777
▁Rosa	-13778
▁Roun	-13779
▁Tril	-13780
▁insp	-13781
▁slim	-13782
▁tall	-13783
▁vibr	-13784
actors	-13785
gnancy	-13786
▁Alexa	-13787
▁Barry	-13788
▁Burps	-13789
▁Cloth	-13790
▁Devin	-13791
▁Gives	-13792
▁KITES	-13793
▁Manny	-13794
▁Merry	-13795
▁NAILS	-13796
▁Reser	-13797
▁SHRED	-13798
▁SMASH	-13799
▁SPEED	-13800
▁Sabão	-13801
▁Slots	-13802
▁Steph	-13803
▁Stihl	-13804
▁Whale	-13805
▁bitch	-13806
▁blues	-13807
▁engra	-13808
▁lines	-13809
▁mejor	-13810
▁stair	-13811
▁woods	-13812
▁yolks	-13813
▁Advice	-13814
▁Bishop	-13815
▁Brooks	-13816
▁Comedy	-13817
▁Explor	-13818
▁Medley	-13819
▁Return	-13820
▁Rotary	-13821
▁Triplo	-13822
▁gettin	-13823
▁papier	-13824
▁scream	-13825
▁shower	-13826
▁survey	-13827
▁thrown	-13828
mbroider	-13829
▁Austria	-13830
▁Brushes	-13831
▁Castles	-13832
▁Compact	-13833
▁DRIVING	-13834
▁Dealing	-13835
▁FITNESS	-13836
▁Frankie	-13837
▁Gymnast	-13838
▁Hanover	-13839
▁Jaywalk	-13840
▁Letters	-13841
▁PARKOUR	-13842
▁pentear	-13843
▁skydive	-13844
destrians	-13845
▁CHEERING	-13846
▁Franklin	-13847
▁distance	-13848
▁document	-13849
▁national	-13850
▁Celebrity	-13851
▁Permanent	-13852
▁equipment	-13853
▁Salchichas	-13854
▁skateboard	-13855
▁Introducing	-13856
▁Apresentação	-13857
▁Hysterically	-13858
▁demonstrates	-13859
78	-13860
GC	-13861
Kn	-13862
ân	-13863
го	-13864
де	-13865
ос	-13866
▁Đ	-13867
▁ф	-13868
り方	-13869
Big	-13870
Cal	-13871
EMB	-13872
Mah	-13873
Sim	-13874
TIM	-13875
Tri	-13876
ems	-13877
iod	-13878
mir	-13879
rod	-13880
sco	-13881
ynn	-13882
▁(#	-13883
▁69	-13884
▁:3	-13885
▁Ec	-13886
▁HQ	-13887
▁PI	-13888
▁PU	-13889
▁TA	-13890
IANO	-13891
beat	-13892
fort	-13893
gies	-13894
igos	-13895
isan	-13896
mons	-13897
moth	-13898
oser	-13899
oshi	-13900
асть	-13901
стру	-13902
▁(20	-13903
▁190	-13904
▁800	-13905
▁ANG	-13906
▁Bic	-13907
▁Dee	-13908
▁Diy	-13909
▁Gau	-13910
▁Hed	-13911
▁MAH	-13912
▁MAX	-13913
▁OIL	-13914
▁Roc	-13915
▁SAT	-13916
▁Tac	-13917
▁Tet	-13918
▁aug	-13919
▁fot	-13920
▁mai	-13921
▁sex	-13922
▁tot	-13923
▁ven	-13924
agara	-13925
ailar	-13926
atory	-13927
batic	-13928
hicle	-13929
icker	-13930
ipers	-13931
ittee	-13932
osaur	-13933
ussie	-13934
▁1994	-13935
▁Chem	-13936
▁Crap	-13937
▁Dorm	-13938
▁Dump	-13939
▁GONG	-13940
▁Jogo	-13941
▁LOUD	-13942
▁Lynn	-13943
▁Mila	-13944
▁Nine	-13945
▁Rack	-13946
▁Rage	-13947
▁Ruth	-13948
▁Salv	-13949
▁Sole	-13950
▁Ster	-13951
▁Toby	-13952
▁Vlad	-13953
▁Weld	-13954
▁Wife	-13955
▁cock	-13956
▁conn	-13957
▁dent	-13958
▁duet	-13959
▁late	-13960
▁mono	-13961
▁ryan	-13962
▁size	-13963
▁teen	-13964
▁tort	-13965
▁whis	-13966
alação	-13967
aneous	-13968
lusive	-13969
▁2013:	-13970
▁APPLY	-13971
▁Actor	-13972
▁CONTR	-13973
▁CREAM	-13974
▁Claud	-13975
▁Fries	-13976
▁Hindu	-13977
▁Inner	-13978
▁Jorge	-13979
▁Knock	-13980
▁LAUGH	-13981
▁Loren	-13982
▁Ollie	-13983
▁Patri	-13984
▁Plaza	-13985
▁Shift	-13986
▁Stamp	-13987
▁Tyson	-13988
▁Write	-13989
▁alone	-13990
▁andar	-13991
▁chops	-13992
▁craft	-13993
▁extra	-13994
▁flour	-13995
▁local	-13996
▁slaps	-13997
▁stock	-13998
▁vidro	-13999
▁wrist	-14000
playing	-14001
▁Bowtie	-14002
▁Camden	-14003
▁Casual	-14004
▁Choose	-14005
▁Cousin	-14006
▁Exfoli	-14007
▁Histor	-14008
▁Martha	-14009
▁Nevada	-14010
▁Photos	-14011
▁Sketch	-14012
▁Walnut	-14013
▁Weston	-14014
▁holder	-14015
▁hurdle	-14016
▁moment	-14017
▁pocket	-14018
▁Alberta	-14019
▁Battery	-14020
▁Ceiling	-14021
▁Draping	-14022
▁Ecuador	-14023
▁Mirrors	-14024
▁Morocco	-14025
▁Mustang	-14026
▁Phantom	-14027
▁Pokemon	-14028
▁SURFING	-14029
▁Timothy	-14030
▁Técnica	-14031
▁Walkers	-14032
▁burgers	-14033
▁michael	-14034
▁support	-14035
▁Basement	-14036
▁Cleaners	-14037
▁Imperial	-14038
▁Joystick	-14039
▁Mercedes	-14040
▁Oklahoma	-14041
▁Plymouth	-14042
▁Robinson	-14043
▁bolinhas	-14044
▁pestañas	-14045
▁vertical	-14046
▁Cigarette	-14047
▁Performer	-14048
▁ensinando	-14049
▁Campeonato	-14050
▁Satisfying	-14051
▁Deadlifting	-14052
▁Kiteboarding	-14053
▁hysterically	-14054
49	-14055
DL	-14056
ND	-14057
PM	-14058
dr	-14059
zu	-14060
âm	-14061
▁¡	-14062
ット	-14063
DIY	-14064
EDE	-14065
ENC	-14066
Ice	-14067
dic	-14068
irk	-14069
pur	-14070
▁98	-14071
▁BJ	-14072
▁BS	-14073
▁IB	-14074
▁Kl	-14075
▁ly	-14076
▁mc	-14077
▁oh	-14078
▁pé	-14079
OOTH	-14080
OUPA	-14081
WICH	-14082
acts	-14083
anes	-14084
apes	-14085
bach	-14086
bass	-14087
gger	-14088
omes	-14089
oski	-14090
ovan	-14091
phis	-14092
pies	-14093
some	-14094
yrus	-14095
▁1.5	-14096
▁115	-14097
▁2.5	-14098
▁20,	-14099
▁205	-14100
▁BRO	-14101
▁Bru	-14102
▁Daw	-14103
▁FAM	-14104
▁Goa	-14105
▁LAT	-14106
▁Mey	-14107
▁Moh	-14108
▁Nit	-14109
▁SAB	-14110
▁SEM	-14111
▁Sed	-14112
▁Tul	-14113
▁VAC	-14114
▁Wit	-14115
▁gel	-14116
GoPro	-14117
cerpt	-14118
cross	-14119
irrel	-14120
ordan	-14121
▁CUTE	-14122
▁Chew	-14123
▁Dash	-14124
▁Evie	-14125
▁PHOT	-14126
▁PULL	-14127
▁Pops	-14128
▁STOP	-14129
▁THAT	-14130
▁Trey	-14131
▁bank	-14132
▁cons	-14133
▁gato	-14134
▁pelo	-14135
▁plat	-14136
▁soap	-14137
▁soph	-14138
▁sour	-14139
▁tape	-14140
▁trap	-14141
▁wait	-14142
Kiting	-14143
adores	-14144
agonal	-14145
caster	-14146
desivo	-14147
ellist	-14148
ilação	-14149
umbias	-14150
▁AGEAN	-14151
▁AWARD	-14152
▁CATCH	-14153
▁Chand	-14154
▁Czech	-14155
▁Eight	-14156
▁Ellen	-14157
▁HOUSE	-14158
▁Kerry	-14159
▁Layla	-14160
▁Massa	-14161
▁STRET	-14162
▁Scarf	-14163
▁Scary	-14164
▁Steer	-14165
▁Vinyl	-14166
▁there	-14167
▁youth	-14168
ailable	-14169
unnings	-14170
▁Active	-14171
▁Beyond	-14172
▁Cyprus	-14173
▁Kicker	-14174
▁Leader	-14175
▁Lumber	-14176
▁Nordic	-14177
▁Panama	-14178
▁Pigeon	-14179
▁Poodle	-14180
▁Runner	-14181
▁Violet	-14182
▁Zombie	-14183
▁facile	-14184
▁online	-14185
▁prepar	-14186
▁styles	-14187
standing	-14188
▁Alexand	-14189
▁Awkward	-14190
▁Crossed	-14191
▁Desafio	-14192
▁Gorilla	-14193
▁Iglesia	-14194
▁Juggler	-14195
▁Kingdom	-14196
▁Lindsey	-14197
▁Peppers	-14198
▁Reviews	-14199
▁Sealing	-14200
▁Surface	-14201
▁Systems	-14202
▁Tiffany	-14203
▁ceramic	-14204
▁comendo	-14205
▁history	-14206
▁planing	-14207
▁Athletic	-14208
▁Batizado	-14209
▁Breading	-14210
▁Budapest	-14211
▁Bunnings	-14212
▁Ceramics	-14213
▁Columbus	-14214
▁Egyptian	-14215
▁GRAFFITI	-14216
▁Magnetic	-14217
▁Richards	-14218
▁Sunshine	-14219
▁aprender	-14220
▁barbeque	-14221
▁scooters	-14222
▁starting	-14223
▁DODGEBALL	-14224
▁Dominican	-14225
▁Northwest	-14226
▁Operation	-14227
▁bubblegum	-14228
▁interview	-14229
▁piercings	-14230
▁Auctioneer	-14231
▁production	-14232
▁sandwiches	-14233
omersaulting	-14234
▁Caterpillar	-14235
▁Development	-14236
▁Motorcycles	-14237
▁Philadelphia	-14238
▁weightlifting	-14239
,5	-14240
3:	-14241
69	-14242
CR	-14243
MI	-14244
▁¦	-14245
▁ك	-14246
▁“	-14247
-30	-14248
123	-14249
DSi	-14250
IAS	-14251
IOR	-14252
ITS	-14253
Rec	-14254
fal	-14255
gel	-14256
iem	-14257
nth	-14258
oka	-14259
oya	-14260
rer	-14261
▁SG	-14262
Fest	-14263
alem	-14264
alon	-14265
arag	-14266
arin	-14267
arte	-14268
asis	-14269
atan	-14270
atem	-14271
bike	-14272
bone	-14273
cake	-14274
ghan	-14275
izes	-14276
lizz	-14277
omas	-14278
oooo	-14279
vich	-14280
ória	-14281
▁#12	-14282
▁#1:	-14283
▁(12	-14284
▁---	-14285
▁155	-14286
▁275	-14287
▁CER	-14288
▁Dah	-14289
▁KAY	-14290
▁SEA	-14291
▁TER	-14292
▁Wow	-14293
▁Yes	-14294
▁aid	-14295
▁bin	-14296
▁lab	-14297
▁oli	-14298
agram	-14299
blems	-14300
elles	-14301
ients	-14302
otype	-14303
scent	-14304
undai	-14305
ática	-14306
астер	-14307
▁Boda	-14308
▁CELE	-14309
▁Cele	-14310
▁Coup	-14311
▁FIST	-14312
▁FLAT	-14313
▁GARG	-14314
▁Gamb	-14315
▁Glow	-14316
▁Isla	-14317
▁JUST	-14318
▁Kier	-14319
▁Lanz	-14320
▁MONT	-14321
▁Meal	-14322
▁Moto	-14323
▁OVER	-14324
▁PONG	-14325
▁Prop	-14326
▁Stam	-14327
▁TEMP	-14328
▁Tune	-14329
▁Whip	-14330
▁area	-14331
▁bait	-14332
▁desk	-14333
▁flow	-14334
▁hook	-14335
▁loop	-14336
▁loss	-14337
▁pene	-14338
▁pops	-14339
▁pork	-14340
▁uses	-14341
celain	-14342
ington	-14343
raiser	-14344
roller	-14345
undial	-14346
▁2009.	-14347
▁2011)	-14348
▁2012:	-14349
▁BEACH	-14350
▁Bands	-14351
▁Bolin	-14352
▁Boxer	-14353
▁Entry	-14354
▁Excel	-14355
▁Extre	-14356
▁LASER	-14357
▁Lines	-14358
▁Miche	-14359
▁Mundo	-14360
▁PARAS	-14361
▁Preli	-14362
▁Route	-14363
▁Spice	-14364
▁Spons	-14365
▁Third	-14366
▁Trade	-14367
▁Weeks	-14368
▁Wyatt	-14369
▁james	-14370
▁leite	-14371
▁lemon	-14372
▁poach	-14373
▁stomp	-14374
ielding	-14375
▁Angels	-14376
▁Anthem	-14377
▁Aprend	-14378
▁BUBBLE	-14379
▁Bronze	-14380
▁Granny	-14381
▁Jungle	-14382
▁Meadow	-14383
▁Nipple	-14384
▁Pieces	-14385
▁Pierce	-14386
▁Rocket	-14387
▁SOCCER	-14388
▁county	-14389
▁direct	-14390
▁roupas	-14391
▁smelly	-14392
▁Airport	-14393
▁Bottles	-14394
▁Brayden	-14395
▁Looking	-14396
▁Picture	-14397
▁Spanner	-14398
▁Spinach	-14399
▁Tagging	-14400
▁Vanessa	-14401
▁bathing	-14402
▁contato	-14403
▁designs	-14404
▁muletas	-14405
▁slapped	-14406
▁Everyone	-14407
▁Floating	-14408
▁Gameplay	-14409
▁Inspired	-14410
▁Nacional	-14411
▁Panflute	-14412
▁Symphony	-14413
▁Veterans	-14414
▁greatest	-14415
▁handmade	-14416
▁portrait	-14417
▁tentando	-14418
▁Ensinando	-14419
▁Raspberry	-14420
▁baseballs	-14421
▁deadlifts	-14422
▁Smartphone	-14423
▁Transition	-14424
▁Unicycling	-14425
▁percussion	-14426
▁waterslide	-14427
▁COMPETITION	-14428
▁Handwashing	-14429
▁SKATEBOARDING	-14430
",	-14431
73	-14432
?)	-14433
Gr	-14434
So	-14435
dn	-14436
oz	-14437
sn	-14438
ку	-14439
าย	-14440
▁स	-14441
007	-14442
AMI	-14443
Arm	-14444
ESE	-14445
ETH	-14446
OLY	-14447
Oct	-14448
ROS	-14449
agh	-14450
chê	-14451
odi	-14452
orf	-14453
ryl	-14454
tes	-14455
▁9,	-14456
▁:]	-14457
▁EB	-14458
▁EU	-14459
▁HB	-14460
▁NM	-14461
▁Ps	-14462
▁TM	-14463
▁XL	-14464
▁mu	-14465
▁ye	-14466
ICAL	-14467
OODS	-14468
OUGH	-14469
Park	-14470
abil	-14471
aman	-14472
anti	-14473
avel	-14474
digy	-14475
este	-14476
eway	-14477
fton	-14478
high	-14479
icha	-14480
inez	-14481
isse	-14482
keys	-14483
meal	-14484
ruit	-14485
soft	-14486
sten	-14487
▁#11	-14488
▁28,	-14489
▁Aff	-14490
▁Apr	-14491
▁BOB	-14492
▁BOS	-14493
▁COW	-14494
▁DAR	-14495
▁DET	-14496
▁DYE	-14497
▁GAA	-14498
▁HUG	-14499
▁JUL	-14500
▁LLC	-14501
▁Lib	-14502
▁Lyd	-14503
▁MEX	-14504
▁Pes	-14505
▁RAP	-14506
▁Tib	-14507
▁Woo	-14508
▁fur	-14509
▁hon	-14510
▁hyd	-14511
▁rob	-14512
▁tru	-14513
ACTOR	-14514
ENDER	-14515
First	-14516
ITING	-14517
Short	-14518
acter	-14519
alore	-14520
andez	-14521
icial	-14522
immer	-14523
ombre	-14524
rasse	-14525
ustin	-14526
▁1991	-14527
▁Berm	-14528
▁CENT	-14529
▁Clas	-14530
▁DROP	-14531
▁Echo	-14532
▁Emil	-14533
▁FEET	-14534
▁Faux	-14535
▁João	-14536
▁Leng	-14537
▁MOUN	-14538
▁PROF	-14539
▁Pair	-14540
▁Seas	-14541
▁Shah	-14542
▁Them	-14543
▁Vern	-14544
▁Winn	-14545
▁arri	-14546
▁axes	-14547
▁cade	-14548
▁deal	-14549
▁deer	-14550
▁fore	-14551
▁lmao	-14552
▁mist	-14553
▁skis	-14554
AMENTO	-14555
handed	-14556
mbones	-14557
monton	-14558
sasana	-14559
▁!!!!!	-14560
▁ACORD	-14561
▁Alleg	-14562
▁Bened	-14563
▁CHEST	-14564
▁Chief	-14565
▁Darth	-14566
▁Faire	-14567
▁Gifts	-14568
▁Kylie	-14569
▁Medal	-14570
▁Meinl	-14571
▁Mitch	-14572
▁Occup	-14573
▁SMART	-14574
▁Santo	-14575
▁Scrap	-14576
▁Tasty	-14577
▁Vines	-14578
▁Wheat	-14579
▁above	-14580
▁cheap	-14581
▁found	-14582
▁kitty	-14583
▁patio	-14584
▁quart	-14585
▁santa	-14586
▁those	-14587
▁types	-14588
▁uncle	-14589
issippi	-14590
ucumber	-14591
▁ANCHOR	-14592
▁CELEBR	-14593
▁Darren	-14594
▁Fisher	-14595
▁Jumper	-14596
▁Knight	-14597
▁Makita	-14598
▁Oxford	-14599
▁Peters	-14600
▁Porter	-14601
▁Queens	-14602
▁RECIPE	-14603
▁Ranger	-14604
▁Rivers	-14605
▁Scotts	-14606
▁Xander	-14607
▁cancer	-14608
▁compet	-14609
▁effect	-14610
▁famous	-14611
▁figure	-14612
▁parade	-14613
▁phones	-14614
▁ripped	-14615
▁triplo	-14616
arehouse	-14617
building	-14618
▁Belgium	-14619
▁Forearm	-14620
▁Glitter	-14621
▁Masonry	-14622
▁Niagara	-14623
▁Shoeing	-14624
▁jogando	-14625
▁lateral	-14626
▁longest	-14627
▁powered	-14628
▁tequila	-14629
▁therapy	-14630
▁weekend	-14631
▁Brisbane	-14632
▁Davidson	-14633
▁Physical	-14634
▁Previsão	-14635
▁Saluting	-14636
▁Santiago	-14637
▁bodysurf	-14638
▁dançando	-14639
▁japanese	-14640
▁medicine	-14641
▁recorded	-14642
▁Classical	-14643
▁Lightning	-14644
▁Reference	-14645
▁applauded	-14646
▁concealer	-14647
▁pushdowns	-14648
▁Blacksmith	-14649
▁Disneyland	-14650
▁Girlfriend	-14651
▁Graduation	-14652
▁Paraglider	-14653
▁SnowKiting	-14654
▁bodysurfing	-14655
")	-14656
'6	-14657
Ey	-14658
LI	-14659
kr	-14660
uo	-14661
аз	-14662
▁у	-14663
▁מ	-14664
▁►	-14665
CHS	-14666
Dec	-14667
Min	-14668
USS	-14669
dis	-14670
eps	-14671
fin	-14672
iji	-14673
ilk	-14674
neo	-14675
uxe	-14676
▁CN	-14677
▁GH	-14678
▁MM	-14679
▁OS	-14680
▁UR	-14681
▁ga	-14682
2017	-14683
ELIN	-14684
PART	-14685
Surf	-14686
brid	-14687
eros	-14688
hell	-14689
hena	-14690
loom	-14691
loyd	-14692
nika	-14693
okes	-14694
olds	-14695
pick	-14696
quel	-14697
rene	-14698
ride	-14699
urai	-14700
vier	-14701
▁29,	-14702
▁420	-14703
▁540	-14704
▁900	-14705
▁Ary	-14706
▁BEE	-14707
▁BIC	-14708
▁Blu	-14709
▁CUP	-14710
▁Gob	-14711
▁Ink	-14712
▁MOR	-14713
▁PIC	-14714
▁RES	-14715
▁Rac	-14716
▁VEN	-14717
▁VIN	-14718
▁Wii	-14719
▁Zep	-14720
▁amp	-14721
▁bab	-14722
▁für	-14723
▁mov	-14724
▁mph	-14725
▁tej	-14726
▁von	-14727
▁wit	-14728
anian	-14729
asaki	-14730
chine	-14731
ocial	-14732
ridor	-14733
▁1995	-14734
▁BART	-14735
▁BLUE	-14736
▁BOSS	-14737
▁DUNK	-14738
▁GONE	-14739
▁GOOD	-14740
▁Gust	-14741
▁MILK	-14742
▁MORE	-14743
▁Mimi	-14744
▁Oppa	-14745
▁Purl	-14746
▁Spar	-14747
▁Ston	-14748
▁Tart	-14749
▁Vale	-14750
▁Viva	-14751
▁cuch	-14752
▁fart	-14753
▁mins	-14754
▁pike	-14755
▁vase	-14756
Making	-14757
amente	-14758
believ	-14759
ocross	-14760
stitch	-14761
verted	-14762
▁Adela	-14763
▁Arche	-14764
▁Asher	-14765
▁BRAID	-14766
▁Brody	-14767
▁CRIAN	-14768
▁Chili	-14769
▁Dairy	-14770
▁Depth	-14771
▁Flour	-14772
▁Folds	-14773
▁GROOM	-14774
▁Glove	-14775
▁Lance	-14776
▁Lopez	-14777
▁Minha	-14778
▁ORGAN	-14779
▁Playa	-14780
▁Price	-14781
▁Quiet	-14782
▁Satin	-14783
▁Seren	-14784
▁Stair	-14785
▁Study	-14786
▁USING	-14787
▁Weber	-14788
▁beads	-14789
▁coach	-14790
▁notes	-14791
▁queso	-14792
▁relie	-14793
▁talks	-14794
▁tread	-14795
English	-14796
Walking	-14797
ascando	-14798
eginner	-14799
lizzard	-14800
ventura	-14801
▁Arnold	-14802
▁Balões	-14803
▁Bikini	-14804
▁Cannon	-14805
▁Effect	-14806
▁FINGER	-14807
▁Failed	-14808
▁HARLEM	-14809
▁SKIING	-14810
▁STUDIO	-14811
▁Sergio	-14812
▁TRICKS	-14813
▁Unload	-14814
▁bamboo	-14815
▁corner	-14816
▁espada	-14817
▁jumper	-14818
▁legend	-14819
▁muscle	-14820
▁passes	-14821
▁pigeon	-14822
▁secret	-14823
▁segund	-14824
▁welder	-14825
▁Bennett	-14826
▁CROCHET	-14827
▁Chester	-14828
▁Counter	-14829
▁Example	-14830
▁Gardens	-14831
▁Laranja	-14832
▁Legends	-14833
▁Medical	-14834
▁Melanie	-14835
▁Rodrigo	-14836
▁SPECIAL	-14837
▁Segment	-14838
▁Studios	-14839
▁Vermont	-14840
▁Vlogmas	-14841
▁Whitney	-14842
▁biggest	-14843
▁package	-14844
▁pruning	-14845
▁separar	-14846
▁statues	-14847
▁Backpack	-14848
▁Brittany	-14849
▁Catalina	-14850
▁Chainsaw	-14851
▁Cultural	-14852
▁HEADBANG	-14853
▁HardJump	-14854
▁KITESURF	-14855
▁Kneeling	-14856
▁Resident	-14857
▁Sessions	-14858
▁photocop	-14859
▁Boyfriend	-14860
▁Classroom	-14861
▁Committee	-14862
▁Corkscrew	-14863
▁Featuring	-14864
▁Mackenzie	-14865
▁Professor	-14866
▁shoulders	-14867
▁stitching	-14868
▁Bulldozing	-14869
▁Exhibition	-14870
▁instrument	-14871
▁prospecting	-14872
.-	-14873
43	-14874
Ed	-14875
FS	-14876
WA	-14877
WS	-14878
ец	-14879
ой	-14880
яз	-14881
008	-14882
600	-14883
Dri	-14884
ayo	-14885
aza	-14886
bes	-14887
cep	-14888
eco	-14889
gro	-14890
kov	-14891
omy	-14892
pit	-14893
rec	-14894
sec	-14895
sto	-14896
von	-14897
ков	-14898
▁7:	-14899
▁KI	-14900
▁Pé	-14901
▁TG	-14902
▁id	-14903
▁jr	-14904
DING	-14905
ITOS	-14906
Shop	-14907
Wood	-14908
aixa	-14909
alia	-14910
allo	-14911
apor	-14912
ción	-14913
cken	-14914
cony	-14915
etti	-14916
iela	-14917
izen	-14918
ribe	-14919
rics	-14920
ters	-14921
urso	-14922
▁#10	-14923
▁15,	-14924
▁165	-14925
▁22,	-14926
▁ABR	-14927
▁DUB	-14928
▁Doc	-14929
▁Dol	-14930
▁Dos	-14931
▁GAL	-14932
▁Lie	-14933
▁MAY	-14934
▁MDF	-14935
▁MTB	-14936
▁ROT	-14937
▁Rho	-14938
▁Rib	-14939
▁SEN	-14940
▁TIM	-14941
▁TKD	-14942
▁Unt	-14943
▁WOM	-14944
▁Wol	-14945
▁Zip	-14946
▁bmx	-14947
▁cai	-14948
▁cob	-14949
▁god	-14950
▁hus	-14951
▁nut	-14952
▁ras	-14953
▁som	-14954
▁tou	-14955
APPLE	-14956
DANCE	-14957
Shirt	-14958
Water	-14959
anson	-14960
chron	-14961
idian	-14962
ively	-14963
presa	-14964
ufact	-14965
▁1950	-14966
▁Bann	-14967
▁Blen	-14968
▁Buen	-14969
▁Cory	-14970
▁Dica	-14971
▁Elev	-14972
▁HERO	-14973
▁HUGE	-14974
▁Moth	-14975
▁Much	-14976
▁Nora	-14977
▁PICK	-14978
▁PIER	-14979
▁PINE	-14980
▁Seat	-14981
▁Sure	-14982
▁WILD	-14983
▁alph	-14984
▁aunt	-14985
▁buns	-14986
▁chap	-14987
▁fort	-14988
▁lava	-14989
▁main	-14990
▁rabb	-14991
▁reel	-14992
▁type	-14993
▁york	-14994
▁zero	-14995
ASTING	-14996
liders	-14997
orpion	-14998
rowing	-14999
stairs	-15000
unches	-15001
▁2012,	-15002
▁APPLE	-15003
▁Becky	-15004
▁Cache	-15005
▁Canoe	-15006
▁Clock	-15007
▁Crock	-15008
▁EXERC	-15009
▁Jelly	-15010
▁Krish	-15011
▁Lotus	-15012
▁POKER	-15013
▁Porco	-15014
▁Quint	-15015
▁Setup	-15016
▁Solar	-15017
▁Stere	-15018
▁doesn	-15019
▁fence	-15020
▁flair	-15021
▁looks	-15022
▁nacho	-15023
▁shout	-15024
▁sling	-15025
▁these	-15026
ILATION	-15027
ecoming	-15028
fficult	-15029
isserie	-15030
licação	-15031
ressive	-15032
▁Bullet	-15033
▁Butler	-15034
▁Elliot	-15035
▁Gospel	-15036
▁Govern	-15037
▁Guerra	-15038
▁INDIAN	-15039
▁Import	-15040
▁Latest	-15041
▁MASTER	-15042
▁Minnie	-15043
▁Munich	-15044
▁Murano	-15045
▁Pirate	-15046
▁Popper	-15047
▁Sharon	-15048
▁Sleepy	-15049
▁Veggie	-15050
▁Warped	-15051
▁balões	-15052
▁cutter	-15053
▁dragon	-15054
▁indust	-15055
▁wonder	-15056
▁xadrez	-15057
fference	-15058
▁Blokart	-15059
▁Bradley	-15060
▁Clinton	-15061
▁Fantasy	-15062
▁Forever	-15063
▁Gallery	-15064
▁Harbour	-15065
▁Memphis	-15066
▁Midwest	-15067
▁Panther	-15068
▁Pierced	-15069
▁Primary	-15070
▁Sabrina	-15071
▁Streets	-15072
▁Tirando	-15073
▁Twisted	-15074
▁amateur	-15075
▁continu	-15076
▁gravity	-15077
▁metales	-15078
▁raising	-15079
▁serious	-15080
▁Activity	-15081
▁Barbecue	-15082
▁Missouri	-15083
▁SANDWICH	-15084
▁Shifting	-15085
▁Superman	-15086
▁Transfer	-15087
▁solution	-15088
▁stitches	-15089
believable	-15090
renamiento	-15091
▁Asheville	-15092
▁Balancing	-15093
▁Escultura	-15094
▁Liverpool	-15095
▁Microwave	-15096
▁Procedure	-15097
▁Rodriguez	-15098
▁ganchillo	-15099
▁performer	-15100
▁Attempting	-15101
▁Bodyweight	-15102
▁Comparison	-15103
▁Impossible	-15104
▁Sandwiches	-15105
▁Engineering	-15106
▁sandcastles	-15107
▁straightening	-15108
▁Interpretation	-15109
.,	-15110
2-	-15111
6.	-15112
63	-15113
At	-15114
Bl	-15115
PO	-15116
▁ב	-15117
▁เ	-15118
-31	-15119
AMB	-15120
Bow	-15121
CHA	-15122
Feb	-15123
NER	-15124
RAB	-15125
UAL	-15126
UND	-15127
akh	-15128
aze	-15129
cht	-15130
ebe	-15131
inf	-15132
lle	-15133
lol	-15134
urg	-15135
ñol	-15136
▁57	-15137
▁7.	-15138
▁78	-15139
▁BT	-15140
▁DD	-15141
▁Ek	-15142
▁KH	-15143
▁MX	-15144
▁TY	-15145
▁ip	-15146
ACAY	-15147
HONE	-15148
ISTA	-15149
Mart	-15150
Perf	-15151
Rope	-15152
Snow	-15153
asso	-15154
cing	-15155
eger	-15156
epad	-15157
ielo	-15158
inoa	-15159
like	-15160
opia	-15161
rade	-15162
ание	-15163
▁003	-15164
▁ACT	-15165
▁Aar	-15166
▁Aur	-15167
▁BTS	-15168
▁ENG	-15169
▁Edu	-15170
▁FAR	-15171
▁Gag	-15172
▁KAR	-15173
▁KEY	-15174
▁Kos	-15175
▁Kub	-15176
▁LAR	-15177
▁Lac	-15178
▁Mae	-15179
▁Nok	-15180
▁Ode	-15181
▁Owl	-15182
▁PAD	-15183
▁RAC	-15184
▁ROM	-15185
▁bom	-15186
▁gol	-15187
▁lou	-15188
▁mao	-15189
▁sou	-15190
EPING	-15191
MELON	-15192
afood	-15193
arius	-15194
clean	-15195
erior	-15196
ighty	-15197
irect	-15198
ntage	-15199
osite	-15200
ports	-15201
redit	-15202
reira	-15203
roach	-15204
track	-15205
▁BOUN	-15206
▁Cait	-15207
▁Cert	-15208
▁Cops	-15209
▁Gonz	-15210
▁Gulf	-15211
▁Hire	-15212
▁Imag	-15213
▁LICK	-15214
▁MINI	-15215
▁Mayo	-15216
▁Norm	-15217
▁PERU	-15218
▁POLO	-15219
▁Size	-15220
▁Tara	-15221
▁Vivi	-15222
▁alum	-15223
▁asmr	-15224
▁bras	-15225
▁duck	-15226
▁phil	-15227
▁saca	-15228
▁seat	-15229
▁seen	-15230
▁sink	-15231
aining	-15232
apente	-15233
change	-15234
ellent	-15235
oosing	-15236
oração	-15237
timore	-15238
ulture	-15239
▁Allie	-15240
▁Baile	-15241
▁Bally	-15242
▁Benny	-15243
▁Bless	-15244
▁Cairo	-15245
▁Cigar	-15246
▁FOUND	-15247
▁Fiona	-15248
▁Funky	-15249
▁Laces	-15250
▁Lamin	-15251
▁Lever	-15252
▁Mayor	-15253
▁PIPES	-15254
▁Pitts	-15255
▁Pound	-15256
▁SHINE	-15257
▁SHOES	-15258
▁Stops	-15259
▁There	-15260
▁Towel	-15261
▁Troca	-15262
▁UNDER	-15263
▁acade	-15264
▁downs	-15265
▁holes	-15266
▁knock	-15267
▁melon	-15268
▁shell	-15269
▁steer	-15270
▁techn	-15271
▁thumb	-15272
aciendo	-15273
edience	-15274
rumando	-15275
tingham	-15276
▁Aussie	-15277
▁BALLET	-15278
▁Barrow	-15279
▁Brutal	-15280
▁Bryant	-15281
▁Colton	-15282
▁Cosmet	-15283
▁Follow	-15284
▁Freder	-15285
▁Heaven	-15286
▁Kerala	-15287
▁Kisses	-15288
▁Krispy	-15289
▁Layout	-15290
▁Magica	-15291
▁NAPKIN	-15292
▁Pavers	-15293
▁Pierre	-15294
▁Please	-15295
▁Punjab	-15296
▁ROLLER	-15297
▁SMOOTH	-15298
▁Stevie	-15299
▁Thiago	-15300
▁Treino	-15301
▁Vision	-15302
▁Wesley	-15303
▁bucket	-15304
▁crawls	-15305
▁limpar	-15306
▁medium	-15307
▁pintar	-15308
▁scared	-15309
▁Baskets	-15310
▁Calculo	-15311
▁Capital	-15312
▁Denmark	-15313
▁Douglas	-15314
▁Ejercic	-15315
▁Feather	-15316
▁Hyundai	-15317
▁Indepen	-15318
▁Mammoth	-15319
▁Masterc	-15320
▁Miranda	-15321
▁Penguin	-15322
▁Printer	-15323
▁Spartan	-15324
▁finally	-15325
▁knuckle	-15326
▁officer	-15327
▁parking	-15328
▁scissor	-15329
▁slicing	-15330
▁spindle	-15331
▁turning	-15332
▁univers	-15333
▁Atlantic	-15334
▁Benedict	-15335
▁Billiard	-15336
▁Bootcamp	-15337
▁FESTIVAL	-15338
▁Halftime	-15339
▁Hardware	-15340
▁Lawrence	-15341
▁Pirulito	-15342
▁Staining	-15343
▁dumbbell	-15344
▁spinners	-15345
▁waterski	-15346
▁wireless	-15347
▁Capsizing	-15348
▁Container	-15349
▁Crossover	-15350
▁Gathering	-15351
▁Practical	-15352
▁Transform	-15353
▁swallower	-15354
▁Collecting	-15355
▁Controlled	-15356
▁HandiWorks	-15357
▁Profession	-15358
▁Rappelling	-15359
▁WATERMELON	-15360
▁adventures	-15361
▁handstands	-15362
▁Mississippi	-15363
▁blueberries	-15364
▁cheerleaders	-15365
▁construction	-15366
▁sandblasting	-15367
Ac	-15368
BY	-15369
Dr	-15370
KC	-15371
LP	-15372
SR	-15373
lé	-15374
nh	-15375
ís	-15376
ör	-15377
ıl	-15378
ая	-15379
еп	-15380
▁א	-15381
▁ل	-15382
.28	-15383
ATF	-15384
EEN	-15385
NIS	-15386
Rob	-15387
cas	-15388
gne	-15389
gus	-15390
hou	-15391
jun	-15392
quo	-15393
quí	-15394
sch	-15395
zas	-15396
การ	-15397
▁62	-15398
▁7-	-15399
▁8-	-15400
▁94	-15401
▁??	-15402
▁BH	-15403
▁Bb	-15404
▁GM	-15405
▁Ng	-15406
▁om	-15407
IANT	-15408
IBLE	-15409
IDER	-15410
INHA	-15411
LESS	-15412
ORES	-15413
Vlog	-15414
aled	-15415
alie	-15416
aloo	-15417
amer	-15418
anza	-15419
baby	-15420
bull	-15421
cola	-15422
ecto	-15423
emen	-15424
esso	-15425
held	-15426
hold	-15427
imal	-15428
lect	-15429
lyde	-15430
oper	-15431
otto	-15432
rice	-15433
uild	-15434
xton	-15435
▁(15	-15436
▁18,	-15437
▁19,	-15438
▁215	-15439
▁Dul	-15440
▁Eug	-15441
▁FAT	-15442
▁Gav	-15443
▁Jew	-15444
▁LAD	-15445
▁Lix	-15446
▁Lut	-15447
▁MID	-15448
▁MUK	-15449
▁NAM	-15450
▁Oat	-15451
▁PAL	-15452
▁Pés	-15453
▁Tus	-15454
▁jer	-15455
▁pes	-15456
▁pon	-15457
▁ray	-15458
▁для	-15459
Cover	-15460
Funny	-15461
ILING	-15462
OGRAF	-15463
Stick	-15464
arded	-15465
billy	-15466
bread	-15467
estop	-15468
etter	-15469
fiber	-15470
first	-15471
spect	-15472
storm	-15473
tando	-15474
zinha	-15475
ência	-15476
ógico	-15477
▁Bert	-15478
▁Bind	-15479
▁CROW	-15480
▁Chev	-15481
▁Desi	-15482
▁Eder	-15483
▁Emmy	-15484
▁Espa	-15485
▁Even	-15486
▁Fart	-15487
▁Kash	-15488
▁Mats	-15489
▁Mush	-15490
▁NEWS	-15491
▁Pred	-15492
▁Rach	-15493
▁Rams	-15494
▁Rory	-15495
▁Shin	-15496
▁TUMB	-15497
▁Type	-15498
▁bone	-15499
▁fund	-15500
▁jess	-15501
▁nick	-15502
▁olds	-15503
▁queb	-15504
▁rail	-15505
▁save	-15506
▁stay	-15507
▁vine	-15508
INNERS	-15509
driver	-15510
ecteur	-15511
hesive	-15512
uadern	-15513
ussian	-15514
▁2015.	-15515
▁Abbey	-15516
▁Alley	-15517
▁Annab	-15518
▁Banho	-15519
▁Bolha	-15520
▁Corda	-15521
▁Fence	-15522
▁Ferry	-15523
▁GREAT	-15524
▁Knees	-15525
▁Kreme	-15526
▁Malta	-15527
▁Peach	-15528
▁Perez	-15529
▁Pract	-15530
▁Pride	-15531
▁SHAVE	-15532
▁Servi	-15533
▁Siber	-15534
▁Verde	-15535
▁WINDS	-15536
▁Worth	-15537
▁Woven	-15538
▁angel	-15539
▁brand	-15540
▁bunny	-15541
▁claps	-15542
▁coast	-15543
▁dozer	-15544
▁layer	-15545
▁pants	-15546
▁rules	-15547
▁sarah	-15548
▁setup	-15549
▁texas	-15550
▁trial	-15551
▁vegas	-15552
Country	-15553
boarder	-15554
spapers	-15555
uckland	-15556
▁Athena	-15557
▁Atomic	-15558
▁Chance	-15559
▁Constr	-15560
▁Eagles	-15561
▁Fitted	-15562
▁Ghetto	-15563
▁Hidden	-15564
▁Lovely	-15565
▁Manuel	-15566
▁Phones	-15567
▁Rafael	-15568
▁Ravens	-15569
▁SIMPLE	-15570
▁Veneer	-15571
▁bolhas	-15572
▁degree	-15573
▁fights	-15574
▁joints	-15575
▁justin	-15576
▁lights	-15577
▁spiral	-15578
▁Addison	-15579
▁Boulder	-15580
▁Bouquet	-15581
▁Claudia	-15582
▁Collins	-15583
▁Desktop	-15584
▁Display	-15585
▁Doubles	-15586
▁Dummies	-15587
▁Edwards	-15588
▁Effects	-15589
▁Formula	-15590
▁Francis	-15591
▁Jackpot	-15592
▁Kaitlyn	-15593
▁Loading	-15594
▁PUTTING	-15595
▁Passion	-15596
▁Problem	-15597
▁Showing	-15598
▁WITHOUT	-15599
▁easiest	-15600
▁moments	-15601
▁program	-15602
▁quality	-15603
▁section	-15604
▁Abstract	-15605
▁Ballroom	-15606
▁Banglade	-15607
▁External	-15608
▁Kentucky	-15609
▁MARCHING	-15610
▁Manicure	-15611
▁Outdoors	-15612
▁Phillips	-15613
▁Programa	-15614
▁Sailboat	-15615
▁Supplies	-15616
▁Talented	-15617
▁advanced	-15618
▁gritando	-15619
▁parasail	-15620
▁princess	-15621
▁sledding	-15622
▁trocando	-15623
▁Baltimore	-15624
▁Cambridge	-15625
▁Marquette	-15626
▁PINEAPPLE	-15627
▁Precision	-15628
▁Spotlight	-15629
▁dangerous	-15630
▁interpret	-15631
▁Department	-15632
▁Instructor	-15633
▁Watercolor	-15634
▁geocaching	-15635
▁Blindfolded	-15636
▁bellybutton	-15637
▁lockpicking	-15638
▁refinishing	-15639
▁scrapbooking	-15640
!?	-15641
.(	-15642
58	-15643
BB	-15644
Kg	-15645
iu	-15646
ws	-15647
ас	-15648
ту	-15649
ات	-15650
ệt	-15651
▁З	-15652
▁●	-15653
.26	-15654
/3)	-15655
150	-15656
CUT	-15657
HAS	-15658
Har	-15659
ICI	-15660
III	-15661
INI	-15662
Off	-15663
UNG	-15664
ZER	-15665
ahn	-15666
cor	-15667
hin	-15668
mit	-15669
obr	-15670
pop	-15671
rag	-15672
rek	-15673
sky	-15674
upe	-15675
vat	-15676
wax	-15677
zos	-15678
▁DT	-15679
▁NK	-15680
▁Sr	-15681
▁WS	-15682
0001	-15683
AÇÃO	-15684
Blue	-15685
IVES	-15686
Jack	-15687
LANT	-15688
Play	-15689
STEM	-15690
Side	-15691
alam	-15692
anos	-15693
asca	-15694
atha	-15695
ctic	-15696
dent	-15697
enia	-15698
eton	-15699
free	-15700
gust	-15701
heus	-15702
lada	-15703
thon	-15704
▁151	-15705
▁DID	-15706
▁Dex	-15707
▁JER	-15708
▁Kom	-15709
▁NAR	-15710
▁Nas	-15711
▁STL	-15712
▁Sau	-15713
▁Ses	-15714
▁Tuc	-15715
▁Wee	-15716
▁Yas	-15717
▁ath	-15718
▁fed	-15719
▁rio	-15720
▁spr	-15721
▁tel	-15722
▁tit	-15723
angan	-15724
aylor	-15725
etime	-15726
fully	-15727
stead	-15728
vania	-15729
yards	-15730
▁Beau	-15731
▁Evel	-15732
▁FILL	-15733
▁Gage	-15734
▁Harm	-15735
▁Kiwi	-15736
▁Laos	-15737
▁MOST	-15738
▁Mang	-15739
▁PROD	-15740
▁Perc	-15741
▁Poor	-15742
▁Poss	-15743
▁Reid	-15744
▁SEXY	-15745
▁Samp	-15746
▁Stra	-15747
▁Taco	-15748
▁Tone	-15749
▁WINE	-15750
▁batt	-15751
▁exam	-15752
▁khan	-15753
▁papa	-15754
▁pose	-15755
▁prem	-15756
▁ship	-15757
▁sort	-15758
▁wide	-15759
athers	-15760
cester	-15761
dering	-15762
ention	-15763
father	-15764
garten	-15765
uffles	-15766
undred	-15767
urally	-15768
▁2011:	-15769
▁2014.	-15770
▁2015)	-15771
▁Bloom	-15772
▁Brain	-15773
▁Bubba	-15774
▁CHARL	-15775
▁Cyrus	-15776
▁DRUMS	-15777
▁Dança	-15778
▁Fairy	-15779
▁GRAND	-15780
▁Jumbo	-15781
▁Kenya	-15782
▁Labor	-15783
▁Lydia	-15784
▁MARAC	-15785
▁PRACT	-15786
▁QUICK	-15787
▁Reach	-15788
▁Recre	-15789
▁STONE	-15790
▁Sasha	-15791
▁Tries	-15792
▁Vodka	-15793
▁Wakes	-15794
▁carta	-15795
▁cooks	-15796
▁diver	-15797
▁grill	-15798
▁kevin	-15799
▁locks	-15800
▁meses	-15801
▁niños	-15802
▁peint	-15803
▁rodeo	-15804
writing	-15805
▁Adding	-15806
▁Attend	-15807
▁Bridal	-15808
▁CHANGE	-15809
▁Chords	-15810
▁Client	-15811
▁Conner	-15812
▁DOUBLE	-15813
▁Degree	-15814
▁Foster	-15815
▁Giants	-15816
▁Guatem	-15817
▁Jessie	-15818
▁Josiah	-15819
▁Kimber	-15820
▁Menina	-15821
▁Number	-15822
[...]
